<pad>
<eos>
<unk>
.
,
?
I
you
the
ist
Ich
a
to
&apos;s
!
du
ich
in
nicht
es
it
das
&apos;t
was
that
die
You
of
is
zu
ein
me
...
Sie
dass
der
Oh
st
und
ay
sie
Du
an
and
this
Es
&apos;m
on
so
wir
Das
my
habe
&apos;re
we
er
eine
know
have
for
mir
&quot;
do
It
be
not
your
mich
H@@
don
den
just
Und
mit
And
Was
What
hat
auf
dich
what
Wir
can
are
Ok@@
We
von
war
dir
haben
h
Ja
für
he
like
here
all
about
with
ey
get
out
einen
hast
bin
hier
right
ah
wie
aus
sind
..
No
Er
m
at
He
um
ver@@
That
up
one
na
sein
uns
The
gon@@
nur
got
Ye@@
Nein
meine
go
think
So
Well
her
kann
no
&apos;ll
there
weiß
will
&apos;
dem
him
wenn
M@@
sich
t
wird
&apos;ve
man
als
y
gut
want
noch
bist
need
ok@@
Aber
Also
werden
s
But
L@@
einfach
ja
going
they
K@@
schon
da
if
mein
time
she
T@@
This
Wie
am
etwas
D@@
Die
e
now
h@@
werde
back
ihr
gehen
see
us
B@@
from
immer
oder
te
tun
w@@
muss
ihn
im
dam@@
S@@
Wenn
or
did
l
machen
were
Mann
nach
good
aber
They
his
but
She
über
b@@
Ver@@
jetzt
keine
fu@@
as
sagen
:
auch
mean
o
had
alles
really
wirklich
W@@
thing
All
down
r@@
geht
say
been
some
How
k@@
didn
nein
diese
how
ing
gibt
deine
m@@
when
N@@
our
them
zum
also
sehen
sehr
sh@@
g
n
doing
ch
something
&apos;d
-@@
bei
If
There
way
little
by
would
b
mal
Sch@@
p@@
Let
Warum
an@@
look
could
einem
take
who
auf@@
mehr
können
d@@
er@@
f@@
has
nichts
Der
P@@
Why
einer
nie
A@@
make
should
more
come
tell
gesagt
let
A
off
Come
G@@
ck
r
Don
t@@
R@@
Zeit
alle
des
würde
Do
gerade
weißt
wieder
e@@
müssen
ass
ed
kannst
ten
very
un@@
viel
In
leid
sorry
tut
vor
los
en
glaube
Leute
ihm
y@@
Now
ie
sch@@
willst
dann
hatte
war@@
My
F@@
Just
lich
never
kommen
said
C@@
Yes
el
over
Gott
che
ge@@
guys
st@@
where
Ist
much
dein
re@@
day
E@@
aus@@
gesehen
p
too
U@@
damit
dr@@
ßt
Hallo
two
why
i
est
musst
then
bitte
dy
thought
Nun
u@@
O@@
Wei@@
cking
still
wissen
even
Is
de
dieser
Ä@@
love
s@@
help
wurde
ch@@
heute
people
any
diesem
n@@
give
w
Alles
g@@
gemacht
mt
talk
wirst
Kom@@
be@@
Ein
Look
paar
J@@
ab@@
kein
ly
meinen
Leben
Na@@
diesen
dieses
An@@
St@@
find
into
life
than
ße
denke
dachte
Schei@@
end
euch
these
only
work
Can
Frau
God
away
ever
le
bekommen
si@@
anything
put
sp@@
denn
other
sicher
zwei
Tag
son
zurück
call
schul@@
wäre
chen
ge
guy
id
Sh@@
bringen
doch
möchte
well
ein@@
hätte
old
sure
Not
Vater
deinen
ess
l@@
Hast
around
told
wo
c@@
gehört
talking
Wa@@
before
dest
ins
ke
könnte
seine
Ihr
always
Geld
Jetzt
lot
Dr.
Mal
finden
nothing
ter
Ordnung
Sir
again
please
reden
um@@
When
everything
kind
made
passiert
sagte
sollte
years
Are
Vielleicht
gen
genau
macht
ump@@
Wo@@
ad
ard
meinem
weg
Thank
bis
en@@
house
lassen
those
Y@@
ate
einmal
hören
things
vielleicht
ä@@
Ihnen
in@@
klar
last
mach@@
test
ß
Gu@@
bst
first
geben
money
u
z@@
Did
Mein
bad
does
keep
wollte
anna
brau@@
ck@@
doesn
getting
hell
k
stop
ta
warum
Nicht
Re@@
War@@
Who
ach
great
keinen
must
ob
Ch@@
Ent@@
Hier
car
d
done
selbst
Sache
bisschen
body
el@@
use
waren
Your
feel
home
long
tig
weil
Ar@@
Hö@@
Where
et
name
night
zur
Danke
big
came
deinem
father
on@@
zurück@@
Haus
Mutter
Mädchen
davon
gekommen
got@@
gu@@
Mr.
al
better
brauchen
coming
f
ganze
hear
up@@
Abend
Eine
Moment
believe
left
real
unter
ut
I@@
Maybe
Si@@
Weg
Wer
besser
ihnen
ot
today
Bitte
Dinge
Phi@@
Right
Teufel
fine
soll
wer
Because
Herr
Um
because
being
ell
happened
head
helfen
meiner
solltest
Hause
a@@
ar@@
ry
ung
zu@@
Dann
Ge@@
OK
ad@@
ask
j@@
might
om
same
whole
wollen
Auto
Get
Good
alt
best
cht
ine
kommt
lange
wait
wanted
....
Car@@
Then
course
knew
mo@@
ou
th@@
went
won
über@@
Junge
Ker@@
Meine
Wo
Z@@
anderen
care
friend
halten
leave
Ab@@
Here
Sorry
after
ap@@
ent@@
nice
ro@@
se
unsere
ab
au
di@@
else
gefunden
leg
omm@@
show
their
Kopf
Un@@
ight
ina
mind
place
richtig
schön
Schatz
boy
isn
maybe
remember
wasn
weiter
Los
One
Pap@@
Sa@@
To@@
andere
darüber
em
enough
geh@@
ihre
wusste
10
Diese
Freund
Man
Mar@@
deiner
getan
mag
together
Gi@@
al@@
found
next
qu@@
seen
sollten
ste
trying
wür@@
Als
Qu@@
ally
baby
danke
ganz
hard
o@@
ol@@
someone
wrong
Go
already
at@@
ei@@
ick
jemand
job
most
sollen
verrück@@
00
Ein@@
Max
dort
family
gone
lass
ma@@
ri@@
sei
took
wei@@
20
Br@@
Fr@@
Kl@@
ama
ar
digung
every
heard
mm
mte
new
own
ra
stay
through
try
v@@
wahr
Art
Familie
Like
Menschen
ber
dafür
daran
denk@@
denken
durch
genug
ger@@
girl
la@@
mother
ophie
sage
sc@@
vor@@
Fall
Ir@@
Luke
Oder
Or
Rob@@
Woh@@
actually
fast
gebracht
gegeben
gehe
glauben
gt
kill
kom@@
live
mache
men
mit@@
ne
sag@@
unser
zusammen
Mike
Se@@
Who@@
ann@@
as@@
dad
der@@
minutes
pretty
saw
saying
sieh@@
tt@@
ust
Jahren
Minuten
Welt
another
bedeutet
chte
ding
ganzen
große
le@@
meet
side
three
versucht
viele
world
ye
yourself
ziemlich
Bur@@
Da
For
Sp@@
Vor@@
draußen
drei
eines
ers
ging
kam
king
means
nehmen
problem
sch
understand
wo@@
Dollar
Fu@@
Gut
Kind
Nur
Please
am@@
few
gel@@
gh
hi@@
liebe
room
sagt
schw@@
seit
ton@@
ve
Have
Jesus
Shel@@
Thanks
Uhr
Weil
ang
crazy
ench@@
fertig
happen
hin
idea
mein@@
ru@@
ty
wor@@
ze
ö@@
Auf
Jahre
Problem
ago
bei@@
bereit
bl@@
business
gesch@@
hin@@
i@@
komm@@
ler
listen
looking
sen
stehe
worry
ys
1
30
Ah
Baby
Hi
No@@
Seite
V@@
able
called
eln
ens
genommen
hu@@
is@@
plan
sehe
ts
z
ü@@
Ihre
Jungs
Lee
Leon@@
See
Sorgen
Stadt
Will@@
de@@
dead
gen@@
ill
im@@
jeden
mm@@
open
play
used
weg@@
ziehen
Arbeit
Dam@@
Dank
Keine
bit
bo@@
bring
dazu
ep@@
erste
gedacht
gute
iert
ni@@
phone
point
sprechen
swe@@
unter@@
versch@@
wife
Be@@
David
Kinder
Th@@
lei@@
set
ur@@
wenig
100
Bruce
Hello
Hilfe
New
Of
Spiel
Stop
cks
deal
e-@@
erst
fen
five
ft
isch
iss
minute
run
schnell
sieht
start
stehen
water
wouldn
Geschichte
Nick@@
Wirk@@
c
eht
em@@
fall
gi@@
making
morgen
natürlich
oh
schau
stuff
supposed
thinking
tomorrow
turn
überhaupt
Alle
Augen
El@@
Mit@@
Nacht
Su@@
bey
check
durch@@
eh@@
ek@@
exactly
gave
her@@
holen
ieren
important
ken
leben
len
morning
nen
part
says
tes
ting
tu@@
wahrscheinlich
Any@@
Dra@@
Name
Nim@@
Ort
Penn@@
Plan
Ru@@
alten
ame
bleiben
cher
ere
face
game
hier@@
hours
inside
ir@@
li@@
line
lost
party
schwer
second
seinen
stellen
th
ungen
würden
Bruder
Freundin
Kann
Schw@@
Sohn
au@@
bevor
ce
days
fact
friends
gel
hit
ing@@
konnte
low
many
mar@@
may
myself
school
sk@@
steht
tra@@
vom
watch
yet
äh@@
As
Give
Morgen
Ro@@
Sie@@
To
Tom
beide
ben
det@@
eins
ette
eyes
hatten
ica
lie
lus@@
mes
rein@@
ster
tige
tried
until
wa@@
woman
year
&apos;@@
Angst
Auf@@
Frage
Gab@@
Job
Mc@@
Rich@@
ain
arbeiten
art
ast
aufen
case
cut
dabei
darauf
det
doctor
du@@
essen
est@@
etwa
everybody
fun
fünf
hand
happy
ino
jemals
knows
ley
matter
move
probably
sa@@
schen
sm@@
stand
sti@@
ut@@
verloren
versuchen
$
Alex
Bl@@
Co@@
Ende
Glück
Stunden
Teil
Wann
abe
ans
bu@@
change
co@@
eigentlich
ern
ert
fahren
gefallen
gleich
having
kl@@
komme
late
musste
rich@@
taking
telling
ul@@
working
Ash@@
Gesicht
Hol@@
John
Le@@
Mensch
Mo@@
Pu@@
Take
air
anders
ation
br@@
brother
dies
ersch@@
gest@@
gets
haven
hör
hör@@
ily
kenn@@
liegt
ma
nehme
oll@@
person
shall
spielen
started
story
tet
thank
tri@@
Bo@@
Er@@
Exc@@
Jahr
Listen
Mer@@
ana
anderes
box
cker
field
gegangen
hinter
hä@@
ia
irgend@@
jo@@
les
less
million
mis@@
nach@@
needs
ner
oben
ohne
po@@
sche
such
town
wann
wants
5
Al@@
Bet@@
Jack
Jes@@
Lar@@
Niemand
Pro@@
Wasser
allen
ast@@
besch@@
both
car@@
hei@@
looks
lose
ole
perfect
ready
spät
tie
töten
ver
wh@@
while
word
yes
Gefühl
Hat
Stück
Tell
York
ag@@
anyone
ber@@
boys
break
clear
cool
couple
digen
els
ent
es@@
gesprochen
glau@@
groß@@
ire
irgendwie
jemanden
lo@@
once
rein
ris@@
run@@
schei@@
so@@
sogar
steh@@
ted
ti@@
toll
treffen
wegen
without
üs@@
12
2
Carol@@
Für
Geh@@
In@@
Ju@@
Mir
Mit
Nach@@
Nichts
Wor@@
anny
anymore
bar
beim
door
dum@@
ep
ff@@
gab
girlfriend
gst
kid@@
letzte
ms
ons
question
since
sterben
stimmt
sü@@
ther
tot
ure
verstanden
zen
15
De@@
Denn
Freunde
Glau@@
Haben
La@@
Michael
Natürlich
Platz
Some@@
Spaß
Two
Typ
Vielen
Wort
ack
ake
ausge@@
az@@
beautiful
bel@@
cause
different
enden
everyone
ex@@
fallen
fragen
girls
go@@
goes
ha@@
heraus@@
hold
hot
hour
liche
lässt
makes
met
par@@
read
retten
rie
sofort
tr@@
ull
unseren
walk
weiter@@
which
wichtig
wish
.@@
3
Captain
Carlos
Charlie
Dar@@
Dein
Hon@@
Idee
Kar@@
Nick
Recht
Ri@@
Sand@@
Schuld
Sus@@
Which
all@@
braucht
bul@@
chance
couldn
dis@@
each
egal
et@@
fe
fight
gew@@
ick@@
ihren
kleine
könn@@
meines
ooks
ose
pay
ra@@
ree
seid
sit
sounds
though
tion
v
vorbei
wen
wis@@
,000
Arzt
Deshalb
Dies
Dieser
Does
Fine
Hand
Hu@@
Im
Kein
Mann@@
Miss
Mon@@
Nachricht
Put
S
Wochen
age
ak
alone
arb@@
asking
bed
bereits
blei@@
buy
cked
direkt
eck
eh
ei
einzige
four
gewesen
hab
half
jeder
lang
liches
ne@@
ner@@
ns
passieren
quite
recht
schlim@@
schrei@@
sed
tisch
trau@@
trust
unten
video
weeks
win
während
wär@@
är@@
.000
Aus@@
Bab@@
Boden
Con@@
Dieses
Everything
Francisco
Hör@@
I-@@
Mark
Männer
Namen
Nothing
On
Our
Pad@@
Party
Pir@@
Ron@@
T
Tür
US
Wh@@
Would
ac@@
ale
ali@@
ating
book
cra@@
edi@@
elt
ete
ev@@
fer
gend@@
get@@
gun
hatt@@
hope
it@@
kaufen
key
könnten
mine
mouth
news
niemand
op@@
past
piece
save
schauen
scht
sel@@
sick
soon
tau@@
under
vier
warten
write
zusammen@@
ß@@
Ah@@
Deine
Henry
Können
Minute
Polizei
Those
Waffe
Will
With
ahead
asked
asse
ator
aw@@
bar@@
eat
eigenen
funny
gar
gegen
gerne
ges@@
hole
husband
ie@@
il
je
klingt
least
nett
no@@
rest
sense
shut
sonst
station
unch
une
verstehen
wurden
zehn
ör@@
11
Com@@
Geschäft
Grund
Ku@@
Liebe
Lin@@
Log@@
Sehr
Sekunde
Sha@@
ang@@
ass@@
blood
bor@@
bra@@
ches
d-@@
easy
ersten
falsch
far
ff
for@@
fre@@
ger
gestern
honey
hur@@
ien
jenige
kleines
ks
lady
lieb@@
mann
moment
mu@@
number
nung
ous
pe@@
race
ring
sechs
selts@@
spreche
star@@
team
tragen
us@@
weekend
wn
wohl
x
yn
Über@@
üt@@
9@@
Am
Any
Fehler
Hal@@
Jeder
Lei@@
Master
Nummer
Or@@
Schö@@
Stunde
Tasche
These
Wir@@
Woche
Wochenende
ail@@
any@@
ari@@
ary
aut
beiden
bri@@
comes
ds
eit@@
either
erinnern
ett
explo@@
fühle
gerufen
hands
hoffe
hätten
ic@@
irgendwo
ka
kenne
ker
kids
lan@@
legen
ling
loch
oh@@
paper
per
police
pp@@
rate
raten
rich
schreiben
se@@
ser@@
six
sten
su@@
ten@@
ter@@
tin
ungs@@
unserer
unt
vergessen
wear
week
wunder@@
50
Außerdem
Do@@
Du@@
En@@
Even
Herren
Je@@
Komm@@
Ma@@
Millionen
Pol@@
Ra@@
Sam
San
U
Vor
War
afraid
almost
ance
anda
ant
aren
behind
ben@@
ble@@
cht@@
dige
drink
eben
einige
enk@@
entire
enz@@
erzählt
etti
fault
fl@@
geb@@
getroffen
gezogen
guter
ha
habt
hate
ier@@
ig
ings
inn
its
kleiner
letzten
lieben
läuft
man@@
mon@@
möglich
net
nächsten
ob@@
offen
ops
or@@
ors
pick
ran@@
rd
schie@@
sen@@
shot
times
true
ts@@
ur
verlassen
verlieren
welcome
wesome
woll@@
ätze
60
Adam
Be
Cal@@
Chris
Cou@@
Dame
Det@@
Eigentlich
For@@
Fuß
Genau
Great
Gute
Her@@
Lord
Luft
Meinung
Punkt
Schla@@
Tage
Telefon
Walter
Zeu@@
aking
alte
appe
army
beste
brought
city
company
denkt
died
dress
ebo@@
eg@@
ehrlich
endlich
enen
ernst
finally
fire
future
geworden
hurt
inge
interessiert
ita
killed
lichen
loved
nennen
normal
order
pass
pped
sah
seinem
seiner
shoot
ves
vorstellen
waiting
weniger
wi@@
y-@@
ying
young
zeigen
%
-S@@
Actually
At
Blei@@
Brah@@
Cool
First
From
Gen@@
George
Gibt
Ha@@
Harry
Her
His
Is@@
Kra@@
Lo@@
Mrs.
Rennen
Schule
Schwester
Sco@@
Sinn
Wahrheit
against
ahn@@
allein
anz
anzu@@
ap
ated
aufzu@@
auszu@@
bag
besor@@
boy@@
bringt
camera
child
choice
con@@
darin
deines
ders
drive
ective
eite
end@@
eren
ets
feet
figure
finish
front
ful
funktioniert
gef@@
gelassen
gelernt
geschafft
grand
hair
hall@@
high
ho@@
hält
ic
ich@@
ig@@
ihrem
inc@@
lau@@
mi@@
per@@
perfekt
phy
possible
pre@@
re
red
rows
ruf
running
seem
sent
step
thanks
ton
verli@@
wer@@
worth
x@@
ßen
8
An
C
Chance
Code
Every
Fenster
Film
Grey
Hinter@@
Kap@@
Lie@@
Macht
O
Person
Ti@@
Tochter
Tsch@@
Unter@@
Wat@@
Zwei
a-@@
artig
aten
auer
back@@
ble
bom@@
cannot
control
dar@@
darum
daughter
den@@
dinner
elle
emand
ende
enny
gebe
gek@@
geschickt
god
großer
hart
heißt
herum@@
human
known
kt
lake
lt
meeting
mel@@
months
neuen
ones
os@@
ot@@
ow@@
power
pr@@
res@@
schaffen
schlecht
setzen
sister
spielt
später
sting
strange
tatsächlich
thinks
tial
tigen
tiger
truth
und@@
verb@@
verdient
voll
watching
wohin
worked
ya
yours
zei@@
zig
ätz@@
18
4
Bil@@
Blut@@
Bul@@
Christmas
Ed@@
Essen
Hab@@
Har@@
Haus@@
Ho@@
How@@
Howard
Krieg
Kön@@
London
Make
Mary
May
Mot@@
Ne@@
Nice
Pass
Regeln
Ric@@
Ruhe
Sind
Trau@@
Very
White
Wür@@
ah@@
allem
amazing
ash@@
ason
ball
busy
card
catch
changed
des@@
dick
dog
dro@@
ely
eu@@
excited
extra
felt
finde
forget
froh
früher
gentlemen
gle
gr@@
happens
has@@
heart
heiß
hen
hospital
ier
ity
itz
itze
itän
ky
langsam
later
lock
mer
middle
min@@
nahm
os
outside
pack
picture
plane
rei@@
ried
rules
send
ship
sion
speak
standen
super
top
tor
uth
wagen
wake
wert
wing
works
wären
zogen
zwischen
1,@@
2@@
6
Bad
Bra@@
Bre@@
Bri@@
Cob@@
Gre@@
Hände
Inter@@
Jungen
Lebens
Lü@@
Meilen
Mund
Mö@@
Pre@@
Rest
Simon
Sol@@
Some
Sop@@
Sti@@
Straße
Tod
Von
Zukunft
ach@@
ade
alive
anrufen
ared
ash
ats
aussehen
between
bezahlen
bi@@
brain
brauch@@
brechen
cute
dig
early
eb@@
ec@@
ence
erzählen
fil@@
fit
food
ges
giving
groß
heraus
herausfinden
herum
iel
iel@@
ik@@
ingt
innen
kaum
kleinen
kno@@
kümmern
land
lasse
laufen
lig
living
married
mess@@
miles
moving
neue
nun
nächste
office
om@@
ossen
ou@@
ow
paid
playing
promise
rau@@
red@@
row
rufe
scheint
schneiden
schreck@@
seh@@
sleep
sound
standing
starting
ste@@
steigen
suchen
sur@@
taken
ther@@
till
under@@
versuche
we@@
weit
weitere
welche
weren
yl@@
zug
äu@@
25
Armee
Bi@@
Bild
Bis
Blut
Bob
Christ
Col@@
Crist@@
Deal
Di@@
Dis@@
Doch
Don@@
Donald
Einen
Etwas
Gefängnis
Glück@@
Go@@
Hölle
Ja@@
Julia
Kampf
Krankenhaus
Las@@
Li@@
Mag@@
Menge
Mor@@
Möglichkeit
Never
Noch
Offen@@
Paul
Reihe
Roger
Ruf
Schn@@
Schritt
Schu@@
So@@
Sorge
TV
Ten
Three
Tri@@
Tro@@
Unsere
Wahr@@
Wel@@
Wohnung
World
Zeit@@
Zum
ably
absolutely
alter
ancy
and@@
ark@@
außer
beschäftigt
besten
bet@@
bird
bloo@@
boat
bt
bud@@
calling
children
chten
close
code
death
definitely
dern
dorthin
drop
ehen
einander
einzu@@
ek
ell@@
enn@@
ernen
fan@@
favorite
feeling
gens
gestellt
gewinnen
großen
happening
hel@@
hia
hip
ise
jedes
ker@@
kurz
lernen
light
listening
los@@
lä@@
manchmal
meisten
mention
mur@@
out@@
ph@@
ppen
ran
rec@@
ro
s.
schein@@
schla@@
seeing
serious
sichtlich
simple
single
spot
straight
throw
thy
toll@@
total
tre@@
tö@@
unds
usst@@
verst@@
wat@@
wedding
whatever
wünschte
yers
äch@@
27
9
;
Abendessen
Am@@
Anruf
B
Bar@@
Before
Check
Cla@@
D
Dun@@
Em@@
Ex@@
Flug@@
Gang
Ganz
Geb@@
Groß@@
Hand@@
Hel@@
Ihren
Kamera
Keep
Land
Lu@@
Me@@
More
Nach
Nähe
Ring
Sachen
Schlüssel
Should
Super@@
Turn
Wal@@
Weise
Wich@@
Wieder@@
Zimmer
Zu
Zu@@
act
ads
ants
anywhere
ati@@
bedeuten
benutzt
bie
broke
caught
charge
chtes
college
decided
denen
digt
dri@@
eckt
elling
entfernt
erklären
erle@@
ess@@
etz
fair
fand
fest
fix
fol@@
full
gearbeitet
geln
gend
gespielt
ground
halte
hand@@
hang
honest
ice
il@@
ills
ining
ink@@
inner@@
ische
ist@@
jeman@@
kennen
kennen@@
kept
kin@@
kämpfen
lang@@
licher
luck
lunch
me@@
message
movie
ness
nt
oft
ologi@@
ope
oss
ough
ouldn
over@@
pain
passt
patient
pl@@
ppe
public
pupp@@
reason
ren@@
road
safe
secret
ser
slow
small
smart
spent
stra@@
street
tan@@
tiges
touch
trä@@
ven@@
vertrauen
vi@@
walt
yesterday
200
21
After
Alter
America
Auch
Ber@@
Besch@@
Beste
Bett
But@@
De
Fe@@
Fin@@
Green
Gro@@
He@@
Hor@@
Jane
Joe
Kan@@
Karte
Kleid
Machen
Mr
Por@@
Prob@@
Rolle
Sher@@
Termin@@
Think
Treffen
Tu@@
Um@@
Unternehmen
Video
Wahl
Zeh@@
Zug
ack@@
akes
alp@@
ane
ange@@
anger
ank@@
ante
app@@
ard@@
are@@
atever
ati
aufge@@
ba@@
behalten
benutzen
bes@@
bezahlt
block
build
but@@
ched
chen@@
cher@@
clothes
clu@@
coffee
cold
couch
cup
da@@
danken
date
do@@
dra@@
drehen
dres@@
ear@@
ebt
ecting
erk@@
fell
fest@@
ffe
figured
fli@@
foot
führen
für@@
gh@@
glad
gli@@
glücklich
grand@@
guten
handle
herself
hinten
holding
hon@@
honor
hö@@
ies
ile
information
inn@@
itting
kon@@
krank
lesen
letzter
lim@@
lived
lucky
machine
mail
moved
needed
niemals
oa
ori@@
ously
plans
pres@@
prison
pro
quick
relationship
rest@@
rig
rück@@
schaft
schau@@
schlafen
schlagen
schließen
security
sell
shoes
sing
somewhere
song
spiel
stairs
strong
stuck
sub@@
suit
sw@@
takes
talked
tern
the@@
tive
trip
unk
using
ussten
ved
verg@@
voller
wartet
waste
werfen
words
yp@@
14
16
Bal@@
Bel@@
Bes@@
Besides
Bewegung
Beziehung
Bu@@
Buch
By
Damen
Der@@
Die@@
Drei
Ehr@@
Erinner@@
Everyone
Flugzeug
Fragen
Gefühle
Gehen
Gesch@@
Gruppe
Immer
Jet
Junior
Kaffee
King
Ko@@
L
Lied
Me
Oc@@
Once
Open
Par@@
Schul@@
Seh@@
Sekunden
Som@@
Stay
Tr@@
Vergangenheit
Viel
X@@
Zeiten
Zie@@
absolut
acht
agen
amp@@
anne
appreciate
area
av@@
bald
ban
bekommt
bereiten
beruhi@@
boo@@
bow
buch
building
cash
cat
cell
cho@@
cken
clean
cul@@
cur@@
dangerous
dark
ded
definitiv
dge
dre@@
ecken
ect
eding
ef@@
egt
eller
ene
ens@@
eri@@
erinnere
erve
erwähnt
explain
fft
fing
früh
fühlt
führt
gebrochen
gefahren
gefährlich
geschrieben
getötet
gleichen
hal@@
herd
himself
hoch
hung
id@@
iere
ignor@@
imagine
interested
interesting
iz@@
ju@@
kel
keys
killing
leg@@
lem@@
mat@@
missing
mon
mü@@
müs@@
neck
ned
net@@
nieman@@
nut
näher
off@@
offensichtlich
ore
ould
ous@@
parents
passen
pf@@
played
por@@
pro@@
prü@@
rain
rass@@
record
richtige
sagten
sam
schlechte
schuldig
schönen
shows
sitting
sometimes
sort
special
stick
stri@@
sweet
t-@@
table
tausend
teeth
tel@@
thousand
thro@@
totally
tough
treat
truck
ush
verkaufen
wall
werdet
white
window
woh@@
wonderful
zieh@@
zwei@@
ändern
üben
üh@@
ür@@
150@@
1@@
80
80@@
90
Alt@@
Au@@
Ba@@
Ball
Bon@@
Boot
Bus
Büro
Central
Conn@@
Cour@@
Daniel
Dass
Del@@
Den
Eltern
Eu@@
Fa@@
Fahrer
Flasche
Fra@@
Franc@@
Frauen
Gl@@
Haare
Haupt@@
Hei@@
Herz@@
Herzen
Heute
König
Lage
Lebens@@
Leid
Luci@@
Man@@
Mör@@
Ner@@
Ni@@
Nor@@
Ober@@
Officer
People
Pläne
R.
Raum
Respekt
Roland
Schauen
Seri@@
Shi@@
Show
Silv@@
Still
Super
Team
Tom@@
Tor@@
Ur@@
Verstand
Versuch
Vogel
Web@@
Weihnachts@@
Wis@@
Y
accident
ael
aff@@
ak@@
aller
along
annt
ansehen
anz@@
ards
att
bank
battle
bauen
bert
black
blue
bottle
bst@@
careful
certain
ch-@@
class
com@@
darf
davor
del
del@@
drinking
driver
ears
eingesch@@
ender
ept@@
erzäh@@
eter
eth
exp@@
fangen
fantas@@
favor
feelings
fish
fly
forever
forgot
fra@@
frag@@
fällig
fü@@
gebeten
gefragt
gefällt
gehabt
geld
gestorben
gesucht
gewonnen
given
glück@@
gra@@
grow
größte
gs
halt
he@@
hearing
hol
horse
huge
hört
iger
ihrer
ind
ing-@@
ins@@
inter@@
iny
ischen
isco
ish
itt
itz@@
iz
jump
lan
lawyer
led
lied
liegen
ließ
likes
links
list
looked
m-@@
mag@@
mas@@
meant
ment
mer@@
miss
mistake
month
möchtest
mögen
ney
nobody
ord
ots
ought
pol
poli@@
poor
pping
pregnant
pul@@
rac@@
respect
return
ruhig
rä@@
scheinlich
schn@@
seat
seconds
sin@@
sitzt
sky
solo
springen
stark
stopped
sword
tak@@
tape
tat
taught
te@@
thre@@
timmt
to@@
tour
tree
trinken
turned
unc@@
ung@@
uss
verdienen
verletz@@
view
vin
ving
völlig
weh
wel
wünsche
zeit
zus@@
Übri@@
äl@@
äre
überall
-T@@
45
7
Amazon
Anthony
Bau@@
Bevor
Bilder
Bom@@
Business
Dragon
Dro@@
Einer
Einfach
Every@@
Gericht
Glei@@
Herrn
Hill
Hälfte
Ihrem
Internet
Jo@@
Juli@@
Kopf@@
Ma
Monat
Mur@@
Not@@
Number
Ohren
P
Pan@@
Papier
Park
Pause
Pf@@
Pferd
Pfund
Po@@
Preis
Raum@@
Rei@@
Reise
Rücken
Schwert
Seit
Ste@@
Stelle
Stu@@
Tages
Time
Tisch
Vaters
Willkommen
Wissen
anfangen
arm
art@@
ations
att@@
ax
beer
bet
bigger
birthday
bleibt
bring@@
bs
cake
calm
chair
chtest
ckt
completely
count
covered
cr@@
cre@@
credit
dauern
dienst
din@@
dlich
dollars
dragon
dream
dung
ee
embar@@
en-@@
enti@@
entlang
erreicht
erstaun@@
erwartet
fe@@
fic@@
fin@@
fort@@
forward
fr@@
frei
fru@@
ft@@
fte
fu
fühlen
gei@@
gem@@
genauso
gert
gift
glaubt
gleiche
gutes
hop@@
horn
ießen
issen
join
jung@@
kamen
kap@@
kes
kne@@
leaving
leicht
lem
let@@
lives
longer
lösen
machte
murder
na@@
named
ning
none
numbers
o-@@
obviously
ogen
ok
ol
ony
ook
opportunity
ourselves
partner
pe
pop
pounds
protect
pull
push
questions
racht
radio
realize
rede
richtigen
ries
rufen
rum@@
rü@@
sad
saving
schicken
schützen
seemed
seven
sho@@
short
sinn
sli@@
smell
som@@
space
spend
spo@@
spr@@
stage
stör@@
supp@@
susp@@
ta@@
teilen
tired
tis
tolle
tot@@
train
tro@@
trouble
ume
umm@@
unserem
upon
vel@@
verantwortlich
verletzt
verschwinden
verw@@
walking
wards
weight
wen@@
wieder@@
wild
wir@@
women
yo
zeit@@
zer@@
äd@@
än@@
-
-F@@
17
40
4@@
A-@@
About
Ak@@
Al
Andrew
Another
Aus
Bank
Bar
Beispiel
Ben
Bier
Bob@@
Call
Cel@@
Chef
Christus
Coll@@
College
Cra@@
Dan@@
Den@@
Dick@@
Dort
Dr@@
Flu@@
Ford
Fre@@
Geburtstag
H.@@
Ham@@
Haw@@
Hell
Himmel
Hochzeit
Hund
Informationen
Jedes
Kampf@@
Katze
Kevin
Kontrolle
Körper
L-@@
Lady
Lam@@
Lang@@
Leave
Leon
Leuten
Lincoln
Lö@@
Margaret
Mas@@
Mehr
Monaten
Mountain
My@@
Nachrichten
Nase
Ob@@
Ohne
Only
Over
Patienten
Pho@@
Poli@@
Polizei@@
Polizisten
Pop
Queen
Radio
Ray
Ren@@
Richter
Rol@@
Sal@@
Santa
Schiff
Schmerz
Scho@@
Sei@@
Sein
Sel@@
Shar@@
Since
Slo@@
Sobald
South@@
Street
Tat
Tatsache
Thema
Tol@@
Tra@@
Turbo
Unser
Vegas
Vi@@
Wasser@@
Weihnachten
Weile
Welcome
Whis@@
Wird
Z
Zahlen
Zähne
add@@
advised
agt
aler
alleine
allowed
ames
ange
angefangen
angry
ano
ans@@
answer
apartment
arts
assi@@
ates
attention
balls
bau@@
beat
become
begeistert
beginnen
bekam
bekannt
besorgt
bewegen
bewegt
biggest
bitten
burn
bus
che@@
closer
co
comfortable
country
crime
dachten
dance
department
dex
die@@
difficult
dig@@
dist@@
eating
einge@@
eingeladen
ends
enttäu@@
erhalten
erin
esen
eten
eye
familiar
famous
fat
fer@@
ffen
fighting
fill
findest
floor
flying
follow
frage
free
fresh
further
fällt
gehei@@
geraten
geschlagen
gessen
gram
gro@@
group
halb
headed
heading
heit
helping
hil@@
history
hung@@
icken
idi@@
ischer
itch
ke@@
kennt
klein
ko@@
kümm@@
kümmert
laden
learned
lin
low@@
lying
lü@@
magic
main
ments
mut@@
nennt
neues
nte
og@@
onie
online
ool
ora
oria
ort
osen
packen
park
picked
pressure
private
professional
promised
ps
relevant
remin@@
reparieren
res
richten
ride
roll
rt
schießen
schiff
schlag
schöne
scre@@
setzt
sexy
sha@@
share
sieben
sitzen
sleeping
sn@@
solche
spieler
stelle
ständig
super@@
tasche
tickets
tions
tru@@
unde
units
uss@@
ven
vers@@
vielen
ways
wed
wenden
wider@@
willkommen
wollten
worden
worse
worst
wur@@
xy
ys@@
/
1.@@
8@@
Agent
Amaz@@
American
Bei@@
Beru@@
Blo@@
Box
Boy
Che@@
Chi@@
Dafür
Dok@@
Dre@@
Einige
Entscheidung
Erde
Fl@@
Foto
Freunden
Fün@@
Gefahr
Geist
Geld@@
Gelegenheit
Geschenk
Gesellschaft
Got@@
Happ@@
Happy
Herz
High
Händen
Jacob
Japan
Katzen
Klasse
Kop@@
L.@@
Last
Lieblings@@
Luft@@
Master@@
Meister
Mil@@
Million
Min@@
Mus@@
North
Op@@
Paar
Pass@@
Pet@@
Pri@@
Probleme
Remember
Rück@@
Sc@@
Schach@@
Schlu@@
Schlä@@
Schon
Schuhe
Spur
Sü@@
T-@@
Tagen
Tee
Through
Tre@@
Try
Vergnügen
W-@@
Wies@@
Wil@@
Worte
Wur@@
Zahl
Zauber@@
Zi@@
abel
abgeschlossen
abzu@@
acken
across
address
agree
ahl
ami
anderer
annte
arbeitet
arms
arrest
artist
arzt
ase
assen
at-@@
ately
ater
ations@@
atz@@
ause
bas@@
beginnt
bel
bestätigt
born
bre@@
breaking
bruch
bur@@
calls
cand@@
cards
checked
chest
chose
clock
clos@@
con
contact
conversation
cost
cro@@
cu@@
damals
dancing
dankbar
dauert
dear
dec@@
decision
dered
deshalb
driving
drücken
during
ed@@
enne
entscheiden
erinnert
ern@@
err@@
erwarten
eth@@
euren
expect
ey@@
ez
fahr@@
fel@@
file
film
finished
flich
flight
folgen
freue
freuen
fri@@
fro@@
fäl@@
führung
füllen
gang
gangen
ganzes
gate
geboren
geführt
gelesen
gende
general
gern
gestiegen
gin
guilty
handelt
hanging
hinein
hr@@
hundred
ige
ill@@
illegal
interest
involved
ir
irgendwelche
isches
ite
ited
izza
je@@
jedem
klu@@
konnten
kostet
könnt
las@@
law
law@@
learn
lebt
licht
liebt
lights
linie
ll@@
ls
lung
machung
music
möchten
neben
nimmt
nis@@
nose
nutzen
nötig
offer
ology
ome
oned
onto
ood
opping
original
otte
ours
pen
pers
pil@@
plötzlich
pocket
poker
position
present
pri@@
price
problems
proud
pur@@
putting
raise
rannt
rare
rat@@
rechts
reich
reisen
ren
report
responsible
riechen
rot
rot@@
round
runs
s-@@
sake
scene
schaff@@
sches
schick@@
schle@@
schule
seems
set@@
shift
shoe
sign
singing
sollst
sport
spricht
sprochen
squ@@
star
stecken
sted
ster@@
stolz
stories
str@@
such@@
tigste
tim@@
tiv
tly
training
trotzdem
twice
ue
ulations
umgehen
verbringen
vermis@@
voice
wachen
ward
weapon
wearing
whether
wit@@
wra@@
written
yard
zi@@
zige
zt
zuerst
zurückzu@@
Über
änder
öff@@
öffnen
09@@
18-@@
75
800
Abteilung
Ad@@
Aff@@
Amerika
Antwort
Arizona
Arm
Aut@@
Autos
Back
Beck@@
Bei
Berg
Black
Blick
Brooklyn
California
Christ@@
Cl@@
Cu@@
Des@@
Detroit
Dir
Dor@@
Durch@@
E-Mail
Ehre
Ei@@
Einheiten
Emer@@
Emma
Energie
Enjoy
Ev@@
Eva
Evangelium
Ever@@
F.@@
Fernsehen
Feuer
Find
Flügel
French
Gary
Geben
Gedanken
General
Geor@@
Ger@@
Gerä@@
Geschichten
Gest@@
Gold
Gold@@
Goo@@
Good@@
Gospel
Grad
Handy
Has
Hir@@
Hoch@@
Holen
Hut
Hut@@
Hügel
Ideen
Ig@@
Island
Jim@@
Job@@
Ka@@
Kenn@@
Kn@@
Kontakt
Lauf@@
Letz@@
Lev@@
Looking
MI@@
Mi@@
Mis@@
Mittagessen
Mitte
Monate
Monster
Morgan
Most
Mount
Musik
Muss
Ol@@
On@@
Out
Paris
Philips
Pi@@
Prozent
Rede
Richtung
Rid@@
Rus@@
Satan
Schie@@
Schwierigkeiten
Selbst@@
Sendung
Sicherheits@@
Sk@@
Soli@@
Son@@
Star@@
Stephen
Stimme
Stimmung
Streit
Suche
Termin
Texas
Thor@@
Tiere
Traum
Trust
Tur@@
Unfall
Uns
V
Veg@@
Vermögen
Vide@@
Vincent
Vorschlag
Vögel
Waffen
Watch
Wegen
Welche
Yang
You@@
Zeitpunkt
Zigar@@
abge@@
abholen
acting
af@@
ahr
ail
aker
alarm
ams
aner
anget@@
animals
antasie
anyway
ao
apparently
appointment
ara
arbeit@@
artiger
atal@@
atic
ative
ats@@
attack
ausgehen
aussieht
beenden
beobachten
blo@@
blow@@
bo
board
bogen
books
border
broken
cancer
cars
cas@@
cats
choices
choose
chtet
clearly
comp@@
cover
cow@@
crew
diger
director
dying
ece
echt
echte
echter
eddy
eigene
eil
einz@@
emen
ement
emp@@
empty
energy
eng@@
enst@@
erfahren
erh@@
ermordet
erreichen
erster
erzählte
esn
essing
este
etten
eur@@
eure
evidence
exc@@
experience
fear
feels
fern
fession
flo@@
flug
form
form@@
funktionieren
fy
fängt
gam@@
games
gefüh@@
geholfen
gekauft
gelie@@
gerät
gesetzt
getrennt
geändert
gie
gold
good@@
gressive
großes
größer
guest
har@@
hearts
herauszufinden
hi
high-@@
hilft
hinterlassen
hoch@@
hum@@
humans
hält@@
ideas
ief
illa
illi@@
indest
ined
ines
inger
ink
inner
interessant
invited
itself
jede
joined
kalt
keeps
ki@@
kn@@
ladies
lage
lah
land@@
legal
legs
legt
lets
letter
level
lis
lovely
med
meister
memory
mixed
mussten
mutter
mäch@@
nd
near
nten
nuts
oil
older
oli@@
oms
ong
orange
ord@@
oten
painting
passed
patch
peace
personal
persönlich
pet
piano
pleasure
possibly
pu@@
pulled
pun@@
quiet
rap@@
reichen
remind
rescue
returned
romantic
ron
rug
rying
saf@@
sal@@
san@@
sau@@
saved
schlechten
schlug
schlä@@
schneller
schwierig
schönes
seriously
ses
sil@@
skin
sle@@
son@@
sow@@
spro@@
starts
state
statt
staying
stellt
store
strei@@
strength
tal@@
tea
tel
terin
terms
terrible
ti
tier
traffic
travel
tw@@
tz@@
unden
universe
usch
ussy
usually
ute
val@@
ve-@@
verkauft
versuchte
verändert
vo@@
vorne
wache
weise
wil@@
willing
win@@
wonder
wondering
woods
wr@@
writing
wun@@
yed
zeichen
zeigt
zo
zweimal
zz@@
Überraschung
übrig
-up
6@@
Absol@@
Ac@@
Alexander
Always
Angebot
Artikel
Aufgabe
Aussage
BI
Bank@@
Bedürf@@
Bestes
Bor@@
Bos@@
Brau@@
Bub@@
Buil@@
Bühne
Chaos
Cle@@
Cor@@
Cow@@
D.
Dach@@
Damit
Dev@@
Doctor
Dol@@
Dreh@@
Druck
Earl
East
Eis@@
Ern@@
Es@@
Explo@@
Fahrt
Fall@@
Falle
Five
Flughafen
Form
Fritz
Fro@@
Frü@@
G
Gam@@
Gebiet
Gebäude
Gehirn
Gei@@
Gemälde
Ges@@
Geschäfts@@
Gespräch
Gottes
Grunde
Halb@@
Halloween
Hav@@
Hem@@
High@@
Hil@@
Hoffnung
I.@@
II
Information
Interesse
Jede
Jur@@
K
Klavier
Kr@@
Kraft
Kre@@
Krieg@@
Kunst
Kunst@@
Kö@@
Kü@@
Laden
Ladies
Light@@
Loch
Mach@@
Mal@@
Manchmal
Market
Messer
Mex@@
Mü@@
N
Nar@@
Nehmen
Operation
Oran@@
Park@@
Pil@@
Plus
Poker@@
Police
Position
Post
Pul@@
R
Rain@@
Regel
Regen@@
Rek@@
Rel@@
Roll@@
Schlafzimmer
Schle@@
Schlei@@
Schmerzen
Schreibtisch
Schön@@
Schönheit
Seine
Situation
Sitzung
Sollte
Sometimes
Special
Station
Stein
Stock@@
Stri@@
Stuhl
Swe@@
Sweet
Tal@@
Tank
Taus@@
Treppe
Trotzdem
Typen
Untersuchung
Up
Viele
Wer@@
West@@
Without
Wunder
Zeitung
Ziel
ace
admit
ady
agent
aid
alität
amed
amen
aming
an-@@
ann
ant@@
armen
ath
atten@@
auction
bab@@
ball@@
basically
bathroom
bedroom
beeindruck@@
belong
berühmt
beschlossen
bester
beut@@
billi@@
bing
birds
bling
blu@@
bottom
bought
bro@@
bru@@
built
cakes
career
chief
ching
ci@@
ck-@@
cl@@
cle@@
cleaning
comm@@
cool@@
cor@@
corner
cour@@
crash
dagegen
danach
danger
def@@
dem@@
design
desk
diert
din
disappear
dol@@
down@@
drag
drei@@
drove
ds@@
dul@@
dürfen
earned
earth
ease
echten
eck@@
eight
einfache
einzigen
eit
ella
ellen
ems
ended
engine
enjoy
enn
ennen
ented
ently
erten
esting
failed
fall@@
fes@@
findet
fragt
fully
fur@@
füh@@
fürs
gebraucht
gefangen
gefäl@@
gegenseitig
geho@@
geholt
gekehrt
geon
gere@@
gesp@@
getreten
gewachsen
gewählt
gged
gliche
gä@@
h-@@
haften
han@@
hero
hide
hom@@
hor@@
hre
hren
hängen
ically
ico
ign@@
ilt
immediate
immediately
impressive
ine@@
ingen
innocent
inson
int@@
island
item
itten
itzen
junge
karte
keeping
klapp@@
ktion
lab
lagen
lasst
laut
lebendig
leihen
len@@
ler@@
letztes
lichkeit
lieber
likely
lin@@
lines
linken
locked
lord
lown
lu@@
mad
major
milk
mistakes
mitten
monster
mostly
nearly
necessary
neighb@@
nen@@
neu@@
neun
nieder@@
nine
nochmal
non-@@
note
ny
ologies
ond
oo@@
ooth@@
oper@@
operation
opinion
page
pas@@
pen@@
percent
pft
pic@@
pictures
pir@@
plat@@
plays
plenty
powerful
ppen@@
press
profile
proof
punkt
range
rather
rechten
research
rid
rie@@
rief
riegen
rit@@
ruf@@
ry@@
sauber
schaft@@
schlechter
schließt
schü@@
sea
seln
serv@@
sex@@
shirt
shop
sicht
singen
situation
sl@@
sold
solve
some@@
spare
speed
split
sprach
spüren
ss@@
stabili@@
stag
stens
stes
stre@@
study
suche
surprise
sy@@
t.
talent
tall
tank
teach
tens
ters
tic
tiert
tor@@
track
train@@
treten
trial
trifft
tub
type
umzu@@
ungefähr
unterwegs
ushing
van
verhalten
verheiratet
verl@@
vertraut
visit
vorsichtig
wachsen
wacht
waff@@
wahre
wal@@
weiteres
wendung
wet
whis@@
wichtige
willen
windows
wine
winner
xe
xing
zerstören
zerstört
zumindest
zw@@
zweite
zäh@@
zählen
Öffentlichkeit
ädchen
ün@@
0
10-@@
13
150
180
24
450
60@@
70@@
94
Aaron
Abschluss
According
Adri@@
Albert
Alice
Andy
Anfang
Angelegenheiten
Anna
April
Arts
Aufmerksamkeit
Auge
Av@@
B-@@
B.
Badewanne
Ban@@
Bas@@
Baum
Beauty
Beg@@
Beh@@
Besonder@@
Better
Beweis
Big
Bill
Block
Brief
Bru@@
Brust
Bücher
C-@@
CV@@
Cable
Charles
Chicago
Chief
Christopher
Cloud
Crew
Cut
Cy@@
Date
Dear
Diego
Din@@
Direkt
Dom@@
Doppel@@
Dou@@
Drink
Dut@@
E-@@
E-Mails
Each
Ear@@
Ehe
Ehemann
Eier
Eines
Eis
England
Entscheidungen
Erfahrung
Erinnerungen
Ernst
Fahr@@
Fal@@
Familien
Familien@@
Florida
Fortschritte
Francis
Frank
Fred
Füße
GPS
Gal@@
Gel@@
Get@@
Glauben
Gleich@@
Gli@@
Gr@@
Gra@@
Grace
Grenze
Grün@@
H
Haut
Help
Himmels
Hin@@
Hinweis
Hollywood
Holy
Hot
Hum@@
Hunter
IA
Ihrer
Insel
Jac@@
John@@
Julius
Kameras
Karriere
Kell@@
Kelly
Ki@@
Kirche
Klei@@
Kleidung
Kommen
Krebs
Kuchen
Käufer
Körper@@
Künstler
LA@@
Lak@@
Last@@
Lauf
Letzte
Licht
Liefer@@
Linie
Lisa
Liste
Manhattan
Mars
Mart@@
Meer@@
Mich@@
Motor
Mrs
Ms.
Must@@
Mut
Möglichkeiten
Müt@@
Nachbarn
Nova
Näch@@
Opfer
Palace
Partner
Pav@@
Per@@
Peter
Pier@@
Pizza
Post@@
Pres@@
Prinzessin
Privat@@
Professor
Präsident
Que@@
Regen
Renn@@
Restaurant
Rio
Risiko
Rom@@
Ros@@
Rose
Ruck@@
Russi@@
Ry@@
Sau@@
Schl@@
Schrei@@
Schwein@@
Schwer@@
Schä@@
Sicherheit@@
Sim@@
Sogar
Soll@@
Sonn@@
Sonne
Sou@@
Spe@@
Springs
Stand
Step@@
Straßen
Strom
Techn@@
Telefon@@
Ter@@
Tests
Their
Tim@@
Todes@@
Top
Top@@
Trinken
Trip
Tö@@
Universum
Us
Use
Van
Verbrechen
Vir@@
Vis@@
Wach@@
Wald
Wand
Washington
We@@
Wein
Wider@@
Willen
Zahn@@
Zucker@@
Zugang
Zurück
Zustand
Zw@@
Zwei@@
access
ackt
acu@@
ager
aki
ales
aller@@
alli@@
alo
and-@@
ande
ander@@
angenommen
anischen
ankommen
aps
arch
arm@@
armed
ars
asch@@
ators
attractive
ausgegeben
aut@@
ay@@
backup
bad@@
band
bear
beeindruckt
beendet
beg@@
begin
behandeln
believed
belongs
berg
bern
betra@@
bew@@
bi
bies
bike
bles
bound
breath
breathing
brilliant
bö@@
ca
ca@@
cameras
cc@@
cer@@
certainly
changes
checking
church
cke
cky
closed
club
col@@
commercial
correct
court
dacht
damage
dating
dealing
deep
deln
denfalls
derer
destroy
diesmal
divor@@
doctors
dogs
don@@
doors
dreht
dun@@
durchführen
ean@@
eball
ector
ects
ede
edy
een
eher
eindeutig
einigen
eless
elles
ello
eman
emergency
ener
enkt
ental
eo
erg@@
erung
erwar@@
escape
everywhere
ew@@
exact
fahrer
families
fassen
faster
female
fire@@
fixed
flat
fle@@
fliegen
fo@@
folgt
following
football
former
fort
frei@@
funden
gain
gas
gebrau@@
gelegt
gemeinsam
genannt
genden
gerettet
gesamte
geschehen
geschnitten
gewal@@
geworfen
gg@@
gier@@
gl@@
gling
gn@@
gor@@
gos@@
gotten
grat@@
grateful
great@@
grown
größten
guard
guards
haft
half-@@
handeln
heavy
heißen
hinter@@
hou@@
hy@@
hängt
hörte
hüb@@
ial
ickelt
icks
ickt
ierter
ies@@
iet
igar@@
iller
image
imagination
inst@@
intern@@
ipp@@
iting
ität
jacket
jenigen
jer@@
judge
junger
kin
knife
kopf
la
lag
lead
leider
leiten
lick
liked
lion
ll
lo
lock@@
lon@@
loud
loves
loving
lowing
loyalty
lte
länger
mails
mark@@
marriage
meal
mei@@
met@@
miteinander
mitt@@
morgens
motion
mp@@
mus@@
nachdem
nachzu@@
namens
neither
nervous
nig
nis
nit@@
noise
non@@
not@@
notice
offered
often
oga
olen
ook@@
op
opening
oper
opp@@
orthodo@@
osau@@
others
oul
ov@@
pa@@
pain@@
pan@@
perfekte
pfe
photo
pi@@
pit
planen
ple@@
pol@@
pra@@
predic@@
prefer
prepared
president
prob@@
probe
process
program
property
puts
raised
raum
recht@@
regre@@
reibt
rieben
risk
rocks
roman@@
rub@@
ruft
rus
sand
sand@@
sat
schalten
schnei@@
schwei@@
schä@@
schön@@
scrat@@
sec
seg@@
sensitive
sentence
sey
shell
shi@@
shooting
showing
sing@@
site
sive
size
sobald
sol@@
sondern
spac@@
spar@@
spiele
spoke
statement
stell@@
stirbt
stür@@
subject
suddenly
sun@@
support
surgery
surprised
switch
system
tac@@
tail
tap@@
tend
terri@@
tes@@
tete
themselves
theory
thers
third
ths
tief
tieren
tigkeit
til@@
trac@@
traum@@
trin@@
turing
turning
turns
täu@@
ub@@
uma
ump
ums
un
union
unk@@
untersuchen
uses
ush@@
utze
vag@@
vater
verbunden
verfolgen
verwenden
via
vier@@
viously
wahr@@
walls
warf
weak
weather
weisen
welchen
wich
wide
wie@@
wishes
within
wrote
wunderbar
x-@@
xed
y.
yl
zahlen
zero
zimmer
zing
zul@@
zulassen
Ärzte
ßer
ä
ähr@@
äs@@
übernehmen
überrascht
übrigens
üssen
ütz@@
20@@
500
52
5@@
82
Adresse
Air
All@@
Allen
Amerikaner
Anteil
Arm@@
Assist@@
Ball@@
Band
Bask@@
Bauch
Bedeutung
Bereich
Best
Beweise
Bir@@
British
Bö@@
C.@@
Cam@@
Campus
Cand@@
Chinese
City
Class
Da@@
Dank@@
Dienst
Dingen
Down
Down@@
Drama
Dsch@@
Earth
Ecke
Egal
Ehren
Erdbeben
Erzäh@@
Especially
Eye
Fair@@
Fans
Fernseher
Fest@@
Feuer@@
Finde
Firma
Flas@@
Flug
Fo@@
Fol@@
Follow
Four
Frieden
Fußball
Gar@@
Gefan@@
Geheimnis
Gehirn@@
Gent@@
Gerichts@@
German
Gor@@
Grab
Gran@@
Gutes
Gür@@
Halten
Herbst
Hob@@
Hoo@@
Hunder@@
Höchst@@
Höhe
ID
Jahr@@
Joh@@
Journ@@
KW
Kalifornien
Karten
Kau@@
Kel@@
Kids
Kinder@@
Kindern
Kit@@
Klein
Kno@@
Kohlenst@@
Kok@@
Krank@@
Kranken@@
Krimin@@
Kunden
Kämp@@
Königs
Labor
Lad@@
Lau@@
Leitung
Life
Lou@@
Loy@@
Ly@@
Mai
Mannes
Maria
Maschine
Mau@@
May@@
Mein@@
Mel@@
Mik@@
Milch
Mom@@
Mu@@
Mün@@
Nachdem
Nep@@
Net@@
Neu@@
Neuigkeiten
Next
O.@@
Ob
Oberfläche
Offizi@@
Orange
Orten
Pay
Pen@@
Perhaps
Persön@@
Pick@@
Pl@@
Plan@@
Platte
Polish
Pop@@
President
Privil@@
Proph@@
Prozess
Quellen
Rat@@
Reaktion
Recht@@
Reg@@
Rober@@
Rock
Russian
S-@@
SMS
Samstag
Sand
Sat@@
Saturday
Schar@@
Schauspielerin
Schlaf
Schluss
Schwach@@
Seattle
Seelen
Sehen
Seiten
Sicher@@
Six
Snow@@
Sonnen@@
Spiel@@
Spr@@
Sprache
Staaten
Stamm
Stell@@
Stock
Stra@@
Stre@@
Stör@@
Such
Symbol
Tau@@
Tausende
Taxi
Te@@
Ten@@
Terr@@
Theater
Theorie
Tickets
Titel
Ton
Ton@@
Toten
Tour
Tower
Trink@@
Tru@@
Türen
U.@@
UN@@
Under@@
University
Unterricht
Unterstützung
Until
Urteil
Vag@@
Valent@@
Valley
Verbindung
Verkehr
Versprechen
Volk
Voll@@
W
Waff@@
Wagen
Weiß
Well@@
Wen@@
Werde
West
Wettbewerb
Wetter
Woo@@
Wy@@
Während
Young
Zim@@
Zit@@
Zur
Zweck
above
acc@@
according
acks
acted
action
aden
adly
advice
afternoon
ages
airport
aked
aken
alog@@
alt@@
altet
amera
angeboten
angenehm
angesehen
angle
anst@@
anti@@
apped
apping
appointed
arrived
ased
ask@@
ationen
atter
ature
auen
aufgenommen
aush@@
außerhalb
ba
babe
ban@@
bares
bars
bath
beauty
became
bedeckt
beginning
bek@@
below
bemerk@@
beobach@@
ber-@@
bes
besonders
best@@
besuchen
bevorzu@@
beyond
bid
birth
bis@@
bitt@@
blich
blind
bottles
brachte
brea@@
breakfast
brush
bug
bung
campus
carbon
card@@
cart
cattle
caused
ced
celebr@@
chter
chtern
cle
cock@@
common
competition
compla@@
complicated
computer
confused
congrat@@
considered
corn
courage
cream
created
cutting
dahin
daille
daraus
dasselbe
dauerte
deck
deckt
defense
delivery
desper@@
dest@@
destroyed
deswegen
dges
dic@@
dieren
difference
direct
dirty
disappeared
discuss
dliche
double
doubt
drama
draw
dreams
drill
dry
drücke
due
durchgeführt
e.
easily
eg
eilen
eim
el-@@
elled
ells
emotional
enc@@
endet
ening
enten
enth@@
entscheidet
entspannen
entweder
ept
er-@@
erer
erkennen
erleben
estate
esten
etzen
euer
evening
except
exciting
exhau@@
exist
fal@@
falls
falsche
falschen
fantastic
feiern
ffel
fi@@
fied
fired
fla@@
flie@@
fliehen
flies
focus
foot@@
fragte
fraud
freundlich
frische
fuhr
fund
funk@@
führer
gan@@
gebaut
ged
geeignet
geflo@@
gehalten
geheim@@
gehör@@
gelebt
gemein@@
gene
gentle
geschieht
geschlossen
getragen
gezwungen
gic
gingen
gives
glänz@@
government
graben
grade
griffen
gung
hab@@
hard@@
hardly
haus
hear@@
heits@@
hill
hits
hol@@
holds
hotel
hr
hrt
hte
hunder@@
ickl@@
igh@@
ights
ili@@
ille
impact
impressed
incredible
indeed
indem
inf@@
int
interessante
interrup@@
interview
introduce
investigation
ious
ished
jedoch
jo
jury
ked
klar@@
klären
komplett
kontrolli@@
kre@@
ku@@
kul@@
kunst
kämp@@
kö@@
köni@@
lap
lay@@
leads
leaves
lebe
lebte
leer
lege
legitimate
leiden
leidet
leisten
leu@@
lies
liger
lined
linke
lio
lish
literally
lled
location
log@@
lohnt
look@@
loose
losen
losing
lossen
lö@@
macher
maker
male
malerweise
manche
map
marks
mass
match
material
mates
matters
medal
medical
medizin@@
mem@@
mensch@@
menschliche
merken
mil@@
missed
mix
mol@@
mord
movies
müsste
nah
nahe
nan@@
nei@@
nest
night@@
nights
nächstes
näh@@
nö@@
od@@
offen@@
officer
ola
ols
one-@@
onen
ont
oods
oon
option
ordered
ores
organ@@
origin@@
osp@@
otten
ows
pal@@
part@@
parts
performance
planet
planning
player
post
print
prisoners
project
proper
proph@@
prove
pure
purpose
quickly
reach
reaction
recken
records
reg@@
regular
reise
remain
remembered
repeat
respek@@
ress
results
riders
ries@@
risks
ritt
rock
rol
rooms
rough
rule
räumen
saal
sack
sacrifice
sample
schien
schlei@@
schlägt
schte
schätzen
science
search
sei@@
seien
selbst@@
self-@@
senden
service
shape
shar@@
sharing
sheet
shoul@@
siert
sig
signed
sinn@@
ski@@
smo@@
smoke
sofor@@
solle
songs
sources
speech
sper@@
spi@@
spielte
spirit
spon@@
sport@@
stab
stable
stammt
stand@@
steckt
stellung
sthaf@@
stil@@
stir@@
stomach
stone
stoppen
stor@@
streets
stren@@
studio
stuhl
stur@@
stü@@
success
successful
sudden
suffering
sugar
suicide
sun
surface
sä@@
tag
taste
tech
technically
teil
teile
tells
tender
tened
testi@@
tex@@
therine
thor@@
thri@@
tical
tiere
tion@@
tische
tischen
tiv@@
tom@@
traveling
trees
tritt
truly
tsch@@
ttern
tur
tur@@
ty@@
tü@@
ules
umb
unbe@@
understood
undet
uner@@
unge
unglaub@@
ushed
utenant
uter
uts
utting
van@@
verk@@
verni@@
verschiedenen
verschw@@
version
vertei@@
vertrau@@
verwandelt
vir@@
vis@@
voll@@
voraus
vorher
wand
warm
weis
welches
wering
wichtiger
wichtigsten
wind
wings
writer
wäh@@
wählen
wäl@@
wärts
zeichnungen
zo@@
zuge@@
zusagen
zusammenarbeiten
zwar
Är@@
ßer@@
äm@@
ären
öhnt
öl@@
üb@@
überlassen
überleben
überprüft
überzeu@@
ül@@
ürzt
-B@@
-K@@
000
1,000
1.1
100.000
101
104
19
1955
1963
1993
2005
2014
300
30@@
31
32
3@@
43
44
600
64
69
93
AW@@
Achtung
Action
Again
Aktion
Alb@@
Ali@@
Alkoh@@
Almost
Although
Angel@@
Angesicht
Ankunft
Ann
Anne
Anweisungen
Anzeichen
Ap@@
Appar@@
Arbeit@@
Arbeits@@
Arch@@
Arme
Aspekt
Atlanta
Augen@@
Ausdruck
Ausrüstung
Außen@@
B.@@
Baby@@
Bag
Bag@@
Beautiful
Beine
Bell@@
Berg@@
Berlin
Bern@@
Best@@
Bill@@
Bishop
Bli@@
Blood
Blue
Botschaft
Brian
Brief@@
Brücke
Brüder
Buen@@
Buff@@
Bürger
CH@@
CIA
CL@@
Catholic
Cham@@
Champion
Chan@@
Channel
Char@@
Cher@@
Cin@@
Clear
Clin@@
Club
Coach
Coffee
Corps
Cr@@
Crow@@
Cur@@
D-@@
Dan
Darum
Darüber
Dau@@
Day
Denk@@
Department
Details
Dienstag
Dorf
Dunkelheit
E
Edward
Einkaufs@@
Einzel@@
Engel
Enter
Ep@@
Erfolg
Ersatz@@
Erste
Ex-@@
Experiment
Express
F
Fahrrad
Fahrzeug
Family
Father
Feind
Fern@@
Fif@@
Film@@
Fische
Flagge
Fleisch
Flucht
Fluss
Folge
Freitag
Frühstück
Funk@@
Fähigkeiten
Gast
Geburt
Gegen@@
Gene
Gerade
Gerü@@
Geschwindigkeit
Gesetz
Gewalt
Gewicht
Glasgow
Gnade
Google
Gordon
Greg@@
Griff@@
Gru@@
Grundstück
Größe
Gründen
Gur@@
Gä@@
Had@@
Hals
Hamilton
Harvard
Hen@@
Hex@@
Hill@@
Hoh@@
Hop@@
However
Hunger
Hur@@
Ihm
Il@@
Inneren
Inspek@@
Instagram
Instead
Interess@@
Irak
Jackson
James
Jap@@
Je
Julian
Jung@@
Jus@@
Ken@@
Kim
Kir@@
Kleider
Kli@@
Knochen
Koordin@@
Kurt
Kühlschrank
Lake
Land@@
Lassen
Laufe
Leb@@
Leg@@
Leit@@
Leo
Lis@@
Little
Logik
Lot@@
Love
Lyn@@
Läch@@
Lär@@
M.@@
MS@@
Madrid
Maj@@
Manchester
Mand@@
Many
March
Markt
Matthias
Meer
Meeting
Meiner
Mem@@
Men
Men@@
Mercur@@
Mess@@
Mexican
Mich
Militär
Mill@@
Mitarbeiter
Mittag@@
Model
Mol@@
Monaco
Motor@@
Män@@
Möchten
Mühe
Nachbarschaft
Nachmittag
Napoleon
Neg@@
Nelson
Network
Neues
Nevada
Nit@@
Norden
Notice
Nu@@
Nä@@
Obwohl
Ohio
Oliver
Oper@@
Ori@@
Ou@@
PD
Pa@@
Panz@@
Pas@@
Pat@@
Patrick
Pe@@
Pin@@
Pist@@
Planeten
Ple@@
Probe
Profil
Programm
Protokoll
Q
Q@@
Quick@@
Rach@@
Ram@@
Realität
Regisseur
Reh@@
Reich
Rem@@
Resist@@
Ret@@
Rezepte
Risiken
River
Roh@@
Room
Rub@@
SA
Sag@@
Sak@@
Save
Schalter
Schauspieler
Schicksal
Schlacht
School
Schritte
Schwarz
Schwarz@@
Schöne
Sea
Sech@@
Seien
Selbst
Sen@@
Sender
Siehe
Sle@@
Sm@@
Smo@@
Smoking
Solutions
Son
South
Spannung
Spaziergang
Sport
Sport@@
Sprit@@
Squ@@
Stanley
Star
State
States
Steine
Stellen
Ster@@
Steve
Stone
Stop@@
Straß@@
Stärke
Stücke
Sub@@
Sur@@
Szene
Süß@@
T.@@
Tab@@
Tages@@
Tanz
Teile
Test
Teu@@
Tier@@
Tim
Tob@@
Tor
Tot@@
Tour@@
Transpor@@
Treffer
Trei@@
Träume
Tuesday
Tus@@
US-@@
Universität
Unterschied
Up@@
Urlaub
Van@@
Vas@@
Verantwortung
Verhand@@
Verletzungen
Vern@@
Versuchen
Verteidigung
Vertrag
Victoria
Vier
Vier@@
Voraus
Wales
Want
Website
Werden
Wert
Whether
Wik@@
Wild
Wilson
Win@@
Winter
Wirbel@@
Work
Write
Wunder@@
X
Y-@@
YO@@
Yor@@
Zucker
Zäh@@
abel@@
aben
abger@@
ac
accept
accepted
account
aces
aching
actor
actress
actual
advantage
af
agreed
ailed
aktiv@@
aktiviert
alen
ali
all-@@
allgem@@
amas
amer@@
amerikanische
amm
amp
anbieten
angekommen
angemeldet
angen
ank
annehmen
anning
announcement
annten
ano@@
answers
anting
antly
apart
appen
appropriate
arbeiter
arbeitete
ardian
aring
arme
arten
as-@@
ashed
asses
asset
assic
assistant
assume
asy
ath@@
ativ
atte
attitude
atur
aufnahme
aufre@@
ausgelöst
aust
aw
aware
bac@@
bag@@
bal@@
bat
batt@@
be-@@
becomes
bedeut@@
bedienung
begangen
begann
begr@@
behalf
belie@@
beln
bers
besie@@
besteht
bestellt
bestimmte
bestimmten
bestätigen
betrachten
bewaff@@
bilden
black@@
blatt
blauen
blieb
boards
bodies
bon@@
bran@@
bright
bringing
broad@@
brü@@
bte
butter
buying
böse
cal
cane
cap@@
captain
cci
celebrate
cells
cen@@
changing
character
chi
chosen
cia
ckers
clay
coin
collection
comfor@@
comfort
command
community
compan@@
concerned
confirmed
conscious
constantly
construction
continue
convic@@
convinced
cook@@
cooking
coordinates
copies
copy
coun@@
craft
cri@@
criminal
crip@@
crisis
cry
cut@@
cy@@
dan@@
dank
das@@
dated
decide
degree
degrees
demand
deny
depends
der-@@
desto
devil
dia
diagnos@@
differently
discovered
dium
dive
dom@@
drilling
dring@@
drivers
dropped
druck
drug
dungen
e-mail
earlier
earn
eb
ech
ecke
ecker
eckte
ection
ege
egg
ehow
ehr@@
eilt
einf@@
eingang
eingehen
einig
einig@@
eist
elev@@
elevator
email
eman@@
employee
endes
enemy
enter
entfer@@
entin
entrance
entri@@
entry
entschei@@
entschieden
entu@@
eping
epp@@
eps
eres
erfordert
erho@@
ering
erlauben
erschaffen
ersetzen
erstes
erte
essed
ester
ests
etet
ettes
ety
euer@@
eute
evil
ex
ex-@@
expected
expensive
exploring
fahrt
fan
far@@
feh@@
fei@@
fein@@
fen@@
fern@@
fers
fiel
fifth
fighter
finding
flag
flüs@@
followed
follows
frame
freien
fres@@
freut
fried
friendly
fts
fuel
fusion
fährt
fälle
fühlte
füll@@
fün@@
ga@@
gab@@
gabe
gang@@
gas@@
gates
gear
gegen@@
gehören
gelangen
gelöst
gemeinsames
gemeldet
gent@@
genutzt
gep@@
gerechnet
geschaffen
geschichte
geschn@@
geschoss
geschwindigkeit
gesto@@
gesund
getau@@
gewinnt
giant
gig
gig@@
glass
glasses
glei@@
gleichzeitig
glu@@
golden
grace
gre@@
greifen
gri@@
growing
größter
grü@@
gur@@
gym
gö@@
ham
happ@@
happiness
harder
hau@@
haupt
head@@
heads
healthy
hef@@
heim@@
hidden
higher
highly
hinaus
hohe
holder
holes
holiday
hut
hydrau@@
höher
ian
ical
identity
ierung
igen
iges
ik
iker
illing
imag@@
import@@
in-@@
inal
ination
inform
informiert
ingo
ini
innerhalb
instead
instructions
internal
invented
investig@@
invite
inzwischen
ion
ion@@
irgendeinem
iron
iry
ises
ison
ister
istisch
ites
ith
ius
jahr@@
joint
journalist
jung
jün@@
kan@@
kar@@
kehren
keiner
keit
kit@@
kla@@
knapp
knowing
kompliziert
kontrollieren
kosten
langen
langer
laws
lay
le-@@
lebens@@
lebten
leh@@
lehnen
leiden@@
lemen
lery
lic@@
lics
lie@@
liebe@@
lifetime
link
lips
litten
lla
lle
loaded
lob@@
local
located
locations
lover
läu@@
mal@@
managed
mart@@
maschine
massage
master
masturb@@
meaning
mee
meint
melden
men@@
ment@@
mentioned
metal
mieten
mill
mindestens
mission
mmer@@
mood
moon
mor@@
mountain
moves
mysti@@
n-@@
names
natural
nature
nde
negoti@@
neighborhood
ners
neu
neuer
nie@@
nor
norm@@
normale
noticed
notwendig
nu@@
num@@
nächster
obvious
ocean
od
of-@@
offene
official
offiziell
offs
ollen
ologist
oma
oot
opened
operating
opf
opfer
orders
orie
orney
orrow
ort@@
orte
ost
oth
our@@
ousin
owns
pac@@
pages
papier
pass@@
passing
past@@
pat@@
patients
period
personality
pfel
phones
photos
pieces
pilot
pink
pipe
placed
places
plate
play@@
players
ple
pliz@@
pole
post@@
potential
pray
prechen
privil@@
probieren
profession@@
progress
protection
pump
pump@@
puzzle
quote
racle
rad
raising
ral
rang
rank@@
reading
rechtzeitig
reck@@
recorded
reicht
rek@@
rel@@
release
relie@@
religious
remaining
remote
remove
repar@@
reputation
resident
resp@@
responsibility
restaurant
ret@@
reten
ric
riding
riesige
rig@@
ris
rise
rison
river
rod
ron@@
roten
route
ruhiger
ruins
rup@@
sa
sab@@
sache
sahen
sburg
schar@@
scher
schi@@
schl@@
schließlich
schmerzen
schrank
schreibt
schrift
schwach
schätz@@
schöner
sco@@
score
scra@@
script
secre@@
sel
selben
self
selten
sending
sends
senior
server
session
several
sh
shed
shel@@
shopping
shots
shoulder
sicherer
sieren
signal
signature
signs
sinc@@
slide
soft
sohn
soldiers
solving
somehow
sons
sor
souls
speaking
speci@@
spiel@@
spin
sports
spä@@
spür@@
ss
sta@@
stabil
stad@@
starb
starten
status
steam
stei@@
steigt
stein
steps
stieg
stood
stop@@
stritten
stroke
student
sty
sugges@@
suggest
sum
sum@@
summer
surely
survive
suspicious
swal@@
sy
tan
taten
tation
teacher
technisch
tenen
tension
tere
tery
tests
thal@@
the-@@
thetic
thou@@
tically
ticket
tied
tigh@@
tigt
tik@@
tiny
tions@@
tip
tle
tollen
towards
trace
tracking
trag
trage@@
transition
traum
treasure
treiben
trug
trägt
tum@@
tunnel
ues
ufen
umes
understanding
unge@@
ungsp@@
ungst@@
unless
unmöglich
unn@@
unseres
ups
uren
ures
urg
us-@@
usste
ust@@
utely
utt@@
va
valve
vehicle
verhindern
verschoben
verschwunden
versuchten
verur@@
verursacht
verwandeln
verwir@@
verän@@
vet
victim
vie@@
viewing
village
volle
walks
waschen
weal@@
weder
weißen
welcher
welt
wers
west@@
wheel
whi@@
wies@@
windet
wise
wish@@
witness
wohnen
woo@@
wood
wort
wounded
wünschen
wünscht
xen
xi@@
year-old
yland
you@@
younger
yourselves
yst@@
za
zahl
zed
zehn@@
zeichnet
zeuge
zieht
zigen
zimmer@@
zog
zugeben
zuletzt
zur@@
zurückkehren
zustellen
zustimmen
zuzu@@
zweit@@
zy
Änderungen
Übergang
äger
älter
är
öffnet
öhnen
überprüfen
überzeugt
üsse
ütze
ützen
-in-@@
.I
1.000
10.
100,000
15@@
16.
2,@@
26
5.
70
A.
A.@@
AM
Abenteuer
Aber@@
Agenten
Alarm
Alex@@
Alli@@
Americans
Amerikan@@
Anderson
Anerkennung
Angeles
Angriff
Ankündigung
Anlass
Anth@@
Anti@@
Antworten
App@@
Arabic
Arbeiten
Arten
Arthur
As@@
Ask
Astronom@@
At@@
Aufnahme
Auftrag
Aufzug
Augenblick
Ausbildung
Austin
Autor
Bade@@
Badezimmer
Batterie
Batterien
Bear
Befeh@@
Befehl
Behörden
Being
Bekannt@@
Belie@@
Bell
Beruf
Beschwerden
Besitzer
Black@@
Bohr@@
Bol@@
Boo@@
Bord
Bow@@
Box@@
Bran@@
Bridge
Briefe
Bro@@
Brunnen
Brust@@
Brü@@
Buch@@
Buches
Buck@@
Bud@@
Bug@@
Bus@@
Bäume
Care@@
Cer@@
Champagner
Chancellor
Charakter
Ci@@
Clo@@
Close
Co
Cock@@
Community
Company
Computer
Copy
Cro@@
D.@@
DI@@
DNA
Damp@@
Danach
Darstellung
Dav@@
Death
Defin@@
Dem@@
Dep@@
Design
Despite
Detail
Deutschen
Dienst@@
Dir@@
Dokumentar@@
Dokumenten
Dri@@
Dur@@
Dusche
E.@@
Easy
Eck@@
Edelst@@
Effek@@
Ehren@@
Eich@@
Eindruck
Eingang
Einladung
Einsatz@@
Einstellung
Eisen
Eltern@@
End
English
Entschei@@
Entwurf
Episode
Erb@@
Erfolgs@@
Ergebnisse
Erinn@@
Erinnerung
Erst
Erwachsen@@
Eth@@
Euch
Ex
Experten
Fabrik
Fac@@
Fach@@
Falls
Fan
Fan@@
Farbe
Favor@@
Fei@@
Fein@@
Feinde
Fel@@
Feld
Felsen
Filme
Finally
Fing@@
Finger
Fisch
Fitness@@
Flam@@
Fle@@
Flugzeuge
Force
Fotos
Foundation
Frei@@
Freiheit
Freude
Friday
Fünf
Galax@@
Gang@@
Gedank@@
Gedanke
Gedächtnis
Gefän@@
Gegend
Geheim@@
Gehir@@
Gelände
Gerechtigkeit
Germans
Gerne
Geräu@@
Geschmack
Gesetze
Gesicht@@
Gesp@@
Gespräch@@
Gewerk@@
Gewinner
Gift
Girls
Glaube
Glo@@
Glob@@
Global
Glücks@@
Golf
Gon@@
Grand
Griff
Große
Grund@@
Grö@@
Grü@@
Gü@@
Haar
Handys
Hang@@
Has@@
Head
Heim@@
Heimat
Heu@@
High-@@
Hilf@@
Hinweise
Hope
Horn
Hotel
Hydrau@@
Hän@@
Hü@@
IP
Identi@@
Im@@
Immobilien
Indi@@
Inn@@
Iraq
Itali@@
Its
Jahres
Jakob
Javier
Jewish
Justice
Kanz@@
Kapitel
Karten@@
Kass@@
Keller
Kern
Kil@@
Kis@@
Klassiker
Klein@@
Klo@@
Koch@@
Kol@@
Kon@@
Konsequenzen
Konz@@
Kosten
Kostü@@
Kran@@
Krankheit
Kreuz@@
Krise
Kul@@
Kur@@
Kurs
Königin
Königreich
Küste
Lan@@
Lange
Laut@@
Leh@@
Lehrer
Leider
Lem@@
Liebes@@
Liebling@@
Lieferung
Light
Linien
Long
Luf@@
Lus@@
Lust
M
Major
Mak@@
Marathon
Martin@@
Mass@@
Material
Mauer
Medikamente
Medizin
Mei@@
Menschen@@
Menschheit
Met@@
Metall
Mid@@
Milli@@
Mini@@
Mischung
Miss@@
Mission
Mittel
Mittwoch
Monday
Money
Montag
Moon
Motion
Mountains
Museum
Mä@@
Mängel
Männern
März
N-@@
Nation
Natur@@
Nau@@
Neb@@
Need
Netz
Neue
News
Nin@@
Nob@@
Nobel
Noti@@
Old
Oli@@
Option
Organ@@
Ost@@
P-@@
P.
P.@@
Paket
Path@@
Patient
Pau@@
Personen
Pflanzen
Phase
Philosophie
Picture
Play
Play@@
Pos@@
Potenzial
Power
Pra@@
Praktik@@
Projekt
Präsidenten
Question
R-@@
R.@@
Rab@@
Rad@@
Rak@@
Rande
Rat
Real
Red@@
Regierungs@@
Reiter
Rep@@
Reparatur
Rin@@
Robert
Rot@@
Roy@@
Run
Rut@@
Saf@@
Saint
San@@
Sauerstoff
Schau@@
Schichten
Schil@@
Schloss
Schrank
Schrau@@
Schreiben
Schriften
Schriftsteller
Schulden
Schutz@@
Schwä@@
Schäden
Schü@@
Schüler
Sci@@
Second
Security
Seele
Sensor
Show@@
Sicherheit
Sinne
Soldaten
Sollten
Soon
Speed
Spek@@
Spiele
Spielzeug
Spot
Sta@@
Staatsan@@
Standards
Start
Stattdessen
Stei@@
Step
Stern@@
Str@@
Strand
Strategie
Stress
Strip@@
Stufe
Sturm
Summe
T.
Tak@@
Talent
Talk
Tank@@
Tap@@
Taschen
Tat@@
Technologie
Teilen
Testament
Ticket
Tig@@
Tiger
Tin@@
Tit@@
Today
Toilette
Training
Tran@@
Truck
Trü@@
Tum@@
Tw@@
U.S.
UK
UK@@
USA
Uhren
Unfortunately
United
Univers@@
Unlike
Unter
Used
V-@@
V.
Verab@@
Vereinigten
Verfahren
Verhalten
Verk@@
Verkehr@@
Versch@@
Version
Vertreter
Verwendung
Veränderung
View
Vil@@
Villa
Vo@@
Vorder@@
Vorsch@@
Vorteil
Väter
Waren
Warnung
Wart@@
Wasch@@
Web
Wednesday
Welt@@
Werbung
Wesen
Westen
Wher@@
Wi@@
Wille
Wind
Wirklichkeit
Wol@@
Wood@@
Worten
Wurzeln
Würde
Yet
Yoga
YouTube
Zau@@
Zei@@
Zeitplan
Zelle
Zug@@
Zum@@
Zunächst
Zusammenfassung
Zwischen@@
abend
abgegeben
abgesch@@
abteilung
abul@@
ache
ached
aches
achieved
aco
acquain@@
activated
ading
admir@@
adult
adv@@
adventure
ag
agency
agle
agreement
ahn
ailing
aktion
aku@@
ala
alco@@
aling
alis@@
ality
alling
allow
alts@@
alty
am-@@
ame@@
amer
amm@@
ammer
ampe
anderem
angel
angel@@
angelegt
angels
angemessen
anges@@
angezogen
anic
anpassen
antwortet
aph@@
app
appearance
appears
apple
apply
appro@@
ar-@@
arab@@
ares
arly
arrangements
asche
asing
aspect
assets
assured
assy
aster
asty
ate@@
ater@@
attraktiv
aufbauen
aufgebaut
aufgehoben
aufnehmen
aufs
ault
aum
ausgesch@@
außerdem
b-@@
bach@@
bands
baren
barer
bask@@
batteries
battery
baum
baut
beach
bearbeiten
beauf@@
beautifully
bedroht
befinden
befindet
befreit
befür@@
began
bege@@
beherr@@
bekannter
belieb@@
bemerkt
benutz@@
beobachtet
bequ@@
berei@@
beruf@@
berühr@@
beschrieben
besondere
besonderen
bessere
bestanden
bestehen
bestimmt
betreibt
bett
bewer@@
bewusst
bewusst@@
bild
billion
bisher
blade
blau
bler
blicken
blin@@
blonde
boarding
boden
bones
bot@@
break@@
brei@@
bricht
bridge
brief@@
broadcast
brothers
buil@@
burned
burning
business@@
button
bä@@
bür@@
calculated
calendar
cardi@@
carry
casts
cat@@
cel
centre
centuries
champagne
champion
char@@
charity
charman@@
charming
charts
chat
checks
chil@@
childhood
chs
chung
chy
cin@@
cit@@
citizen
ckets
claim
closest
closure
coach
coast
codes
coll@@
collect
comment
commitment
committed
complex
condition
conf@@
confirms
cons
consequences
cont@@
contract
convinc@@
cook
core
cost@@
costume
cou@@
counting
cruise
cs
ction
customer
dam
dd@@
decisions
deck@@
dedicated
delicate
delicious
dene
dent
dentally
departure
describe
described
deser@@
desire
detail
detailed
details
dete
deuten
deutlich
dict
diejenigen
dien@@
diente
diges
digungen
direction
disk@@
dism@@
distur@@
dor@@
dringend
drinks
dritten
drucken
drän@@
drückt
duc@@
dunk@@
duplic@@
dur@@
duty
ear
earthquake
easier
eby
ech@@
edo
eed
effect
effects
ehe
ehemaliger
eien
eig@@
eigenes
eing
eingestellt
einiges
einschließlich
einverstanden
einzigartig
ektion
eld
elf
eling
ellen@@
elli@@
emals
eme
emo@@
emotion@@
emotions
empfin@@
ench
ency
ender@@
ending
endungen
enemies
enever
eng
engage
engaged
engagement
enge
enjoyed
enk
ente
entering
entlich
ents
enz
episode
equ@@
era
erable
erfüllen
ergibt
erhöht
erklärt
erlaubt
erleichtert
erober@@
erscheinen
erschienen
erst@@
esch@@
essi@@
etball
etch
ett@@
etten@@
eup
eurer
eve
event
event@@
eventually
ewig
exist@@
exists
experiencing
experiment
expert
extrac@@
f-@@
fa@@
fach
factory
falling
fans
fant@@
farm
fasc@@
fashi@@
fashion
fed
feinen
feu@@
ffer
filtr@@
firma
fiz@@
flower
flu@@
forc@@
forces
forest
fortun@@
fourth
frac@@
free@@
freedom
frem@@
fris@@
fruit
frühen
fs@@
furniture
fähig
führte
galax@@
garantieren
gated
geboten
gebro@@
gedreht
gefähr@@
gefühl
geladen
geleistet
gelt
gem
gemütlich
gendes
generation
generous
genie@@
genossen
geous
gerech@@
geräte
geschäft
geschätz@@
gesperrt
gewisse
geöffnet
ght
ght@@
gilt
gnis@@
goo@@
grab@@
gradu@@
graph
grav@@
greatest
green
grid
großzü@@
gru@@
grund
gs@@
gte
gten
guarantee
gue
guide
gän@@
ha-@@
hafte
halb@@
halbe
hand-@@
harte
haus@@
heat
heben
heit@@
held
helicop@@
helped
herauszu@@
hergestellt
hero@@
hervorragend
het@@
heutigen
hieß
hire
hn
hob@@
hoben
hohen
host
hosts
ht
här@@
hät@@
ican
ichter
icking
icy
identifizieren
identify
ieden
iell
ielle
ierte
igkeit
igkeiten
ihres
ila
iling
illed
imm@@
immer@@
impression
inas
including
iner
ing.@@
ingly
inhab@@
injuries
inny
insel
insp@@
inspection
inspiri@@
insurance
intelligence
inten@@
interessieren
interests
investigate
investment
irgendeine
irt
irurgie
ised
ish@@
isieren
istin
istischen
itely
itiner@@
itu@@
iö@@
jan
jederzeit
joining
jungen
jüdische
ka@@
kal@@
kas
kauft
keit@@
kil@@
kinds
kingdom
klo@@
klärt
knowledge
kochen
kor@@
kost@@
kra@@
kurze
kä@@
kämpft
kü@@
kür@@
ladung
large
largest
laun@@
leader
leading
lear@@
leb@@
legally
legi@@
leichte
lern@@
lernt
lesson
lessons
letters
li
lic
lichsten
liest
lik
linge
listen@@
lists
litter
liver
liz@@
load
loads
logical
lok@@
loss
low-@@
lows
lungs@@
län@@
löst
lück@@
magazine
mak@@
manager
manip@@
mannschaft
marked
market
mask
mass@@
massive
may@@
meat
mehrere
memories
menschlichen
mi
mild
mile
model
mond
mou@@
männ@@
müssten
nail
nannte
nant
nel
nern
nete
nette
nic@@
nick@@
nin@@
nische
nival
noon
normalerweise
normally
north
now@@
nungs@@
nur@@
nä@@
nützlich
oak
object
observation
observe
obwohl
oc@@
occasion
occur
occurred
of@@
officially
oldest
ollt
olog@@
ologie
oming
on-@@
onds
oni
oning
oom
orable
oren
organisiert
oring
orn
oses
ote
ouse
overnight
owner
oxygen
p-@@
p.m.
pa
package
pad
paintings
pap@@
papers
perfek@@
perform@@
perhaps
personally
personnel
perspective
persönlichen
pfen
philosophy
phrase
pit@@
pitch
planes
plants
pleased
plus
points
pool
port@@
pos@@
positive
pot
pper
practically
pre-@@
prec@@
prepare
pressing
prises
privacy
privat
privileg@@
proben
procedure
product
professor
promises
prosec@@
provide
prüfung
pt
pumps
push@@
quali@@
qualified
quarter
question@@
quick@@
racing
rain@@
ram@@
rank
rat
rati@@
reached
reagiert
real@@
reality
reasons
received
recent
recognize
recovery
refrigerator
regeln
rei
reiche
reicher
reifen
reinigen
rel
rent
reports
represent
request
reward
riesigen
right-@@
role
roll@@
roots
ruhi@@
rö@@
sale
samples
sar@@
sat@@
saß
scar@@
schafft
schafts@@
schaut
schedule
schenk@@
schloss
schm@@
schrau@@
schu@@
schwarze
schwer@@
schütz@@
screen@@
screw
searching
seats
sec@@
seher
sein@@
selling
sem@@
senses
sensor
series
sern
sert
sets
sett@@
setting
sex
shock
short@@
shower
sicher@@
sichten
sichtig
sichtliche
sichts@@
silence
simply
sionate
sis
sitz
siv
skills
slightly
smoking
social
solange
solchen
solcher
solved
sor@@
sorgen
soul
sour@@
source
south
sparen
spec@@
spectac@@
spot@@
sprech@@
spunkt
stammen
stands
stars
stattdessen
steller
stellte
sten@@
stet
steuern
stones
stran@@
strategy
stretch
strich
strike
struck
strug@@
sts
stu@@
studiert
style
stö@@
stück
stün@@
suffer
sug@@
suitable
sung
swing
switched
symbol
synchron@@
sätze
tab@@
tain
tain@@
target
teaching
teams
technology
teen
teilte
tem
tene
ter-@@
term
tern@@
tert
terte
theatre
therapy
thoughts
threat
threat@@
threatened
thrown
tic@@
tiefe
ties
tig@@
tight
tigung
til
tional
tionally
title
tiz@@
toe
tom
tone
torture
toy
trade
traditional
trafen
trained
transfer
transpor@@
trocken
träger
tter
tuary
tung
tured
täts@@
ulen
ult
umen
unbedingt
unce
unglaublich
unique
unnö@@
unt@@
unterhalten
unterstützen
update
upe
upper
uring
useful
usst
uter@@
vable
value
ve@@
veranstaltet
verbindung
verhaftet
verlangen
villa
vine
violence
vision
vollen
vorkommen
vote
vulnerable
wachsen@@
walked
walt@@
warran@@
was@@
wash
watches
wave
weapons
wechsel@@
wechselt
wehr@@
weibliche
weite
weiterer
wel@@
welchem
welle
wendet
wenige
werk@@
west
wherever
wiesen
wind@@
winning
wirft
wirken
wissen@@
wohner
work@@
worker
workers
worthy
writ@@
wälte
wäsche
wü@@
würdig
xes
yn@@
yon
yp
ypen
zah@@
zahlt
zeichnen
zeige
zent
zer
zeugen
zug@@
zun@@
zung
zunächst
zuständig
zusätzliche
zuvor
zweiten
zä@@
zählt
züge
Ähn@@
Öl
Überrasch@@
ßig
ähnlich
ämp@@
änden
änder@@
ändert
ärz@@
öh@@
ös@@
öst@@
östlich
ötz@@
ück
ühl@@
ühren
​
-L@@
-M@@
.com
0-@@
00@@
04
06
0s
1-@@
100-@@
102
103
105
107
110
11@@
120@@
122
128
12@@
130
13@@
144
14@@
16-@@
16@@
16th
18.
188@@
18@@
18th
1905
1959
1961
1968
1970
1979
1982
1987
1998
2-@@
2.@@
2003
200@@
2015
2016
21.
225
22@@
23
230
23@@
24@@
25.@@
250@@
25@@
260
26@@
270
28
28@@
3.
3.@@
300@@
34
35
350
36
3rd
4,@@
4-@@
4.
4.@@
41
42
47
49
5-@@
5.000
5000
55
57
6,@@
6-@@
62
7-@@
700
72
77
86
9,@@
9.@@
900
92
97
ABC
AC@@
AI
AK
AK@@
AR@@
ATE
AX@@
Ab
Abbey
Abent@@
Abraham
Abschluss@@
Academy
Acc@@
Adv@@
Afghanistan
After@@
Airport
Alaska
Alban@@
Alfred
Algeri@@
Algorith@@
Alkohol
Allgemeinen
Altern@@
Ambi@@
Amp@@
Amsterdam
Ander@@
Andere
Andr@@
Andre@@
Andrea
Andreas
Ang@@
Answer
Antrag
Anwesenheit
App
Apple
Ara@@
Arab@@
Arbeiter
Arbeiter@@
Arbeitsk@@
Arti@@
Asi@@
Asian
Astron@@
Atem@@
Atom@@
Att@@
Auff@@
August
Aur@@
Aussch@@
Aussehen
Australi@@
Auswahl
Ave
Avenue
Avis
Azer@@
BC
Bach
Bachelor
Back@@
Bahnhof
Bapti@@
Barbara
Bars
Bat@@
Bauer
Baum@@
Bay
Beach
Bedrohung
Bedürfnisse
Begegnung
Begr@@
Begriff
Behandlung
Behold
Beispiele
Beitrag
Ben@@
Beobachtung
Beratung
Bereit@@
Bericht
Berufs@@
Berühr@@
Besitz
Besuch
Betrieb
Bible
Bibliothek
Bingo
Bird
Bis@@
Bit
Blanc
Blatt
Blick@@
Blin@@
Blu@@
Blumen
Boot@@
Born
Boston
Bot@@
Boys
Breite
Brem@@
Brig@@
Bristol
Broo@@
Broschüre
Brown
Bruno
Budapest
Bull
Butter
By@@
Bür@@
Büros
C.
CD@@
CN@@
CO
CO@@
Ca@@
Canada
Canyon
Cap@@
Cardi@@
Care
Carl
Case
Catherine
Cent@@
Century
Cha@@
Champ@@
Charts
Chef@@
Chel@@
Chem@@
Chemikalien
Chil@@
Children
Chin@@
Chinesen
Chor
Chu@@
Clean
Cli@@
Clinton
Clubs
Coast
Columbia
Com
Commod@@
Connec@@
Contact
Control
Corn@@
Cot@@
Cri@@
Cru@@
Cup
Cust@@
DA
DI
DJ
DM@@
DP
Dadurch
Daher
Dall@@
Dallas
Dance
Datei
Dave
Davi@@
Davis
Dazu
Dead
Deb@@
Dec@@
Deck@@
Deli@@
Dennoch
Deputy
Diamanten
Diamond
Dienste
Diesen
Different
Dig@@
Dinner
Disney
Dog@@
Douglas
Drei@@
Drive
Driver
Drogen
Dunk@@
Dunkel@@
Durch
During
Dutz@@
Dä@@
Dü@@
EF
Early
East@@
Ebene
Edinburgh
Edu@@
Ehe@@
Ehefrau
Einfluss
Einmal
Einsch@@
Elektronik
Elem@@
Elisabeth
Elizabeth
Emotionen
Empfehlungen
Enterprise
Entwicklung
Epis@@
Erd@@
Ereignisse
Erfahrungen
Erfindung
Eric
Erklärung
Erlaubnis
Erster
Erwachsene
Erziehung
Euro-@@
European
Eve
Event@@
Exp@@
Expedition
Exper@@
Extra
Extra@@
FO@@
Fahren
Fair
Fakten
Fant@@
Fas@@
Fassung
Fast
Feier@@
Felix
Fen@@
Ferrari
Fes@@
Fi
Fi@@
Field
Fill
Filmen
Fir@@
Flan@@
Fleisch@@
Fli@@
Flie@@
Flo@@
Flora
Flü@@
Fon@@
Football
Forest
Form@@
Frank@@
Franklin
Frau@@
Free
Freundschaft
Fri@@
Friedens@@
Frist
Fru@@
Fun@@
Fur@@
Fuß@@
Fußball@@
Fäl@@
Fälle
Führ@@
Für@@
G-@@
GO
Galerie
Ganze
Garage
Garten
Garten@@
Gas@@
Gate
Gaz@@
Gebrauch
Geburtstag@@
Gedenk@@
Gegensatz
Geheimnisse
Genau@@
Generation
Generator
Georgia
Gerät
Geräte
Geschäfte
Geschäftsführer
Gesell@@
Gespräche
Geträn@@
Gew@@
Gibraltar
Gil@@
Gipfel
Glas@@
Golden
Gott@@
Grab@@
Grant
Gren@@
Grenz@@
Grill
Großbritannien
Guard
Gum@@
Gun@@
HT
Haar@@
Haft@@
Hag@@
Hall@@
Haltung
Han@@
Handtücher
Handwerk
Hauses
Haut@@
Having
Hawaii
Head@@
Heilige
Heilung
Hier@@
Hig@@
Hits
Hitze
Hof
Hof@@
Hoff@@
Holl@@
Home
Hong
Hongkong
Horse
Hos@@
Hot@@
Hotels
Hub@@
Hubert
Hunde
Hä@@
Häl@@
Häusern
Höhen@@
Hütte
IB@@
IC@@
IF@@
IL
IM@@
IP-Adresse
IR@@
IS
IS@@
IT
ITE
IV
Ice
Identität
Ign@@
Imag@@
Indem
Indian
Infektionen
Initiative
Ins@@
Inst@@
Int@@
Intelligenz
Inten@@
Internet@@
Interview
Interviews
Inves@@
Investition
Italian
J
J.
Jahrhundert
Jahrhunderten
Jahrhunderts
Janeiro
Japanese
Jas@@
Jaz@@
Jeans
Jer@@
Jews
Ji@@
Jim
Jobs
Jones
Journalist
Juan
Juden
Kaffe@@
Kal@@
Kalender
Kanada
Kandidaten
Kat@@
Kath@@
Katholi@@
Ke@@
Kern@@
Kill
Kindheit
Klin@@
Klu@@
Kommunikation
Komp@@
Kong
Kongres@@
Konto
Korea
Kot@@
Krankenh@@
Kreditkarte
Kreditkarten
Kreis
Kräfte
Kurz@@
Kä@@
Käl@@
Käse
Körpers
Küche
L.
LI@@
LIN@@
Labor@@
Lama
Landes
Lang
Langu@@
Language
Laptop
Later
Lav@@
Lebensmittel
Left
Legende
Lehr@@
Leiden
Leidenschaft
Leistung
Lesen
Lex@@
Liebl@@
Lieder
Lim@@
Lind@@
Liter
Liter@@
Live-@@
Londoner
Long@@
Lor@@
Louis
Low@@
M.
MA
MAN
Mad@@
Madam
Made
Magic
Mahlzeit
Mail
Mala@@
Male
Manche
Mangel
Mannheim
Mannschaft
Mant@@
Marcus
Margar@@
Mari@@
Marine
Mario
Mark@@
Marketing
Maschinen@@
Maske
Masse
Massen@@
Mathematik
Matt
Meanwhile
Mechan@@
Meeres@@
Meinen
Meter
Methoden
Miami
Miguel
Mikro@@
Miles
Military
Miller
Milliar@@
Milliarden
Minder@@
Mine
Mitglied
Mitglieder
Mitteln
Mobiltelef@@
Mode
Mode@@
Modell
Mond
Mont@@
Moore
Morgen@@
Mos@@
Mother
Motiv
Motto
Mum@@
Mun@@
Mund@@
Muskeln
Muster
Mön@@
NAS@@
NASA
NY@@
Nachfrage
Nachfragen
Nag@@
Nam@@
Natur
Nav@@
Navy
Nazi
Nazis
Neben
Neuer
Nic@@
Niveau
Nord@@
Norm@@
North@@
Note
Notwendigkeit
Num@@
Nutz@@
Näh@@
Objekt
Od@@
Ofen
Off
Offiz@@
Oh@@
Online-@@
Order
Orgasmus
Orleans
Otherwise
Oxford
Oze@@
Ozean
PA
PI
PM@@
Paare
Pacific
Pak@@
Pakete
Panel
Papier@@
Parade
Parkplatz
Partei
Partner@@
Partnerschaft
Passag@@
Passagiere
Past@@
Pati@@
Pel@@
Penis
Pent@@
Personal
Perspektive
Persönlichkeit
Peru
Pfad
Pfei@@
Pfer@@
Pferde
Pflicht@@
Ph@@
Philadelphia
Phoenix
Pic@@
Pie@@
Pig@@
Pilot@@
Piloten
Pla@@
Planung
Plaza
Poker
Politik
Poly@@
Pon@@
Porsche
Portfolio
Portrait
Pot@@
Prac@@
Press
Price
Priester
Prime
Princ@@
Prioritäten
Privatsphäre
Prize
Proben
Produkt
Prof@@
Properties
Präsentation
Prüfung
Psych@@
Pump@@
Punk@@
Puzzle
Radi@@
Rahmen
Ran@@
Rand@@
Rate
Rau@@
Rauchen
Rav@@
Ray@@
Read
Reb@@
Rec@@
Rechnung
Rechte
Red
Regel@@
Regim@@
Rehabili@@
Reifen
Reise@@
Reisen
Religion
Requ@@
Reserv@@
Ressourcen
Rett@@
Rettung
Rezept
Rhin@@
Richard
Ritter
Roboter
Roc@@
Rock@@
Rog@@
Rollen@@
Romanti@@
Roth@@
Rou@@
Route
Rufen
Runde
Rätsel
Rü@@
Rücken@@
SAT@@
SC@@
SO@@
ST@@
Saal
Sab@@
Safe
Salz
Sam@@
Samm@@
Samsung
Sanc@@
Santo
Sarah
Satelli@@
Satelliten@@
Satz
Schaden
Schaff@@
Schicht
Schokolade
Schreib@@
Schutz
Schwimm@@
Scott
Secretary
Seitdem
Sek@@
Send
Senden
Serien@@
Server
Shirt
Sho@@
Shows
Sieben@@
Sieg
Sign
Signal
Sili@@
Sing@@
Single
Sir@@
Situationen
Skrip@@
Sky
Sky@@
Sl@@
Sli@@
Slots
Snacks
Social
Sofia
Soh@@
Sohnes
Somm@@
Sommer
Sor@@
Southern
Soweit
Sozial@@
Spac@@
Spezi@@
Spieler
Spir@@
Spitze
Spon@@
Spring
Später
Square
Staat
Stad@@
Stadium
Stadt@@
Stamm@@
Stan@@
Standard
Standard@@
Standpunkt
Start@@
Statue
Stern
Steuer@@
Stich@@
Stim@@
Stipen@@
Stir@@
Sto@@
Stor@@
Strau@@
Straßen@@
Strom@@
Student@@
Studenten
Studio
Studios
Studium
Stur@@
Supermarkt
Swiss
Symbole
Syn@@
Süden
TA
TE@@
TV@@
Ta@@
Tablet@@
Tac@@
Tanzen
Tar@@
Tas@@
Tasch@@
Tastatur
Tatsächlich
Teams
Technik
Tel@@
Telef@@
Television
Tempel
Temper@@
Tempo
Tes@@
Texte
Thailand
The@@
Theat@@
Themen
Therapie
Though
Tief@@
Tier
Tieren
Times
Top-@@
Tore
Touristen
Toyota
Tradition
Trail
Train@@
Translate
Trav@@
Tren@@
Treu@@
Trop@@
Trotz
Tul@@
Tunnel
Turkish
Tän@@
Under
Unternehmen@@
Unternehmens
Uran@@
Val
Val@@
Valentine
Veranstaltungen
Verbot
Vereinbarung
Verfügung
Verletzung
Verpflichtung
Verpflichtungen
Versand@@
Verschie@@
Verstärk@@
Vertei@@
Vertrau@@
Verwandten
Veter@@
Vie@@
Vik@@
Vision
Vit@@
Vog@@
Vogel@@
Vol@@
Vorname
WO@@
Walk
Wand@@
Wassers
Water
Websites
Wech@@
Wechsel
Wedding
Week@@
Weekly
Weg@@
Weight
Wein@@
Weiter@@
Weitere
Wes@@
Western
Whe@@
While
Whit@@
Widerstand
Wieder
Wild@@
Willi@@
William
Wind@@
Wirkung
Wochen@@
Wohl@@
Wohnzimmer
Woman
Word
Working
Wäh@@
Wäl@@
Wünsche
Wüste
Xbox
Year
Yellow
Zeilen
Zeitraum
Zellen
Zir@@
Zoll
Zom@@
Zuerst
Zuhause
Zukunfts@@
Zun@@
Zurück@@
Zweitens
Zü@@
abends
abgeben
abges@@
abgesehen
ability
abo@@
absol@@
absolute
absur@@
acceptable
accidents
achieving
achten
acking
acquired
actions
active
activity
acy
ad-@@
ada
add
adjust
adoption
adt
advance
advis@@
aer@@
affen
affir@@
afford
age@@
agers
aggres@@
agne
ags
ahl@@
aim
aka
akzept@@
akzeptieren
akzeptiert
ald
alifor@@
alle@@
allel
allerdings
allest
alls
alphabe@@
alter@@
although
altitude
ambi@@
ambitious
ament@@
amerikanischer
amin
ammed
ammlung
amo
among
amount
ampton
analysis
analyzed
anc@@
ander
ands
anen
angeblich
angebracht
angeht
angemessene
angemessenen
anger@@
angesichts
ango
ania
animal
anisch
anischer
anners
anni
anniversary
anno@@
annon
annual
anony@@
ansicht
ansonsten
anspruchs@@
anticip@@
antwor@@
anya
anzupassen
ao@@
apel
aper
appear
appeared
application
appoint@@
appreci@@
approach
approved
arbeit
arbeiteten
architect
arded
ardo
argue
argument
aries
arrested
arri@@
arrival
arrive
arti@@
article
artige
aschen
ashes
asi
asks
asser
assign@@
assist
assistance
asso
assumed
astro@@
astronom@@
asts
ata
atar
atch
ateau
atebo@@
aters
athletes
atin
ational
atis@@
atitude
aton
attacked
attemp@@
attended
atti
attract
attracted
attrak@@
atur@@
auff@@
auftauchen
aufzunehmen
aul@@
auri@@
ausdrück@@
ausgeschlossen
ausgewählt
ausgezeichnet
authenti@@
authentic
author
auto@@
aver
average
aving
background
bags
bahn@@
ballo@@
band@@
banks
barkeit
bart
based
basic
bat@@
beachten
bean
beanspru@@
beantwor@@
beantworten
bearing
bec
bec@@
beein@@
begannen
begeg@@
begonnen
beha@@
behand@@
behandelt
bein@@
bekannte
believes
benannt
benden
benefit
benötigen
beraten
berechn@@
bereit@@
bericht
berichte
berühm@@
berühmte
beschloss
beschreiben
beschränkt
beschädigt
beschäf@@
beside
besides
besonderer
bestellen
besti@@
bestimmen
besucht
beten
betrachtet
betre@@
betrifft
beträgt
beu@@
beurteilen
bewahr@@
bewahren
bewegung
beweisen
bewältigen
beziehen
bieten
bil@@
billiger
binden
biological
blan@@
blasen
blaue
bled
blend
blessed
blessing
bli@@
blick
blocked
bly
blü@@
bol@@
bon
bone
book@@
boots
bos@@
bou@@
boxes
bra
bread
brech@@
brem@@
brennen
broch@@
brown
bub@@
buch@@
buchen
bury
buyer
bücher
bün@@
cabin
cade
cally
camp
campaign
camps
can@@
candidates
capable
captured
carefully
cargo
carried
carrying
cath@@
cau@@
celeb@@
center
central
century
ces
cha
chan@@
chapter
charged
cheaper
cheese
chel@@
chem@@
chemicals
cherweise
chi@@
chines@@
chinesische
chips
chocolate
chs@@
cious
cir@@
circle
circum@@
citizens
civili@@
cket
classes
classic
cleaned
client
clients
clinical
clo@@
closing
cluster
cock
coinci@@
collected
color
com
combat
commen@@
commit
committee
communicate
communication
companies
compl@@
complaint
complaints
complete
compliance
conc@@
concern
conclusion
conductor
cone
confident
confirm
connection
consider
controlled
controlling
conv@@
convenient
convers@@
cookies
cooperation
corporate
cos
costs
cot@@
covering
creates
crimes
cross-@@
cross@@
crossed
crow@@
cru@@
culture
cum@@
cus
cust@@
cuts
cy
dadurch
dal
damaged
danc@@
dank@@
darunter
dat@@
datei
daten
day@@
dd
dden@@
dding
deadline
deal@@
dealer
deb@@
debt
debut
deci@@
decides
decken
decl@@
decline
defeated
defend
delighted
dence
denheit
dens
denti@@
dep@@
deposit
dering
dert
desert
design@@
designated
designed
dessen
detailli@@
deten
determined
deutet
deutschen
devast@@
developing
development
device
di
dial
diam@@
did@@
dient
dienten
dieselbe
diet
directly
direkte
disch
dischen
discovery
discre@@
discussing
dish
disk
diskutieren
distinguished
dit
dit@@
dlichen
dly
dnis
do-@@
documentary
dollar
dom
domin@@
donation
door@@
doppel@@
doppelt
dou@@
draft
drawn
drew
drin@@
dritt@@
driven
drops
druck@@
drugs
drück@@
dues
dunklen
durchge@@
dü@@
dün@@
dür@@
e.@@
earthqu@@
eas
edes
edge
edly
ef
efel
effort
efully
egr@@
ehemaligen
ehlt
ehrgei@@
eigen@@
eigentlichen
eindeu@@
einfach@@
einfachen
einfacher
einger@@
eingerichtet
eingesetzt
einiger
einigt
einsetzen
einstellen
einzelne
einziges
ekt
eland
ele
elec@@
eli@@
ellers
ello@@
elte
empfohlen
employees
ena
encing
endy
ened
enger
enh@@
enjoys
enni@@
ennt
ense
enseite
enstein
enstern
enswert
entdeckt
enter@@
enterprise
entfernen
enthal
entieren
entiert
enting
entkommen
entlassen
ento
entschlossen
entures
entwickeln
entworfen
entz@@
eper
equally
equipment
equivalent
eral
erei
erend
erfolgreich
erfor@@
ergab
ergreifen
erhö@@
eries
erkenn@@
ermu@@
ernsthaf@@
ernsthaft
error
erscheint
ersetzt
erw@@
erwäh@@
erwähnen
eröffnet
esa
escap@@
ese
esh
esis
esp@@
essa
essel
essential
ested
estic
etabliert
ete@@
eter@@
eton
etta
etter
etter@@
etzt
eur
euro@@
eval
exam
example
examples
exercise
exis@@
existieren
existiert
experts
expla@@
expressed
expression
ext@@
extremely
ez@@
faced
fache
facing
facts
fahrt@@
faithful
familie
fang
fangs
fare
faul@@
fear@@
fears
feature
fee
feed
fehl@@
fehlen
fehlt
feier@@
feld
fellow
fert
ffer@@
ffs
fiel@@
fif@@
fige
finds
finger
fingers
finishing
fir@@
firm
first-@@
fits
fitting
fiziert
flash
fließt
flowers
fluor@@
flä@@
flü@@
focused
folgenden
folgte
folgten
foli@@
folk
force
forced
ford
forder@@
fordern
forgotten
formal
forsch@@
forth
fotos
founder
fresh@@
fridge
friendship
frisch
fron@@
fted
fts@@
fuhren
fun@@
functional
fund@@
fung
fungen
fur
fying
fähigkeit
fän@@
fördern
förm@@
fügen
führungs@@
fünf@@
fünften
ga
gal
gallery
gan
gap
gar@@
garage
garden
ge-@@
geber
gebiet
gebildet
geblieben
gebor@@
gebühr@@
gegenüber
gehörte
gele@@
gelten
gelungen
gelöscht
gemis@@
gender
gener@@
generate
genes
geni@@
genießen
genießt
geord@@
geplant
geren
gerichtet
gerin
gerous
geräum@@
geschle@@
geschmack@@
gesell@@
gesichert
gest
gestell@@
gestellten
gestimmt
gewicht
gewoh@@
gewün@@
ghter
ghton
gif@@
giger
gleich@@
glich
global
globe
gnis
gol@@
gran@@
graph@@
grei@@
grenz@@
gres@@
grew
grey
grin@@
grounds
gry
größ@@
größere
größeren
grün@@
gründen
gsten
guidance
guitar
gum@@
gungs@@
gut@@
gänge
h.
haf@@
halben
hall
ham@@
handling
harten
hat@@
hath
hauptsächlich
healing
height
heirat@@
heiten
hem@@
hen@@
herunter@@
heruntergeladen
herz@@
herzlich
heutzutage
hilfreich
hinaus@@
hing
hn@@
hof
hop
horses
hos@@
hose
hot@@
household
houses
hrer
humanity
hun@@
hundert
hyper@@
hypo@@
häl@@
hän@@
hänge
häu@@
höch@@
höchste
iPad
iPhone
ic-@@
icht@@
ichtet
ichts@@
icke
ics
identi@@
iding
ied
iedelt
iegen
ielt
ierend
iern
iers
igt
ika
iko
iled
ilian
ility
illeg@@
illen
imp@@
impl@@
impossible
inate
incident
include
includes
inde@@
individuals
industrie
ine-@@
inen
iness
infection
infections
infin@@
influence
inform@@
informieren
inischen
initially
initiative
inj@@
injury
inning
inos
insgesamt
inspired
installed
installiert
insul@@
intern
intervention
inv@@
invention
ionen
ions
ip@@
irre@@
is-@@
ishes
isi@@
iss@@
issa
isten
it-@@
itation
items
itt@@
itte
ität@@
ize
izz@@
j
jac@@
jack@@
jah
jahr
jek@@
jet
jeweils
jobs
justi@@
justice
jähr@@
jähriger
jüngsten
k-@@
kam@@
kann@@
kasten
keiten
kel@@
kers
ki
kins
kitchen
klassischen
kle@@
kleidung
kler
kling
kni@@
knü@@
ko
kol@@
komit@@
komple@@
kontak@@
kontaktieren
konzentri@@
konzentrieren
kooper@@
kostenlose
kraft
krei@@
krieg@@
kur@@
kurzen
kurzer
könne
körper@@
küh@@
kürz@@
lab@@
lack
lade
lager
langem
language
laptop
larger
lat@@
laugh@@
ldn
lebenden
legend@@
legendary
legitim@@
lehrer
leichter
leidung
leistungs@@
leiter
leitet
lement
lens
les@@
letztendlich
letztlich
leucht@@
leute
lia
liable
lian
library
lical
license
licherweise
lichkeiten
lichkeits@@
lief
liefer@@
liefern
ließen
lifted
ligen
ligh@@
lik@@
lingen
lip@@
liquid
lit
lli@@
logic
long@@
loop
loser
loses
lot@@
loyd
lun@@
löschen
machten
magaz@@
magical
magne@@
magnificent
mail@@
mals
mann@@
markt
mary
mas
massi@@
mati@@
mb@@
measures
med@@
medi@@
medicine
meer
meetings
mehrmals
meist
meistens
member
members
mente
merk@@
mern
mex@@
mid@@
mighty
mik@@
military
min
minds
mini@@
minister
minor
mira@@
mire
mirror
mittel@@
mode
moder@@
moment@@
moments
monat@@
mone
motorcycle
mouse
mov@@
mud
mung
mus
muscles
my@@
mysteri@@
mysterious
mächtigen
mäßig
möglicherweise
müh@@
mün@@
nah@@
naked
namen
nar@@
nation@@
naturally
nau@@
nav@@
ne-@@
nec@@
neckl@@
need@@
neh@@
nem
nes
neun@@
neutr@@
new@@
nien
nisse
nungen
nämlich
nü@@
ober@@
oberen
obs
occurs
odor@@
ody
offenbar
offenen
offer@@
oid
olas
olo
ologe
olz
ommen
ona
ond@@
oner
oni@@
onic
onn@@
onymous
oop
oph@@
orary
ored
organised
orgas@@
orial
ories
ory
ossen@@
otive
ounc@@
out-@@
outs
oven
ower
own@@
owned
p.@@
pack@@
packages
packed
packt
painted
pan
panel
pare
parent
parking
particular
partners
partnership
passenger
passi@@
passion
paste
path
path@@
pattern
pay@@
pays
peak
penis
perc@@
percentage
perf@@
perfectly
perfekten
perfektes
permanent
permission
pern
pertoire
physical
pick@@
pin
ping
planned
plastic
platz@@
platziert
pler
plu@@
plug
pläne
point@@
pointed
poly@@
pools
pop@@
port
portfolio
pos
positions
poss@@
posted
praktisch
precious
preis
pren@@
presentation
pression
pride
priest
prim@@
priorities
prise
proceed
prochen
profession
professionelle
projekt
promotion
prop@@
properly
proposed
protecting
proto@@
proven
präsentieren
prüfen
psych@@
pup@@
pünktlich
q
que
queen
quelle
quet
r.
rab@@
racial
radiation
rage
ram
random
ranks
rant
ras@@
rates
rats@@
ray
reaching
reagieren
real-@@
realized
realm
reas@@
receive
reception
rechnen
rechte
rechtlich
recipe
recognition
recommendation
recommendations
recording
recover
recovered
recru@@
redi@@
reds
regard
regards
region
reh@@
reibung
reiches
reine
reinen
reiten
relax
released
religion
religiöse
replace
replaced
replacement
reported
representative
represents
requ@@
requires
residence
residents
resources
respond
ret
retirement
revision
ric@@
richtete
rics
riebe
rier
rights
ring@@
roads
rob@@
robot
rol@@
rolling
rom
rop@@
rote
rou@@
routine
royal
rs
ru
rue
ruled
rum
rupp@@
russ@@
rut@@
räum@@
sachen
safety
sal
salt
samkeit
sanft
sang
sas
sau
scale
schein
scheinen
schem
schi
schicht
schied
schieden
schir@@
schirm
schlie@@
schlimmsten
schlossen@@
schlüssel
schnitt
schon@@
schri@@
schrieben
schten
schuhe
schung
schutz
schutz@@
schwarz
schwarzen
schützt
scope
search@@
seas
secretary
secure
sees
seines
seit@@
sekretär
selbe
sens@@
sensi@@
sent@@
separ@@
separate
separated
serial
sertation
serve
served
serving
settlement
shadow
shaped
sharp
she@@
shor@@
showed
shr@@
sicherlich
sicherstellen
sichert
sicherung
sicherzustellen
sicht@@
sieb@@
sierte
sigen
sigkeit
signing
silber@@
sili@@
silver
sim@@
sin
sink
sion@@
sions
sites
skiing
skilled
sky@@
sla@@
smaller
sman
smile
smooth
smus
snacks
solar
solches
sole
solid
soll@@
somewhat
sonsten
sophisticated
span@@
spann@@
spe@@
speaks
specific
specifically
spending
spiegel
spitze
spoken
spoli@@
sprache
sprachen
spray
spre@@
spreading
square
st-@@
stain
standard
standards
states
stattfindet
statue
steel
steep
stehenden
steil
steine
stellungs@@
stem
stepp@@
stic
stim@@
stimmen
stit@@
stly
sto@@
storage
storben
stores
storm
stoß
stoßen
strafe
strategic
strategischen
strecke
stres@@
stress
stressed
strichen
strip
stro@@
stron@@
stronger
stru@@
struggle
students
studi@@
stunde
stä@@
ständige
stärke
stärker
stätte
stücke
subur@@
succeed
succeeded
suffered
supermarket
supply
suppos@@
sur
surro@@
surrounded
survived
swim
swimming
symbols
syn@@
sz@@
säu@@
süchtig
süd@@
süßen
tail@@
tax
technique
teil@@
teilten
teilung
tem@@
temp@@
temper@@
temperature
temporary
ten-@@
terror
terten
test@@
teste
testimony
testing
teten
teur@@
tha
theater
thee
thei@@
theit
theore@@
thick@@
thin
thir@@
thirty
thou
thousands
three-@@
tia
tices
tigsten
tigungen
tigungs@@
tik
timeter
tin@@
tioned
tionen
tips
tique
tischer
tissue
tits
titude
tlich
toilet
tongue
tops
tos
tou@@
touched
tourists
tower
tox@@
trading
tradition
traditionelle
trag@@
trail
trains
tran@@
transform
transformed
transp@@
transport
treatment
treaty
treu
tries
trum
trusted
tt
tun@@
tungen
tungs@@
ture
turm
two-@@
ty-@@
typ@@
tä@@
ua
ual
ually
uc@@
uen
ug@@
ul
ula
ulation
ulieren
uliert
ultimately
umgewandelt
ummer
umpf
umph
umping
umps
ums@@
unded
unden@@
unehmen
unen
ungen@@
ungs
ungser@@
ungsh@@
university
unken
unlike
unnecessary
unterbrochen
unterricht
unterstütz@@
unver@@
ura
uro
urt
uted
uten
utes
ution
utz
utzen
valid
valu@@
vari@@
ver-@@
verab@@
verarbeiten
verboten
verbrennen
verd@@
verdäch@@
verfahren
verfolgt
verfü@@
verges@@
verhält@@
verkauf@@
verkün@@
verlangt
verliert
vermut@@
vernünf@@
verschieben
verschiedene
verse
versicherung
versorgung
versteckt
verstän@@
verständnis
vert@@
vertreten
vertreter
verurteilt
verwal@@
verzi@@
verändern
vian
victory
vid
vide@@
vie
viel@@
vielfäl@@
vierten
vil
vil@@
vili@@
ville
vintage
vious
visual
vo
voc@@
volume
voluntary
von@@
vorbereitet
vorgestellt
vorhandenen
vorher@@
vors
vorzu@@
vorüber@@
vre
wa
wach@@
waffen
wand@@
warme
warning
wart
wasser
wasser@@
web
web@@
wech@@
wechseln
week@@
wege
weichen
weile
weis@@
weist
weiß@@
weiße
welcoming
wenigstens
werk
wert@@
werte
westlich
whenever
whom
whose
wick@@
wig@@
wild@@
winden
winkel
wins
wire
wirkliche
wirkt
wissenschaften
with@@
witness@@
wohl@@
wohnt
wolle
womit
wozu
ws
wunderbare
wunderschöne
wunderschönen
wä@@
wächst
wählt
wün@@
xt
yan
year@@
yne
yo@@
youth
yr@@
ystem
yt@@
z-@@
zar@@
zauber@@
zei
zeich@@
zeichnete
zel@@
zell@@
zellen
zen@@
zentr@@
zentrum
zes
zeu@@
zeug
zeugt
zig@@
zin
zin@@
zukommen
zukünf@@
zulegen
zunehmen
zusammenzu@@
zut@@
zuverlässig
zwanzig
zweifel@@
zwingen
zü@@
Öff@@
Öffnen
Öl@@
Ü@@
Überwach@@
ährt
ältere
älteste
äne
ärt@@
ät
ät@@
äter
ätzung
äufe
é
öffentliche
ön
ört
örtlichen
ösen
übernachten
übernommen
überwachen
üblich
ück@@
ücke
ühr@@
ürz@@
üt
