<pad>
<eos>
<unk>
的
，
。
和
在
、
.
一
了
是
个
"
)
(
这
对
国家
中
不
与
有
委员会
为
我
将
问题
》
《
会议
并
他
：
；
）
（
各
工作
人
国际
联合国
我们
其
报告
或
组织
提供
该
发展
以
种
所
上
你
到
就
也
进行
关于
以及
政府
这些
国
而
会
包括
社会
通过
方面
第
被
其他
情况
机构
还
方案
项
及
行动
都
次
年
他们
两
地
执行
向
有关
但
妇女
活动
经济
人员
/
所有
能
安全
时
人权
建议
没有
号
决议
公约
条
可以
于
说
下
合作
项目
需要
从
本
技术
-
已
它
根据
儿童
她
系统
要
？
更
应
可
新
区域
规定
大会
提出
管理
法律
支持
可能
特别
采取
权利
计划
理事会
来
措施
决定
必须
影响
由
政策
多
代表
使
最
服务
认为
1
名
重要
至
资源
目标
后
世界
一些
要求
继续
和平
使用
保护
内
很
研究
主要
促进
能力
加强
届
努力
主义
信息
大
2
任何
因为
教育
确保
美元
作为
把
建立
行为
环境
这个
段
已经
因此
提交
等
部门
地区
秘书长
如果
3
期间
给
注意
援助
之间
着
实现
公司
部分
文件
举行
美国
每
草案
增加
关系
基金
解决
先生
参与
成员
战略
表示
获得
实施
审查
全球
三
得到
开展
方
领域
审议
其中
4
主席
请
考虑
政治
作用
自己
相关
指出
第一
中心
作出
共和国
方法
者
非洲
程序
小组
有效
由于
人民
中国
但是
此
讨论
协调
让
预算
开始
提高
人口
支助
处理
许多
5
目前
基础
性
能够
未
--
正在
资料
用
时间
前
培训
它们
事务
方式
调查
代表团
里
意见
机制
特别是
取得
成为
家庭
特派团
做
任务
第二
参加
减少
好
法
间
利用
之
进一步
标准
不同
同
缔约国
同时
:
数据
那
法院
条约
类
制定
秘书处
a
生活
欧洲
评估
专家
贸易
框架
暴力
行政
具有
确定
文化
犯罪
结果
强调
只
发生
又
6
部队
而且
份
存在
伙伴
制度
分析
进程
联合
发展中
原则
级
现在
机会
平等
如
冲突
此外
司法
去
12月
议程
这样
为了
目的
说明
办法
必要
希望
以便
费用
范围
工作组
具体
高
小
款
几
缔约
位
对于
联盟
最后
期
武器
地方
咨询
应该
条件
产生
市场
即
是否
接受
受到
造成
公共
共同
什么
则
歧视
自由
全面
10
想
建设
责任
进展
充分
发言
投资
并且
受
设立
天
基本
7
部
b
得
维持
办事处
资金
性别
人道
6月
严重
及其
过
变化
开发
适当
帮助
8
消除
过程
按照
企业
协助
点
承诺
会员国
做法
应当
见
控制
之后
如何
设施
起
完成
尽管
改革
生产
例如
形式
负责
出现
监测
民主
*
才
义务
涉及
人们
鼓励
全
比
月
7月
恐怖
认识
非常
以色列
个人
当
第三
另
欢迎
出
！
知道
积极
四
作
业务
挑战
独立
采用
地位
表明
英语
当局
健康
可持续
办公室
安排
仍然
银行
因
议定书
利益
那些
非政府
国内
;
选举
武装
9
协定
12
2008年
无法
吗
以下
非
虽然
用于
批准
谈判
一切
仍
改善
法庭
介绍
2005年
正
直接
社区
然而
发现
自
规则
原因
状况
成果
关注
以来
案件
家
结构
增长
组
9月
之前
2010年
事项
预防
10月
立法
2009年
知识
一般
优先
关切
时候
2006年
金融
持续
收入
军事
评价
不@@
高级
大学
2007年
内容
岁
设计
再
11
一直
风险
导致
卫生
15
二
11月
禁止
成功
难民
3月
报告员
．
并不
5月
经
空间
限制
协商
履行
需
种族
附件
警察
最近
一致
广泛
网络
令
因素
保障
刑事
过去
指导
科学
组成
事件
重新
却
事
经验
城市
集团
同意
20
需求
c
选择
运动
2004年
结束
1月
权
五
财政
综合
打击
防止
学校
针对
2011年
区
现有
产品
联邦
完全
某些
按
公民
13
了解
领土
稳定
4月
联系
土著
总统
发挥
无
长期
审计
规划
实际
临时
之一
材料
监督
明确
程度
14
协议
关键
2003年
宣言
2012年
财务
人类
发达
就业
安理会
纳入
承认
扩大
阶段
论坛
危机
内部
经费
分
保持
呼吁
加入
外
适用
巴勒斯坦
2002年
威胁
2000年
准则
收到
专门
或者
推动
水
来自
当地
面临
对话
正式
总
日本
上述
较
拥有
保证
群体
制订
尤其是
重申
请求
非法
土地
您
曾
伊拉克
条款
感到
符合
气候
1日
日
统计
大@@
定期
从而
18
应用
只有
保健
16
看
重大
宪法
处
[
遵守
重点
A
占
专业
记录
普遍
经常
年度
更加
不过
]
像
约
学生
显示
员额
专员
基于
质量
不断
准备
一样
宗教
,
估计
民族
8月
恢复
你们
设备
新闻
还是
违反
2001年
合同
达到
很多
人数
水平
进入
2月
改进
电子
自然
数
B
工具
整个
应对
传统
同样
未来
做出
结论
侵犯
缔约方
农业
均
成员国
1999年
阿拉伯
带来
成立
议会
2013年
现象
贡献
确认
有助于
生物
场
000
价值
举办
改变
民间
法官
官员
女性
解释
缺乏
倡议
低
粮食
成
宣传
达成
有些
保留
超过
大量
表
编写
能源
裁军
通常
证明
指标
尊重
17
所述
d
协会
30
历史
就是
21
俄罗斯
受害者
编制
1998年
基金会
资产
文书
宣布
落实
允许
构成
今天
反映
艾滋病
反对
申请
贩运
支付
所以
数量
权力
女士
医疗
给予
英国
局势
第四
·
称
实体
香港
看到
调整
另外
访问
起来
如此
危险
总部
提到
最终
手段
下列
部长
担任
境内
农村
30日
那么
分配
十
列入
学习
e
若干
厅
贫穷
相互
满足
紧急
以上
然后
六
理由
职业
发表
19
法国
提议
模式
领导
精神
首脑
共
治疗
价格
信
青年
印度
少数
意义
声明
子
司
条例
签署
商业
苏丹
享有
管制
计划署
没
团体
太
交流
补充
31日
困难
森林
病毒
件
核
运输
实行
大多数
长
语言
团
来源
证据
行
章
创造
来说
支出
成本
加拿大
十分
采购
感谢
职能
一定
主管
人力
呢
德国
核心
通知
属于
千
战争
再次
私营
工业
外国
修订
授权
地点
课程
比较
国际法
文
有限
我国
收集
残疾人
载
25
避免
据
贫困
亚洲
除
拟议
出口
24
喜欢
后续
计算
特殊
供
多边
移民
详细
甚至
酷刑
除了
媒体
为此
损失
增强
密切
在内
加以
单位
今后
统一
最高
8@@
其它
回顾
主任
外交
第五
财产
拉@@
还有
从事
概念
海洋
重要性
引起
孩子
表现
州
比例
案
旨在
9@@
部署
22
罪行
只是
定义
登记
周
而言
反应
答复
鉴于
至少
告诉
每个
提案
仅
拟订
式
通信
阿富汗
越来越
在这方面
主题
发
一起
效率
毒品
体制
传播
40
全体
节
公众
小@@
步骤
观点
死亡
运作
寻求
形成
题为
扩散
省
刚果
承担
拘留
她们
数字
赔偿
道
以前
如下
达
分别
1997年
无@@
专题
化
相信
王国
时期
维护
型
机关
不仅
体系
身份
23
趋势
2014年
理解
似乎
依据
纽约
迅速
交易
某
债务
事实
C
·@@
50
降低
首先
书
良好
随着
一@@
系列
检查
真正
筹备
网站
黎巴嫩
率
线
商定
召开
流离失所
工程
予以
这里
预计
重视
且
度
药物
头
力量
占领
律师
科
几乎
核武器
电话
居民
马@@
日内瓦
任命
尚
东西
疾病
举措
古巴
明显
预期
职位
多@@
当时
敦促
观察员
背景
工人
决策
有所
核准
国民
伊朗
自愿
双方
B@@
住房
障碍
性质
破坏
物质
市
阿@@
飞机
竞争
规模
顾问
公平
平民
理论
26
指控
下降
拒绝
西@@
世纪
遭受
斯
过渡
生命
纲领
经过
叙利亚
发出
中央
男女
有@@
探讨
T@@
找到
大约
当前
贸发
灾害
伊斯兰
非正式
局
训练
宪章
类似
M@@
事情
特定
立即
股
资助
首
人士
全部
女
往往
中@@
的话
移徙
货币
问
邀请
开发署
D@@
1996年
公开
吧
愿意
那个
套
平均
视为
S@@
讲习班
澳大利亚
出来
女孩
第@@
那样
小时
本身
巨大
－
指
H@@
L@@
容易
适应
7@@
意味
电影
常驻
索赔
办
相
致力于
欧盟
劳工
福利
出席
截至
与会者
座
高@@
修改
卡@@
指定
站
拉
复杂
艾滋
及时
最佳
P@@
离开
意识
用户
爱
干事
克
损害
快
领导人
32
诉讼
生效
特
分子
直
依照
残疾
足够
随后
德@@
日益
至关
非@@
转让
德
那里
建筑
下午
磋商
27
F@@
28
保险
便
接触
清单
钱
亦
辩论
水@@
实质性
可@@
C@@
31
100
朋友
上诉
最新
最大
唯一
大部分
K@@
之外
以后
车
G@@
起诉
2015年
-@@
官方
捐款
外地
商品
集中
包含
N@@
属
斯@@
行使
监狱
1995年
处于
日期
年龄
相同
男子
状态
巴西
手
0@@
张
35
压力
待遇
特@@
审判
攻击
15日
停止
29
第六
研讨会
墨西哥
即使
评论
立场
60
机
带
尤其
南
货物
路
45
量
生
工作队
土耳其
遭到
平衡
走
会计
赞赏
1994年
吃
类型
底
公正
为什么
科索沃
职责
母亲
劳动
心理
33
研究所
比赛
创新
私人
体
R@@
加
34
意大利
36
i
交通
学
地雷
任择
图
门
觉得
后来
以外
加@@
效果
数目
今年
结合
名单
侵害
一下
票
词
全国
相当
筹资
技能
开放
制裁
资格
双边
队
航空
级别
启动
袭击
表达
在于
太平洋
汽车
合理
预测
模型
来文
米
获取
谁
索马里
使得
数额
化学
功能
供应
治理
父母
架
实际上
难
话
地球
多样性
案文
跟
也许
执法
不足
食物
供资
西班牙
方向
加勒比
更新
道路
流动
普通
巴基斯坦
一般性
利@@
片
科技
37
西
罗@@
投票
4@@
o
各自
提及
涉
后果
动物
打算
卫星
制造
清楚
七
高度
贷款
重建
救济
物
销售
变得
延长
埃及
称为
数据库
生态
面
卢旺达
规范
通报
北京
南非
瑞士
捐助
科威特
句
根本
步
巴@@
台
修正
A@@
D
6@@
大家
38
投入
助理
游戏
现实
海@@
第1
本国
事实上
克@@
为止
山
信托
41
学院
既
总是
严格
电视
初步
简单
展开
账户
测试
态度
父亲
依然
攸关
近
1993年
20日
39
主权
检察官
南部
外部
自@@
发布
利
位于
42
途径
原子能
各个
软件
3@@
试图
列
当然
极
指南
科@@
器
法治
石油
更为
转移
第2
对此
资本
公布
切实
之中
报道
边界
分发
难以
身体
医生
工资
心
制
现代
多数
28日
有时
享受
行业
总体
人@@
额外
现
起草
纳
医院
特点
安@@
委会
之下
年轻
18日
判决
增进
f
军队
查明
放在
须
m@@
语
48
花
协调员
怎么
客户
位置
谨
10日
43
速度
所需
44
23日
看法
开
用途
维也纳
上@@
驻
22日
奥@@
合法
12日
便利
方针
金
申诉
美
信任
观察
集体
2@@
值得
实践
差异
快速
试验
期限
法案
维和
遗憾
相比
伊@@
E@@
14日
s@@
主持
派
46
卡
特征
男性
提请
11日
哪些
不利
错误
协作
b@@
补救
虐待
19日
亚@@
制作
5@@
'
d@@
最低
尼@@
上升
这么
团结
21日
员
高兴
教师
用来
中东
t@@
达尔富尔
污染
力
食品
显然
25日
只要
分类
16日
返回
少
网
剥夺
反
打
元
总额
岛
难民署
现金
基地
可能性
署
候选人
光
值
音乐
49
争取
废物
现行
伤害
适用于
次级
17日
法令
分享
若
上午
正确
坚持
千年
安保
子女
差距
旅行
参考
教学
新@@
道德
正常
52
干预
表决
车辆
死
利比里亚
岛屿
颁布
角色
尼
拉丁美洲
不要
平台
出版
47
哥伦比亚
c@@
朝鲜
荷兰
时代
联
载有
26日
取消
中期
哈@@
外@@
曾经
经历
24日
层面
强
强迫
天@@
订正
居住
附近
雇员
27日
进步
上文
29日
作品
布@@
效力
执行局
跨国
遇到
角度
层
国籍
指示
并没有
之@@
住
得以
相应
神
77
成就
载于
海地
艺术
描述
合并
逮捕
代
费
挪威
裁决
思想
女童
阿根廷
愿
s
共同体
八
进口
民众
V@@
透明度
兴趣
主
全球化
因而
城
免费
强烈
剥削
面对
感觉
经营
常设
婚姻
「
里@@
金@@
装置
机场
----
」
n@@
2日
分@@
几内亚
后勤
内@@
营养
有的
潜在
E
下来
笔
购买
操作
多少
W@@
赞扬
O@@
第七
发@@
完整
先
中的
计算机
即将
重
腐败
出生
罪
议事
逐步
er
500
13日
相对
书面
i@@
青少年
别
规划署
县
共识
各地
l@@
迄今
e@@
失踪
大规模
进
心@@
化学品
证实
9日
8日
言
圣@@
确实
拟定
美利坚
批
轮
k@@
支
瑞典
萨@@
群岛
燃料
尔@@
语文
叫
感
弹药
p@@
对@@
印度尼西亚
尽可能
记者
1.@@
诸如
法@@
担心
津贴
有利于
面前
53
单独
瓦@@
秘书
设
马
维@@
肯定
更多
对象
特设
科特迪瓦
3日
体育
200
实验
替代
赋予
消费
南@@
消息
法规
阻碍
米@@
防治
命令
4日
和解
寻找
环境署
初
并在
决心
具
回答
负担
作了
死刑
自身
合众国
回
推广
儿子
55
失去
全世界
故事
早
地理
监管
10@@
酌情
工程处
室
任期
51
工发
无论
体现
运行
纳@@
减轻
释放
最初
附属
业绩
派遣
成绩
节目
场所
次区域
战斗
些
6日
美洲
混合
1990年
常常
河
开支
乌克兰
真
7日
报表
公务员
细胞
自我
I
例子
写
交换
大使
持久
塔@@
J@@
生殖
储存
旅游
突出
周期
南斯拉夫
基@@
听
电脑
1992年
解除
54
制止
惩罚
取决于
声
透明
最好
信仰
70
显著
5日
y
口
白@@
感染
系
建造
担保
分钟
核查
半
买
提
去年
格@@
新西兰
党
东帝汶
整体
刑法
议题
g
阐述
原
前往
满意
一旦
高等
啊
主席团
球
同@@
议员
回应
雷@@
适合
船
调动
长@@
布
早期
尔
基
2.@@
放弃
效益
紧张
东
涵盖
融资
推进
塞@@
深入
吸引
倍
56
滥用
整
块
别人
军
装备
反恐
出版物
促使
格
f@@
亚太
地@@
埃塞俄比亚
认可
情报
争端
an
入
本@@
下@@
业
赞同
辆
y@@
页
争议
代理
自动
或是
事务部
以往
手册
广播
摩洛哥
旨
重@@
除非
声称
管辖
定
依赖
g@@
比@@
三@@
仲裁
管
文@@
in
永远
群
12@@
教训
排放
联络
着重
65
真的
塞拉利昂
并非
教授
迪@@
西非
/@@
加沙
例
融入
谴责
仅仅
反@@
患者
审理
外勤
极端
沙@@
布隆迪
族
64
彻底
出@@
们
志愿
第3
单
不再
夫
罗马
获
实地
得出
概述
翻译
讲
主流
斗争
找
新的
林
高专
事业
逐渐
预咨
边
怎样
普@@
尼日利亚
分布
61
发起
劳动力
er@@
衡量
九
结婚
在一起
文章
剂
处罚
可靠
确立
尚未
取代
族裔
证人
死亡率
示范
开@@
测量
57
额
讨论会
付款
h@@
想要
摘要
奖
巩固
名字
证书
伦敦
菲律宾
62
阁下
港
飞行
总理
常
达@@
气
大型
1991年
列出
捐助者
养
希腊
政党
注重
荒漠化
可是
事故
3.@@
版
类别
观念
a@@
设置
泰国
男人
干
古@@
热
1@@
埃@@
缅甸
物品
联合会
移动
短期
安装
300
不得不
意愿
58
波@@
恶化
常规
脆弱
帕@@
职务
塞浦路斯
气体
妻子
言论
h
特性
阻止
59
国@@
变成
大大
驱逐
14@@
al@@
创建
期待
款项
重返
巴黎
与其
要素
员工
会议室
远
艾@@
任
回到
生@@
阿塞拜疆
习惯
可行
塔
林@@
纪念
续
世
I@@
女人
一体化
认真
海
具备
意思
63
澄清
期望
in@@
有利
加快
病
声音
产出
准确
修正案
发行
运用
双
监禁
一点
管理局
受害人
丰富
图书馆
供应商
成@@
怀疑
性能
名称
植物
空气
打@@
这一
英文
极为
流
雇主
伊
大陆
星期
波斯尼亚
信贷
ar@@
低于
口头
66
奥地利
痛苦
清洁
相反
洛@@
.@@
艾滋病毒
贝@@
想法
公路
固定
an@@
U@@
角
妨碍
发射
消费者
鱼
界定
北部
转@@
当选
连接
潜力
护理
主动
征聘
吁请
巴
乌干达
容忍
终止
北
马来西亚
优势
老
指数
促请
通讯
职权
海关
80
筹措
注册
中非
尽快
管辖权
重复
互动
设想
利比亚
贩卖
相@@
失败
界
公@@
森
象
自治
老@@
秩序
克服
掌握
应急
肯尼亚
被告
莫@@
风
r@@
提名
询问
公里
任意
推出
监督厅
外层
主张
波兰
检测
莱@@
13@@
大楼
弱势
日@@
药品
后@@
主@@
1999
欧元
副主席
小型
好处
与此同时
根
照顾
转变
阿尔及利亚
王
初级
推迟
智利
高级别
11@@
所谓
69
失业
产业
比如
前景
听到
山@@
吉@@
第5
培养
当中
拨款
罗
工会
68
视
家人
周年
听取
字
看见
亚
于是
刚
部长级
塞
士兵
丈夫
案例
民国
72
花@@
一半
金属
对待
何
教科文
格鲁吉亚
色
篇
战
设法
足球
考试
改为
班
而是
版本
税
和@@
出于
下文
敏感
赞成
生育
波
铁路
男孩
充满
博@@
台湾
人物
谅解
连
第九
许可
方便
豁免
申诉人
读
必
Z@@
75
民事
经委会
板
空缺
报
投资者
发放
w@@
名义
讲话
国会
厄立特里亚
90
引渡
看来
分摊
核裁军
es
图@@
of
总数
M
71
受理
丹麦
产权
人人
在@@
t
为@@
梅@@
光@@
差
老年人
很少
油
补偿
皮@@
生存
en
连续
情形
绝对
补贴
面积
提升
巴勒斯坦人
作业
关心
15@@
病人
F
明@@
村
合
广告
渔业
爆炸
近年
应付
u@@
en@@
空@@
楼
独特
互联网
全@@
告知
警方
第6
规约
at@@
绿色
上帝
导弹
组合
备忘录
东@@
收益
不久
他人
将来
宗旨
热@@
越
越南
龙
新加坡
佳
集
总@@
细则
理想
单@@
67
削减
完善
加上
拟
ad@@
希@@
提醒
正@@
支援
经济体
黑@@
退休
销毁
加速
索@@
信号
克罗地亚
品
距离
v@@
发言者
定于
农民
策略
不良
万
美@@
否则
Y@@
18@@
关闭
白俄罗斯
芬兰
接近
就此
扩展
托@@
合@@
著
很大
柬埔寨
后者
始终
加剧
无核武器
行@@
配置
许可证
惯例
树
电@@
邮件
备选
气@@
身
it@@
委员
变@@
强化
杜@@
革命
法定
勒@@
动
第八
al
工
康复
强制
首席
76
下去
东道国
动态
表面
出售
原@@
批评
4.@@
为期
灭绝
拿
风@@
交付
塞尔维亚
日常
囚犯
掉
排除
17@@
轨道
第十
姆
任职
前@@
经社会
过@@
0.@@
工艺
边境
赛
李@@
二@@
随时
尊严
约旦
协同
事先
受伤
格式
移交
恩
危害
卖淫
保存
手@@
提@@
获悉
源
秘鲁
融合
流@@
73
人格
衣服
关联
周围
深
有力
1998
16@@
加工
恤金
鲁@@
循环
签订
博士
on
空中
文本
推行
变
粮农
镇
总结
副秘书长
安
G
建设性
教
废除
平@@
尼泊尔
晚上
转型
Ch@@
职
遵循
街
本人
或许
另一方面
副
如今
看看
近东
㈠
黑塞哥维那
眼睛
400
西方
耶和华
不论
or@@
房间
法语
足以
0
神@@
婴儿
缺少
比率
参数
驻地
覆盖
基准
有害
兼
如@@
说法
主办
变革
据称
库@@
耶路撒冷
z@@
中华
诺@@
赢得
宗
恩@@
超@@
毫
公园
限度
太阳
百分比
现场
首次
苏@@
离
认定
黄@@
雇用
门@@
简要
身上
安置
78
海外
㈡
别的
学会
其余
j@@
81
名额
现状
着手
缺陷
我的
74
当事
国外
比利时
有用
充足
红@@
尽
正义
星
强大
等待
顿
el@@
应在
吨
韩国
药
小学
爆发
颗
论
著名
持有
2004
暂停
突然
用@@
例外
雷
内罗毕
强奸
ar
汇率
秘密
信心
王@@
房子
家@@
靠
明白
各国
单一
不平等
观察团
算法
复员
网上
下面
坚定
马里
u
孟加拉国
妈妈
用品
问责
南方
渠道
迫切
o@@
外国人
时@@
依靠
薪金
设在
入侵
地震
形势
k
间接
姆@@
不得
探索
爱尔兰
至今
也是
持
儿
项下
尽量
学家
跟踪
正如
房屋
卷
中学
的确
毁灭性
保@@
伤
先前
赫@@
委内瑞拉
通@@
汇编
引发
配合
Add.1
工作者
高于
600
调解
捷克
裁定
标志
其@@
枚
老师
至于
附加
双@@
ia
82
众多
状
到达
诊断
温度
作@@
约束力
安哥拉
档案
来到
女儿
斯·@@
假设
陈述
石@@
前提
邻国
师
企图
贸易法
遗产
突尼斯
东部
所在
删除
缔结
照片
葡萄牙
碳
收@@
83
於
第7
动力
2010
左右
效应
表格
北@@
亚美尼亚
地带
其后
国王
来看
回@@
am@@
繁荣
勒
成效
特遣队
领袖
解放
商务
展示
尝试
蒂@@
区别
事态
其实
工厂
退化
危地马拉
兄弟
概算
瓦
住区
应@@
总值
清@@
季
来@@
兰@@
真实
团队
奇
S
84
杂志
手术
刺激
西亚
不管
汞
穷人
P
留下
武力
以期
穆斯林
所@@
内陆
价
学术
尔·@@
负责人
5.@@
85
起@@
彼此
升级
大幅
经社
性@@
爾@@
分为
道@@
处境
ch@@
定@@
库
金额
形
计
谈
未@@
穿
缓解
资讯
图像
从@@
79
科学家
俱乐部
审评
余额
董事会
沟通
有罪
识别
个别
快乐
怀孕
文明
20@@
不妨
阅读
产
某个
哪
放
斯里兰卡
转递
厄瓜多尔
汇报
质
T
上海
极其
简化
X
临床
满
天气
R
文职
火
夫@@
受@@
n
时间表
上空
奇@@
杯
守则
回来
伯@@
做到
88
英
印发
宏观
2000
维修
投诉
观测
87
各位
所列
流程
中等
大韩
中间
头@@
红
杀害
质疑
军备
单方面
遣返
自从
ing
陷入
裁谈会
坚决
财富
86
夫人
活
迪
并未
政权
被迫
有机
顺利
人群
常见
负债
建
上面
之内
季度
以为
暂时
从未
诉
子@@
800
喝
房
霍@@
排雷
限于
酒
转交
区分
索
L.@@
大力
过度
2016年
流行
职等
净
旧
丧失
竞争力
第9
世贸
必要性
2001
通
曼
91
纲要
含有
知
基因
偿还
万@@
合适
白
意外
能否
警告
减
包
狗
眼
主导
方@@
89
92
设有
祝贺
on@@
名@@
幸福
用以
分列
电力
加大
处决
不到
列@@
火@@
化@@
de
石
96
差别
普查
规章
太@@
=
P-3
元首
用作
南南合作
消耗
首长
沿海
医学
少年
等等
沙特阿拉伯
电
定为
罪犯
朝
负有
负面
首要
元素
时刻
核定
绩效
富有
禁
列为
实验室
脚
设定
94
灾难
机@@
订立
共享
追求
犯
入@@
皮
兵
铁@@
封
外交部
院
P-4
委
海上
连@@
减贫
半@@
油@@
发言人
厂
95
交@@
最为
行为者
空
犯下
帐户
乌@@
干旱
吸收
il@@
出去
民
国别
5%
93
情绪
首都
el
纪律
当事人
经理
6.@@
电台
第十四
本地
杀
杰@@
拖延
处置
L
得@@
孩子们
教堂
飞@@
木@@
列表
短
素
物资
土壤
示
忽视
披露
共体
低@@
灵活
会上
证券
2011
愿望
匈牙利
思考
and
装
查@@
人居署
表@@
以此
监察员
m
现代化
商
温室
统治
Al@@
轻武器
张@@
样
麦@@
友好
过境
辩护
索赔人
阿
假
海军
终了
宝贵
作者
坐
辅助
ic@@
模拟
运动员
相当于
兹
机械
判处
认证
破产
副@@
海洋法
京都
促成
冠军
形象
700
2009
论文
复@@
编辑
照料
响应
地域
庆祝
核可
港口
包容性
19@@
说话
地址
97
谈到
住在
穆@@
物种
物体
税收
原来
98
地面
阐明
立@@
往
最@@
五@@
丝
博物馆
环
is@@
托
能量
在线
发动
泰@@
有效性
湖
遭
坦桑尼亚
变动
送
利润
加纳
诺
颜色
罚
多样化
地下
根源
神经
失@@
里面
选民
本文
as@@
99
+
仇外
小说
玛@@
罗马尼亚
反腐败
帝国
伟大
接收
永久
球队
2013
够
有可能
明
牌
受益
它的
古
办公
真@@
军@@
实例
透过
物理
华盛顿
威@@
足
担忧
分离
再@@
戈@@
先@@
从来
领空
辐射
饥饿
封锁
领取
种种
免疫
塞内加尔
是的
士
单元
曼@@
施加
明天
草
此后
庇护
苏联
人身
残忍
捐助国
分歧
细节
份额
乍得
定罪
成长
北爱尔兰
情
习俗
进度
而@@
改造
清除
地图
记得
看起来
哥斯达黎加
支柱
希
种植
队伍
侵略
哈萨克斯坦
画
打开
调@@
兰
课
约束
选
对策
保安
行事
实质
信@@
全民
爱@@
电信
店
面向
招募
洗钱
id@@
授予
取
监察
会谈
优惠
第十一
利率
文字
终于
库存
...
酸
好@@
撤销
华@@
由此
在此
限
选出
美国人
120
因特网
干@@
动员
艘
判断
同等
股票
温@@
疟疾
侧重于
互相
l
这儿
胡@@
致
继承
一致性
数学
沃@@
多个
正当
种类
相似
好像
绑架
必需
意
排斥
普及
Sh@@
血
对付
制约
N
O
进@@
坏
2006
7.@@
四@@
对其
没收
营地
更大
乌拉圭
填补
代价
斯洛伐克
经合
机器
汉@@
一系列
指挥
钻石
佩@@
人才
第8
ri@@
活力
超出
条文
日子
对外
纠正
检验
核@@
倡导
邦
2012
提起
此种
人生
卢@@
席位
查询
优化
et@@
输入
依
风格
改
直@@
德·@@
停火
世界上
x
也门
摆脱
六@@
近期
演员
过来
微@@
大众
公报
代@@
回收
文学
参照
大小
登记册
人和
每天
体@@
玻利维亚
有点
开办
报纸
答案
un@@
所有权
歌
1989年
1%
价值观
表演
教会
脱离
史
Rev.1
易
关押
新型
好的
民兵
谢谢
倒
口@@
中部
代表性
通用
准
不少
生长
视察
桥
那时
女子
蒂
转
产量
营
切@@
为何
第十二
新兴
给出
建筑物
仔细
剩余
西部
脆弱性
违背
膜
哈
经@@
美丽
路线
时限
ol@@
证
排放量
消极
车@@
论述
有权
音
敌对
合格
标题
接着
削弱
福@@
船只
胜利
re@@
先进
试
抗议
叶
西岸
杀伤
逻辑
史@@
然
阿尔@@
青@@
目
会晤
切
甲
家属
预警
费@@
排
毫米
十二
决策者
缓慢
昨天
分庭
网页
含量
对方
每年
客观
es@@
引入
治
星期一
举
成人
对抗
官
选定
看@@
那@@
含
隔离
900
坐在
激励
培训班
as
学者
学位
寿命
验证
尼加拉瓜
真相
意图
迹象
参与者
防@@
今日
玩
萨尔瓦多
一贯
投
色情
以@@
欧@@
离职
包容
ag@@
韦@@
仪式
凯@@
基本上
刚刚
家里
国防
形态
蒙@@
身@@
储备
端
签名
完
消失
末
围绕
开幕
8%
鼓舞
结@@
150
成年人
八@@
星期五
喀麦隆
墙
试点
包@@
作物
指称
年底
共计
求
较为
纸
总共
生计
3%
违法
做好
压
灵活性
上涨
联@@
血@@
开设
鸟
待
成熟
迫使
配偶
施@@
净额
汉
反恐怖
H
工@@
球员
回家
力@@
齐@@
见到
us
学@@
当今
纪录
蒙古
笑
1988年
st@@
视频
付
4%
指挥官
奥运会
层次
菜
带有
留在
专辑
高效
1,@@
异@@
酒店
久
不错
强制性
船舶
转换
节省
盘
编列
说@@
华
曲
圆桌
别@@
影响力
添加
查阅
理
公认
疫苗
责制
和谐
圈
百万
晚
2%
女@@
1997
解
无论是
高速
is
同一
使用者
算
小行星
其次
土@@
制@@
清理
全球性
冻结
开会
薪酬
所得
指@@
教@@
症
有益
2005
计量
禁运
哪里
排@@
实@@
面@@
据说
修建
ou@@
海事
盖@@
强@@
卡塔尔
土
典型
毕业
作家
旅游业
ab@@
当代
修复
制品
瑞@@
关税
同事
土著人
极@@
短缺
灯
行星
阿尔巴尼亚
命名
比绍
到了
the
不当
申请人
>
em@@
增多
如同
耶@@
娱乐
错
料
校
站在
后面
清
起到
要@@
美好
函数
远远
定居点
矛盾
枪
消灭
有待
对手
更改
复苏
深@@
信通
下放
转向
搜索
10%
想到
手机
菲@@
千@@
成分
6%
赛@@
顾客
局面
th@@
要是
本来
编号
就@@
缩小
整合
接@@
冲击
中亚
注
男
交
司法部
球@@
装@@
跨
会费
夜
国内法
增长率
im@@
记忆
马上
散发
陈@@
ed@@
能@@
黑
敌人
报@@
户
热带
童工
人均
弗@@
创作
原理
深刻
次数
发展权
合法性
签证
广大
一部分
审
发送
肉
于@@
债权人
牙买加
乐@@
扎@@
被@@
驱动
毛里求斯
架构
凡
召集
路@@
当@@
般
市民
村庄
初次
运营
歌曲
英@@
被捕
入境
恐惧
污染物
想象
多哈
性的
标准化
大不列颠
精@@
车站
活跃
食
脸
难民营
抵达
前面
核实
失业率
书记
城镇
技巧
会见
承受
奥巴马
抗
不结盟
年@@
部落
敢
机遇
50%
2017年
失望
中文
7%
不够
这@@
边缘
盖
品牌
夏季
管理层
不可@@
置于
交给
8.@@
巡逻
熟悉
结论性
选@@
否认
合成
前进
定位
退出
ak@@
住宅
买卖
点@@
巴塞尔
免受
划分
大战
专@@
木
恰当
指令
情@@
蒙特利尔
平
会员
铁
,000
冷@@
提前
应由
调
均衡
可行性
题
会@@
伦
加紧
二十
服
管@@
庭
青年人
见@@
各@@
必然
解@@
术语
持续性
波动
紧密
百@@
阶层
桑@@
自由化
2008
立
最多
铭记
之时
动机
竞选
斯洛文尼亚
毛@@
咨商
ra@@
老人
两@@
压@@
台@@
那儿
转化
找出
气象
棒
个案
事宜
箱
代码
自决
下述
真是
双重
班@@
尽早
报酬
害怕
人工
正规
帮
星@@
作战
债券
的@@
生产力
贾@@
组建
被拘留者
发明
20%
改@@
国有
㈢
梦想
耶稣
1996
或有辱
超越
小额
康@@
幅
原始
骨
频率
人为
收
1-@@
et
司长
援引
服务器
乐
集会
试@@
皇家
老板
居
百
分散
无效
东南亚
权能
布什
付出
漂亮
委托
运送
招聘
保密
动@@
冲@@
不仅仅
知情
9%
命运
死@@
详情
可用
第十九
接
免遭
非正规
补助
红色
克斯
重组
海盗
9.@@
包装
草稿
海岸
赞比亚
斯特
换
常@@
X@@
生成
脱@@
健全
老年
延迟
保加利亚
拍摄
呈
爱情
ac@@
101
不安
竞赛
准入
爆炸物
家长
强度
利息
办理
警务
奖励
略
采纳
商店
摧毁
过于
强有力
花费
初期
民@@
记
赠款
疑问
10时
卫生部
编
演变
撒哈拉
亿
颁发
对应
气氛
黑山
谢@@
干扰
征求
性虐待
收费
分裂
ur@@
无疑
星期四
权益
动作
显得
追踪
社
宣称
氏
离婚
易@@
非殖民化
歧视性
基督教
开采
养护
早上
ul@@
特使
联黎
打破
治安
年轻人
爸爸
叙述
不稳定
特权
同次
范畴
105
货
支配
产妇
契约
Corr.1
自行
若@@
伤亡
权威
权限
事物
东欧
文献
刀
ay@@
简报
暂行
火箭
ah
遗传
星期二
等级
演讲
增至
3/@@
布基
登
实物
局长
周@@
28@@
大多
理念
主义者
第15
1990年代
走向
立陶宛
配@@
仇恨
博
无害
密@@
可再生
不幸
衰退
4/@@
ro@@
天主教
有趣
家园
力求
Mar@@
裂变
兹@@
演出
期内
像是
福祉
北方
and@@
证件
约@@
可持续性
这种
K
出发
V
驳回
玻璃
独@@
理@@
浪费
放@@
组@@
雅@@
乌兹别克斯坦
实用
测定
阵线
考察
联赛
奠定
困境
A/60
林业
筹集
内阁
星期三
第10
休息
at
102
煽动
皮肤
龙@@
埃
宇宙
几十
振兴
咖啡
出色
1.
红十字
被占
工业化
奥
分段
修@@
麻烦
署长
防范
名为
当作
之上
自主
抓住
结
垃圾
30@@
此@@
津巴布韦
等@@
学科
反馈
忘记
1/@@
遭遇
集@@
退@@
工作量
家族
娜
P-5
吉
追究
ed
紧迫
除外
丁@@
富@@
饮食
要点
配备
东盟
依法
政
叶@@
人体
将军
跑
感受
供水
野@@
贵
分担
照会
干涉
到底
努@@
既定
诉诸
特·@@
侧
妇发
观众
予
绝
抵抗
一道
麻醉
特区
糖
实
回返
超级
影片
带着
伦@@
认捐
谨慎
r
不满
各方
养恤
部委
j
力度
2003
哦
序言
多么
乡村
船@@
随
莫桑比克
Q@@
命
考@@
诗
丽@@
施工
迁移
普
堂
2,@@
屠杀
孔
团伙
al-@@
优秀
直升机
开列
炸弹
术
弹
热情
商@@
人权法
激烈
环保
冰@@
毫不
完美
品质
纳法索
复原
之际
第60
含义
顶
塔吉克斯坦
广
精确
十@@
预@@
必不可少
根@@
110
顺序
所作
慈善
姓名
朱@@
决
浓度
欺诈
放射性
第十三
抑制
我@@
代替
小姐
馬@@
优质
零
爾
世@@
智慧
礼物
亲@@
驾驶
104
os@@
6/@@
声@@
为主
食@@
母
武@@
劳@@
关@@
秒
创业
线@@
传递
增@@
印刷
欧
眼@@
民用
111
尤@@
购置
还应
预防性
哲学
取@@
望
更好
约翰
难@@
p
工程师
推@@
体面
什@@
每@@
马其顿
103
向前
示威
圣
受害
产@@
弥补
巴拿马
馆
奥林匹克
幅度
2002
感情
碎片
听@@
牛@@
行动者
不用
St@@
提倡
佛@@
洛
os
呈现
1986年
活@@
积累
皆
教育部
反对派
液
om@@
目的地
扮演
客
撤出
本着
高中
怎么样
网@@
偏见
事务处
云@@
ov@@
缴款
人事
升
殖民地
上学
个体
引导
申明
赞助
少女
善
三分之一
便于
更换
毛
联利
5-@@
西班牙语
骚扰
农@@
里约
使命
绝大多数
负
可怕
印象
马耳他
推荐
ig@@
虫
虽
下载
雪@@
此时
糟糕
.1
书@@
Re@@
游@@
构建
确切
传@@
吃@@
害
辛@@
伯
去@@
谈话
异常
警官
赤字
盟约
犯有
田
真诚
收购
症状
求@@
2018年
器官
不可能
判例
去世
分开
走@@
对比
理事国
采@@
000万
猫
渴望
2-@@
00@@
假如
核能
引擎
30%
向@@
贯彻
贝宁
松@@
任用
雨
丹@@
号码
丁
使@@
％
零@@
公职
罗姆人
沙
减缓
七@@
中断
护照
处在
Al-@@
撤回
抗@@
调节
协调会
106
The
毛额
牛
常会
天然气
SR.@@
轻@@
29@@
手中
实在
专用
巴林
罚款
混乱
照
2/@@
展览
撒
钢
致使
以南
到来
A.@@
德班
服装
徒刑
广场
肯
印
一再
国防军
精力
月份
预先
支@@
同上
】
列车
鱼类
事@@
了@@
环@@
乔@@
旅费
民警
第16
农场
地中海
色@@
um@@
中美洲
遗留
英格兰
第11
病@@
救助
外联
接纳
贫
常任
约翰·@@
全权
象征
108
艰难
拿@@
莱
住所
因@@
主体
语@@
章程
白色
遏制
臭氧
所需要
看出
好吗
聪明
鱼@@
邮政
构想
默@@
统筹
落
通道
负责任
继
短@@
参观
癌症
九@@
截止
永@@
头发
湾
中止
指责
闭会
承包商
节@@
翻@@
25@@
应以
而非
边缘化
果
维
共@@
想@@
倾向
1967年
故
断
蓝
le
萨
电视台
标记
合作社
团长
ir@@
数@@
职类
云
谋求
黑暗
联刚
5/@@
比额
赛季
查
入学
特色
争论
签发
外空
补编
补助金
路线图
职员
运
药@@
核试验
第3@@
200@@
捍卫
大气
堕胎
修
下次
存储
恶劣
预定
剧
ap@@
什
带@@
明年
目录
107
木材
1980年
冰岛
刑法典
斯德哥尔摩
爱沙尼亚
蛋白
储蓄
本质
再度
回归
报复
落@@
岗位
观
乘客
密度
x@@
挑选
孕妇
草@@
追加
系数
税务
乐观
流入
义
女生
导航
快@@
每次
27@@
摊
独立性
250
此前
展望
看作
le@@
1987年
登@@
俄
养@@
刚才
拯救
刻
普遍性
火车
结余
应为
屋
要么
程
企业家
引@@
暗@@
社会主义
等于
提取
过分
战@@
留@@
or
存款
弃权
属性
重叠
感兴趣
床
案情
金钱
从中
蔓延
游客
引用
租赁
降
脑
运动会
领@@
针对性
顾及
军火
109
准许
有意
创立
玩家
内在
并使
联塞
未经
分支
26@@
记住
黄金
复兴
整@@
到@@
24@@
阵
奇怪
恒星
谋杀
军人
大幅度
'@@
监控
报导
流量
之所以
上次
场地
收取
松
生涯
羅@@
雅
有时候
第13
物@@
纳米比亚
救援
采访
音@@
空军
作法
警@@
卖
维护者
内政
军官
操守
ut@@
减免
撤离
认同
郡
估算
持久性
苹果
严厉
痛
损坏
准备金
采矿
多米尼加
澳门
土库曼斯坦
杆
梦
摩@@
携带
种子
只@@
洗
债
研发
亞@@
－@@
仪
合约
轴
不是
看上去
聘用
思维
网址
缴纳
法人
这时
原本
投@@
手续
支持者
措辞
不限
妥善
故意
旅馆
东京
苏
联科
·阿@@
定型
得知
23@@
3-@@
标@@
2008-2009
场合
接下来
相关性
犹太人
耶
存
模糊
严峻
呀
样子
呼吸
年级
全力
送交
司机
拉脱维亚
腿
都@@
甘@@
现任
进来
ine
原先
甲@@
换@@
标签
目@@
归
am
长度
味
阳光
任@@
拍
传
第十七
跳
余
堆
戴
塔利班
保
尾
风暴
1985年
man
清晰
称赞
注意力
纤维
10.@@
指明
op@@
一方面
专利
山区
穿着
诉讼法
1982年
克·@@
周末
部@@
街头
剩下
虚拟
占有
9/@@
租金
男@@
英里
势头
很快
智能
福
远程
知名
延误
名册
无人
ent@@
12.@@
偏@@
宁
留
刘@@
先决
茨
满@@
ec@@
创
更@@
112
田@@
巴拉圭
很@@
无线电
果@@
买方
北约
情感
延伸
造@@
将近
思@@
民主党
香
军用
牵头
赛事
li@@
哥@@
ti@@
跨界
未成年人
谈论
立刻
第十五
海底
播放
口译
近@@
也就是
尽力
总务
审讯
S-@@
ic
2007
警察局
113
较大
缩短
副本
&
不但
输出
5年
元@@
禁令
主人
尊敬
旁
都会
诸多
荷
号决议
扩张
南亚
故障
数值
饮用水
地上
牺牲
酋长国
海牙
紧@@
上市
洪都拉斯
骨@@
国务院
115
7/@@
关
香@@
【
列举
外汇
礼
裔
施政
ot@@
半岛
行政区
英镑
读者
传真
护@@
标
穷国
轻
假定
运@@
远@@
,@@
飞
非国家
下跌
朝@@
随@@
节约
小孩
慢
字母
选项
藏
大脑
114
册
捐赠
初@@
40%
老挝
az@@
看待
勘探
镜
侵权
區
黑色
愉快
超
模块
导@@
A/66/@@
斐济
内地
据此
移@@
稳定性
不必
域
西撒哈拉
无需
飓风
实力
势力
耐@@
前任
番
岸
说道
130
惩处
ib@@
破@@
订约
总干事
od@@
形@@
4-@@
公务
急@@
极大
练习
\
酒@@
次序
派出
震惊
80%
ud@@
聚集
苏格兰
聚@@
借此
进攻
实务
淘汰
蒙
研制
奖学金
申报
苦@@
A/57/@@
弹@@
规律
理性
大选
盐
言@@
听说
大臣
忽略
避孕
流行病
通货膨胀
信函
自杀
危及
夏@@
庇护者
提供者
精简
即便
何时
莫斯科
间的
建@@
U
生意
00
签字
燃烧
含@@
涉嫌
街道
116
野生
收回
与会
摩尔
离@@
身心
吉尔吉斯斯坦
诊所
司@@
动荡
肉@@
预见
款额
冷
论点
印@@
天然
宝@@
心里
放松
质@@
回报
频繁
经济学
灵魂
收养
占据
流化
父
配额
确信
权@@
尸体
缴
仪器
流通
可否
家具
朗@@
齐
英雄
归还
复制
旅
地质
除@@
制造商
士@@
6年
既然
接到
排名
不如
降至
并@@
小心
灵
该国
并请
讲@@
河@@
入学率
尤为
烟@@
会期
形状
捕捞
8/@@
井
忙
8年
惩治
倒@@
据报
散@@
夏天
it
坎@@
倾向于
av@@
ad
us@@
瓶
7年
横@@
综合性
控
5亿
6-@@
欣见
运载
院长
羁押
发给
房地产
池
家中
夜@@
席
证词
乱
第二十
今晚
首相
Am@@
该@@
é@@
月@@
汤姆
古老
122
深信
联检
身边
首@@
汇款
惊@@
么
外债
态
A/58/@@
媒介
检查组
病例
编@@
茶
增设
曼谷
纠纷
多哥
杀死
参@@
定居
圆@@
北美
草坪
市政
吸取
早@@
第十六
左@@
传染病
园
评注
eg@@
而已
管道
岩
信念
118
匹配
视@@
划界
100万
电池
后代
资
码
第14
ha@@
温
吹@@
陆地
损伤
十一
十五
邮票
异
医务
外面
无关
1949年
世卫
引进
边@@
写作
政@@
峰会
抵消
见解
抱怨
森@@
透露
蓝@@
意@@
z
优点
前后
A/59/@@
探@@
好几
二十一
2010-2011
航行
少@@
0万
坚信
伴侣
鞋
核证
录
卢森堡
衣
体重
解放军
125
An@@
ev@@
吉布提
第18
概况
无线
详尽
传输
杰出
载@@
乘
图片
订
自动化
靠近
游
蒙特雷
慢慢
不扩散
复杂性
老龄
变更
母@@
曾@@
回合
1993
不法
死于
细菌
轮@@
获益
第12
原料
应将
解雇
延期
／
进出口
莉@@
处以
A/64/@@
散
第十八
航天
峰
qu@@
縣
递交
一边
二氧化碳
归@@
舞台
防御
140
国防部
布鲁塞尔
底@@
9年
巨@@
货@@
洞
啦
根除
回复
央行
微型
借鉴
市@@
扭转
议定
素质
绝@@
市镇
2年
扎
足@@
自决权
袋
批款
市长
3,@@
1995
基层
可靠性
加深
统计局
行径
改组
盘旋
三分之二
叛乱
非公开
年代
背
亲属
睡
ie
破
指派
2014
步@@
不予
顺@@
阴@@
Ar@@
唱
恐吓
庞大
测@@
160
假期
欲
借口
监视
发育
磁@@
薄弱
il
核算
公斤
实效
展
懂
客@@
奴隶
清洗
警卫
总的
幸运
移徙者
堡
枪支
ard
3年
陆军
太空
艺术家
承@@
第二十三
酶
势
展现
II
一体
追@@
暴露
夫妇
荣誉
何@@
周边
嘉@@
奧@@
太太
撰写
分割
4年
色彩
接待
理事
细@@
2006-2007
弱
萨摩亚
止
尼日尔
蓝色
哪个
守@@
环节
结构性
群众
黑人
段落
泰
僵局
造
唐@@
1373
伴随
2010-2011年
焦点
连续性
0年
ob@@
章节
粉@@
下令
停
翼
书籍
早日
平静
公
解散
认知
长官
io
已@@
还@@
累积
减@@
117
缺点
复合
进而
品种
信用
切割
判
模板
乱@@
究竟
致命
宽
1984年
应有
致@@
莫
题目
吸引力
视觉
混@@
击@@
延续
丝@@
业已
旅客
泽@@
介入
股份
化合物
123
用尽
衣@@
迈@@
鲁
息
可信
ra
11.@@
沉重
血液
义@@
族群
尼亚
施行
戴@@
费率
拉·@@
卷入
性骚扰
幼儿
摊款
注射
结社
概要
编码
10万
鉴定
忆及
苦难
拆除
第20
房地
马拉维
启用
大概
股东
某一
问卷
载列
助长
L.
to
}
树@@
量@@
吸烟
机器人
微
无数
亲
怕
借
乡
集束
马德里
明智
对本
必@@
原子
孕产妇
射@@
法典
发动机
记载
构造
胜
500万
创伤
扫盲
基督
25%
链
逝世
愤怒
矿物
区域性
救@@
......
撒@@
斯特@@
布拉@@
增编
吸@@
完整性
2008-2009年
体罚
省@@
友谊
商人
运转
ah@@
东亚
勇气
阶级
内外
ation
航班
时机
保护区
A/61/@@
猪
丽
崩溃
栏
大厦
患
战争罪
简@@
速
高层
180
2.
对在
适足
助@@
所在地
角@@
脑@@
动画
应用于
救灾
桶
硬件
营销
参议院
还要
同步
心脏
无视
字@@
停@@
出台
体验
工商
第24
成年
送到
急剧
妥协
列支敦士登
宫
软
源于
现@@
正面
甄选
第23
花园
弄
杰克
沿着
人民币
A/65/@@
119
封@@
室内
迷@@
马达加斯加
1979年
告
國
危害人
辞职
欠
蛇
训研所
利害
益处
代理人
1981年
背后
阵地
内政部
柱
聚会
同性恋
职工
专家们
承付
昂贵
烟
为由
尺寸
多瓦
女的
象@@
较@@
大赦
界限
整理
画@@
·卡@@
按@@
滑@@
1978年
肿瘤
奥运
着@@
银@@
江
第27
断@@
A/@@
解释性
儿基会
公立
微笑
用语
计@@
共产党
带到
影@@
招@@
通告
校长
交叉
疗法
身份证
难题
灵@@
立法会
{
2004-2005
不懈
热烈
罗斯
影
第22
第4
分娩
本条
者们
粉
嘴
卡车
餐厅
乐团
马尔代夫
五十
古代
城@@
121
C.@@
抱歉
主持人
充当
简称
链接
穿过
深度
伊斯兰教
相对于
麻
A/63/@@
学术界
制造业
尾@@
卖方
喷@@
迫害
审计员
易受
柯@@
矿
直到
线路
英尺
荣幸
2020年
收容
专长
即@@
沉默
同行
附录
冬季
跳@@
天空
经典
中小型
部件
借@@
友
谷
享
浮@@
耳@@
内战
复
联阿
说服
多重
圆
刑罚
ov
难道
国内外
配
後
连同
洗@@
不可或缺
亲自
消@@
博茨瓦纳
样本
此类
大批
杂@@
经由
15%
假@@
坦@@
记@@
90@@
替代品
有一些
液体
坐@@
塞族
追回
分区
反复
公私
平面
编纂
8-@@
主教
雇佣军
太阳能
128
公寓
玻利瓦尔
124
境况
生境
乳@@
塑料
游泳
话题
派@@
词汇
所致
社交
1991
异议
联海
远离
Th@@
免
:@@
教练
监@@
自行车
非索
调查团
路上
宜
桥梁
潮
建制
戈
频道
迎接
电路
戈兰
拨出
III
法文
什么样
sh@@
5.
性格
替
译文
总量
2012-2013
护士
波多黎各
外来
尔斯
幸存者
射
忘
一同
党派
财政部
业@@
推翻
睡觉
符号
发电
补@@
姆·@@
府
A/62/@@
遵照
河流
127
思
138
常用
铀
产假
抢劫
第4@@
悲剧
旁边
空运
IN@@
抵制
得不
威
物流
ay
梅
7.
加州
哥本哈根
校@@
西欧
以供
：@@
志@@
class
60%
W
团@@
均等
出境
晋升
禁@@
90%
胶@@
社团
分组
接种
155
深切
公告
旧@@
车队
便@@
用水
隆@@
家伙
拖@@
现时
遍
尽@@
纸@@
惠益
藏@@
领
吸毒
庭长
务
绳之以法
蔬菜
舍
殖民
进去
好好
适宜
劳动者
课题
围@@
变量
第五十七
抚养
慷慨
公式
激光
炮
存@@
类罪
巴巴多斯
约翰内斯堡
并将
.....
搞
旋转
加重
磨@@
源自
板@@
126
oc@@
人居
债务人
插入
仓库
信件
对不起
曲线
犯人
无辜
量化
孤立
A/HRC/@@
窗口
70%
受益人
感@@
概览
江@@
知@@
观看
欧安
大西洋
框
A/67/@@
地名
赫
中国人
朝着
调集
http
传媒
新增
兼顾
134
黄
ang@@
动议
隆
集合
C-@@
大致
祖@@
可疑
千万
扬@@
魔@@
城市化
并对
1亿
轨
以色列人
坦克
多次
A/55/@@
保卫
佛
农产品
000多
意志
夫妻
私@@
浏览
紧
满意地
赤贫
生产率
借助
暗示
幕
支撑
度过
史密斯
延@@
隔离墙
志
IDB.@@
当天
2006-2007年
巴格达
挂钩
纯
联委会
右@@
附@@
细
辅导
广@@
2亿
重量
偏远
可在
银
险
判定
感激
装饰
购物
奈@@
战役
定性
民和
迈出
俩
活性
赤道
突破
来自于
瑞
聚
GDP
当年
后期
送@@
圭亚那
简介
仿真
冰
拜@@
瑟@@
击败
P-2
下表
依@@
毒
毛里塔尼亚
税@@
交往
哪儿
莉
IS@@
替换
7-@@
各种各样
中将
153
沿
E/@@
逃离
4,@@
乐队
圆满
背@@
同情
患有
历
听见
走到
AR@@
到处
卖@@
指引
污水
依存
硬@@
海啸
3.
卢
至@@
卫@@
建成
再生
遥感
侧重
全国性
院校
冒险
酸@@
叫做
一会儿
轻松
1983年
后裔
改动
if@@
钢@@
贝
Car@@
学员
违约
养老金
2012-2013年
产物
第二十六
主意
检察长
菌
不明
套@@
1974年
划@@
炎
刺@@
贩毒
举报
境外
法外
212
容器
省份
全文
洪水
探测
炉
石头
敌
灰@@
变为
供@@
同学
追溯
UN@@
诚实
讲述
信中
制备
站@@
易于
相符
澳洲
宽容
id
过时
毕业生
卷@@
弹性
烟草
招标
前所未有
节日
绿@@
ek@@
休@@
传感器
顾
1年
第五十九
惊讶
非洲人
200万
三十
应向
殴打
第五十八
或者是
CO@@
兴@@
到期
锻炼
大卫
无论如何
检
132
水果
稿
初始
q@@
好吧
奴役
抽@@
化石
夏
1975年
年份
创@@
众
走私
中立
校园
薄
4.
决定性
壁垒
抵押
海湾
㈣
便宜
生日
第二十四
述及
蓄意
1992
SA@@
蛋
路径
end@@
营业
股@@
33@@
旗
5％
讨厌
信誉
菲
空白
135
129
着眼
水域
简直
扣押
舒@@
数码
次@@
面试
击
大纲
多国
回忆
不丹
牙
选手
孤儿
沉@@
传送
维尔
af@@
连贯
供应链
第六十
氯@@
闻
困扰
ers
苦
大于
离子
胆@@
句子
笔@@
从前
无力
籍
端@@
发病率
愿景
内心
大使馆
开罗
战略性
玛
航
大学生
火山
扶持
修理
季节
年会
神圣
照@@
．@@
在场
杨@@
游行
爆
将要
百分之@@
更正
附带
厚
麻@@
组件
传达
守
举@@
众议院
氟
ok@@
乃
划拨
CA@@
歌手
实时
飞越
D-1
回国
舞
虚@@
各项
姑娘
恶@@
有形
壳
客人
缴付
C/@@
aw@@
欣赏
侦查
水准
防
球场
动用
爵士
销
挖掘
距
跑@@
军方
触@@
阿拉伯语
保守
au@@
措词
小岛屿
反而
征收
地铁
兴建
邻近
战胜
36@@
寄@@
钟
范@@
丧生
置@@
心灵
跨越
导
早晨
天体
混凝土
总督
拘押
服务业
界面
救
第5@@
容
飞离
方程
隐藏
Ma@@
E/200@@
众所周知
原则上
雨@@
革新
粘@@
eb@@
似
第29
合物
临
应予
导演
杀人
犹太
粗@@
日程
称作
阳
航@@
流动性
十四
原籍国
罢工
14.@@
移
不变
婚礼
公然
位@@
住宿
证@@
请@@
弄@@
欧元区
不确定性
填写
学年
耳
出身
唱片
169
生气
判刑
原有
1972年
严肃
局部
情节
特朗普
房舍
201
son
布雷顿
13.@@
早些
鬼
拿出
生产者
里程碑
马尔@@
壁
下属
没@@
第6@@
脸上
核不扩散
决不
裁减
毒性
1540
贴@@
偷运
居@@
狂@@
供给
决@@
跨@@
2.1
ep@@
第17
第39
视角
可爱
維@@
心情
短暂
50@@
匹
往来
141
之类
样品
本法
牙@@
1971年
第六十一
职@@
脚@@
孔@@
艰苦
柏林
终身
考
布朗
面包
睡眠
法郎
暴行
第28
裁撤
降@@
加蓬
董事
与@@
生命权
折@@
ing@@
弱点
1980年代
國@@
饮料
订单
第五十五
A/54/@@
直布罗陀
自信
泛@@
紧缩
亮
品@@
操纵
固体
积@@
偷@@
随之
133
公主
几@@
ir
种群
ub@@
置
隐@@
问@@
景
协调人
王子
充@@
擦@@
桌子
外界
1976年
圣诞
密集
暴@@
规格
刑警
伊斯坦布尔
灭
非统
肌肉
餐
20世纪
富
他@@
有毒
十三
移植
征
或在
新鲜
ey
ina
惠@@
冷战
拥挤
131
静@@
全额
总局
差@@
自主权
拖欠
粒
遵约
按时
ik@@
Y
玛丽
生产性
平行
列于
小册子
心中
个性
丹
洋@@
惊人
官长
1977年
iz@@
教材
月球
玩具
农
忍受
派驻
增效
粒子
严@@
急性
疗效
激发
兑现
此项
茨@@
玩@@
高达
或@@
民政
播出
托克劳
否定
查看
J
疯狂
在职
执照
材
议
话@@
A/68/@@
体内
民法
预审
绿
多元化
ez
初等
强劲
隔@@
ST@@
条@@
平方公里
隔
揭示
未决
第50
货运
数百
枪@@
雇佣
安全性
A/53/@@
免于
模@@
硕士
统计司
隧道
压缩
西藏
道理
最早
糖尿病
1973年
分成
呼@@
少量
才能
1％
灾
互助
时尚
传染性
扬
密
拘禁
］
交易所
数百万
雷达
谈谈
乌
宣告
烧
1994
ass@@
回去
算@@
对照
139
省级
富裕
野
ani
上班
136
密码
限额
备@@
有着
治@@
价@@
镇压
残@@
股市
斡旋
熟练
相称
外包
种@@
随机
雪
蛋白质
射击
群@@
沙漠
豪@@
2004-2005年
剂量
深远
著作
泥@@
1.2
厨房
队员
受教育
度@@
依赖于
准@@
1961年
保养
强行
突@@
综述
第25
参见
差旅
勇敢
征得
扭曲
陆@@
脂肪
恐怕
铜
佳@@
东方
忧虑
汲取
深化
先后
第19
og@@
6.
讲座
交谈
佐@@
备
致力
长大
［
深深
十六
纯粹
厄
升@@
麻醉品
凡@@
速@@
新生
以免
劳动法
35@@
停留
锁
Bar@@
东北
第21
展@@
第五十六
注入
联苏
自卫
ow@@
15.@@
资@@
观@@
鼠
共和党
创意
毫无
补
热线
宝
公顷
农药
平方米
十八
神秘
序列
兴奋
获准
人质
制成
$@@
服@@
第二十一
策划
不受
付@@
演@@
妹妹
毒@@
ch
评
均@@
简短
联网
一揽子
应于
亚的斯亚贝巴
肇事者
落后
岩石
座位
使该
142
市区
硬
营@@
扫描
茶@@
1.1
开心
im
及@@
泡沫
阿曼
良心
一向
薄@@
表述
巴布亚
137
支票
智力
盒
从不
免除
前者
受益者
浓缩
牛奶
技术性
100%
影像
第五十三
锡@@
认@@
决赛
习惯法
想起
欢@@
182
采集
基线
执政
机密
跨部门
便利化
屏幕
待@@
舒适
自由权
火器
婚
巴士
录音
羊
答应
开车
传染
叙
往@@
第五十四
ant@@
www.@@
限制性
纽@@
吴@@
处长
投标
ell@@
分项
征税
饭店
2％
门户
牧师
凭
毒素
本次
34@@
差不多
固有
夫·@@
Ad@@
作证
主角
南南
编入
芝加哥
3亿
民航
接口
检查站
余留
胁迫
由@@
慢性
血管
审核
检察
减灾
第2@@
高校
居留
历史性
马克
all@@
骑
多年来
私有化
顶@@
文档
获@@
人选
排列
矿@@
家务
名词
片@@
行李
起飞
走上
加倍
戏剧
裁判
48@@
沙特
瓦尔
ist@@
漫@@
轰炸
名誉
1970年
彼得
景@@
盈余
科研
露
iv@@
海域
传说
性地
走廊
区@@
见面
外籍
明星
吃饭
A/C.5/5@@
岩@@
毁坏
Add.@@
变形
并入
全新
ip@@
.2
特许
40@@
Add.2
阿布哈兹
也就是说
良@@
战术
深表
优@@
官@@
哥
类似于
春@@
演
1969年
邮@@
搜查
芬@@
国立
圣经
流域
非盟
发展部
哭
哥哥
不同于
上限
休
有组织
约会
食用
奉
存放
鹿特丹
营运
赢
力学
数十
调查表
8.
容@@
曲@@
激动
数千
走进
房@@
收获
考验
Ab@@
斯基
洛杉矶
付诸
篮球
防护
出庭
痛@@
火灾
60@@
毁灭
近来
类@@
低收入
通胀
喜爱
Sp@@
咱们
描绘
谱
新生儿
法制
饭
发电机
做@@
失
朗
露@@
城堡
Su@@
日历
9-@@
境
占@@
上去
误解
S/@@
声援
煤
把握
145
捕鱼
余@@
成千上万
干净
插@@
涅@@
7％
多巴哥
实况
审视
高效率
使之
伦理
精度
财力
赋权
显而易见
望远镜
附表
拿到
百姓
缘
舰
甚
政治家
系统性
过多
提示
无罪
定量
受损
1951年
143
国务
昂@@
多元
破坏性
负@@
第六十二
2002-2003
容量
裂
扶贫
示@@
线性
摩加迪沙
缺
封闭
寺
定稿
199@@
树木
专注
纳粹
反叛
汽油
十九
2.2
租
草拟
性健康
激@@
碳@@
Sch@@
ian
柏@@
144
AT@@
互@@
奥尔@@
不利于
青
漫长
头脑
港@@
范例
坑
Con@@
定居者
葛@@
剑
锦标赛
Sa@@
梁
烧@@
斜@@
鸡
步伐
通往
可怜
搬迁
外科
素@@
征@@
兵力
针
贯穿
乔
民主化
生理
老鼠
比尔
软@@
不能
中午
持@@
0-@@
疼痛
出入
152
罪名
转到
俄国
个@@
竞争性
条目
波黑
长久
发票
盛@@
1:@@
3％
乙
特立尼达
灰
's
ach@@
增大
微软
基石
彩@@
收支
157
参议员
不得@@
间@@
EC
电流
研究生
情景
9.
窗
文盲
施
汇
灌溉
闭幕
5万
业主
相辅相成
金伯利
响
波恩
湿
因子
总之
都市
结核病
竞争法
1000
利亚
应力
索取
善@@
稳步
管理员
念
推定
贝尔
被害人
逃避
服从
标识
自豪
湖@@
刑
我方
助
舞@@
久@@
劫持
左
赤@@
西北
保罗
170
周转
子弹
邻居
似的
新闻稿
巴哈马
诉@@
156
婚@@
南北
手工
教室
Sal@@
贫民窟
估值
摩纳哥
告@@
并与
树立
真理
预备
146
井@@
诗@@
pl@@
崇高
动词
输@@
无须
刺
就要
现况
瘤
um
迹
锡
01
噢
拒
合金
转型期
4亿
州@@
表中
领先
前途
北非
私立
AS@@
创造性
菌@@
38@@
Le@@
克拉@@
兴
原文
提问
浅@@
雄@@
无意
147
中欧
恶性
杂项
故@@
创收
1960年
略@@
颇
鲍@@
剪@@
符
19.@@
拍卖
将@@
消耗性
牙齿
大胆
肯@@
窗户
冈比亚
饼
世界杯
教区
财@@
拜
汤
拨
款@@
氧
ent
为本
效能
淡水
写@@
晶@@
女工
CEDAW/C/@@
印尼
始于
无限
鼻@@
常务
振动
码头
结成
宣读
导向
尔德
5,@@
151
中介
打死
废水
性行为
战士
医药
兵役
骄傲
更高
不论是
减至
坚实
节余
300万
大麻
汇@@
饮水
通知书
横向
附有
围
孙@@
载入
起着
各种
健康权
光学
偶尔
皇帝
固@@
特派
参阅
猎@@
莎
懂得
納@@
教徒
场景
暂定
所罗门
列明
简易
莱索托
嫌疑人
毕竟
长达
垄断
16.@@
味道
钥匙
uk@@
欺骗
残酷
相处
舞蹈
选票
滴
典礼
伤@@
合办
重计
春
动脉
形容
栋
参与性
天使
挂@@
沮丧
166
Be@@
令人满意
进出
拉斯
扣
戏
门口
宁@@
154
冬天
El@@
大门
少于
演习
定价
潘@@
汇集
缺口
核对
酒吧
陪同
1945年
$
注销
工作@@
日志
估价
渔@@
下滑
狼
姐妹
词语
不知道
149
辞
穿@@
2005/@@
UNEP
胸@@
18.@@
关岛
漫画
概括
测
魅力
卡尔@@
致函
论@@
兵@@
黄色
列报
幻想
独自
DNA
仲裁庭
无障碍
温暖
特有
第二十二
分解
嗯
放置
结盟
除此之外
弟弟
误@@
选区
酒精
预报
est@@
指望
大地
艰巨
三角
喜@@
挺
温和
舆论
ry
口粮
糟
约定
时常
海峡
该系统
休假
夜间
摄影
时光
餐馆
如有
筒
词@@
你@@
弗
尖@@
期刊
属@@
函
帮忙
流感
集装箱
148
步枪
激进
la
Kar@@
火星
所附
页面
汁
应计
v
盛
春天
..
其所
同盟
祖国
46@@
IT@@
志愿者
目睹
登记处
桩
隐私
终@@
分工
掩盖
令人
员们
所犯
德语
4％
装甲
斗
A/56/@@
就职
生物学
∶
学到
长远
冲
刊登
第二十五
深为
众@@
睡@@
党@@
扩充
信用证
筛选
铲除
二十@@
领事
糖@@
走出
写信
〉
时至
实习
奖金
举例
控告
诞生
误差
158
出资
162
处@@
还为
会前
成立于
住院
否决
怪
文物
英寸
严重性
应收
检索
陈规
湿@@
版权
生育率
艇
事务局
带领
即时
弹道
铜@@
寻@@
总裁
使其
星期六
红十字会
伪造
键
ill@@
仅有
务@@
服役
淡@@
姓
副总统
型@@
完工
称之为
合理化
贵@@
宗@@
深感
独联体
甲基溴
舱
会面
侵蚀
限定
公营
本土
规@@
李
ER@@
核查团
渐渐
光谱
净@@
邦@@
图形
垂@@
某人
议@@
附
绝望
管理厅
1948年
女王
亲爱的
流产
道歉
代表们
部长们
名叫
履约
推
沿岸
复审
ann@@
住户
星系
较好
Bl@@
圣诞节
姐姐
工作日
业界
半数
只不过
苯醚
清真寺
学士
一并
勃@@
ana
受援国
开枪
评级
总的来说
汗
社@@
检讨
从业
仙@@
拓展
获释
佛教
杀@@
转达
廉价
侧@@
机理
不幸的是
17.@@
退
附上
〈
启@@
印度洋
永久性
越@@
Di@@
统@@
怀@@
役
第26
多万
牲畜
第六十三
就读
事例
十七
经常性
A.
无可@@
延
产值
土族
育@@
大声
等到
sp@@
针@@
废@@
评@@
为例
读@@
氧化
犬
强加
麦克@@
届满
小小
开关
携手
古典
预料
极度
161
开启
诗人
总计
帽子
un
呆
55@@
逃@@
对妇
总体上
新闻界
Al
部位
集成
持续不断
美军
é
公用
托管
升高
正好
201@@
3.1
上网
节点
蘭@@
累@@
盘@@
37@@
保护@@
保育
撤消
水泥
眼前
报价
消防
大道
联大
命@@
订购
乃至
佛得角
遗@@
阳@@
1990
巧克力
赶@@
单词
零件
监护人
干燥
20万
宽@@
在家
起初
谘询
铺@@
委任
臭氧层
ong
起点
胶
错@@
前来
单身
第52
绝不
马丁
冠
使团
录像
熊
氢@@
大气层
仁
先例
2014-2015
第六十五
诸@@
56@@
差额
第五十二
赴
Kh@@
IC@@
营造
哺乳
垂直
季@@
MA@@
层@@
防卫
竟
课堂
警
192
洪@@
荷@@
-1
出任
尼亚@@
枝
轻易
型号
拍@@
侵入
手指
碎
伏@@
恶
压迫
已婚
程式
用的
南美洲
审慎
使我
我的@@
折磨
薩@@
洲
仆人
7亿
噪音
模
海运
设@@
受过
挂
送给
Br@@
热点
159
攻@@
师@@
ate
称@@
开来
饰演
汽@@
商会
Pro@@
南极
卡拉@@
帝
宾@@
汉语
铝
A/C.5/6@@
余地
前体
审前
零售
贪污
Har@@
日趋
住@@
残
制度化
微生物
罪@@
购@@
联络点
说出
租@@
译
高峰
威尔士
税率
起源
急需
系@@
脱
贵族
杰
165
地板
退休金
缩减
设计师
啤酒
产前
变性
正是
绘制
功@@
显@@
监护
事后
日后
ter
败@@
转运
调用
刊
悲惨
学生们
In@@
四分之一
管理处
ang
北极
帽
访谈
康
椅子
累计
仿佛
放射
许@@
悲伤
买@@
通行
奴隶制
原告
址
邪恶
接管
改良
看着
遥远
镇@@
是@@
越境
不公平
矩阵
液@@
失效
采
不容忍
转为
城乡
储备金
拔@@
机动
生殖器
演奏
那位
阻挠
已知
激素
玉米
ell
参赛
多久
扣@@
员@@
斑@@
优先权
冠@@
惩戒
到位
访
狄@@
上校
署@@
着重于
肠
1968年
奉行
束
舍@@
不等
碱
安静
浸@@
今
局限于
原油
右
Gu@@
威廉
也可能
诺贝尔
妮
皇@@
免@@
档
耳朵
订@@
川
愚蠢
180@@
拟@@
奎@@
煤@@
8％
以致
行列
ow
国情
巴勒斯坦国
透@@
John
震@@
储@@
多方
度假
渗透
10亿
---
何种
涂@@
抛弃
尼·@@
A/52
审@@
斑
顺
ash@@
杜
汇总
39@@
来讲
亲密
租用
贝鲁特
175
创办
多于
景观
倾@@
海水
賽
颗粒
一度
功率
ey@@
一百
绘画
贿赂
怀
议案
娜·@@
日报
老龄化
浪漫
8亿
一生
泽
管制署
斯塔@@
榜
缺@@
利亚@@
增值
调解人
帮我
礼@@
克林顿
图表
读书
截@@
适@@
阿拉@@
0%
电压
磅
预算外
多方面
歌@@
信用卡
索引
播
屋子
进化
容许
ess@@
学业
完@@
男童
魔法
碰撞
程序性
管理人
白宫
届时
科摩罗
过境点
偿付
用在
转入
菜@@
贬值
废料
跟着
飘@@
购
承办
积压
长时间
目光
腔
50万
奖项
谢
罗姆
梦@@
计数
讯息
乘@@
交存
剧院
朋友们
寻常
赖
随意
安盟
饰
相关者
评审
语法
/2@@
号@@
榜样
第五十一
割
漏@@
其为
务实
不动产
广义
164
阀
纳米
豆@@
从此
急
殖民主义
189
答
阶
宪政
舰队
49@@
医@@
焦@@
20.@@
亦@@
叫@@
高昂
广为
终端
间隔
搜寻
167
185@@
玉@@
韩@@
来临
ph@@
高地
战场
缓和
阿拉伯人
尖
第六十四
低下
死去
利斯
羊@@
ot
祈祷
168
广阔
期@@
好了
造林
for
迁徙
75%
人文
會
.org
中型
吕@@
白人
ex@@
准确性
多样
聘请
葡萄酒
领地
卓越
违规
薪
163
扣除
管理者
%
１@@
原谅
应是
缺席
臂
东非
LA@@
耐心
刻@@
调查员
双语
变换
神话
自治区
大陆架
有意义
稳
试着
克隆
槽
癌
可为
達@@
島
划定
选择性
人家
P-@@
贵国
DVD
甜@@
re
录@@
萨赫勒
虚假
偏离
感染者
海滩
演化
莎@@
下落
ur
碰到
ro
妮@@
智@@
振@@
190
ind@@
团聚
仅@@
众人
牌照
调度
阻@@
轻微
阿卜耶伊
第五十
#
拼@@
珠@@
下达
3.2
恰@@
列有
诸
五十@@
对称
电气
警报
消费量
述
单纯
第纳尔
法医
喜
尺度
罕见
吊@@
鸿沟
签
乘坐
人造
搜集
纷纷
家乡
ug@@
克里@@
破裂
图书
泰勒
橡胶
体积
呆在
第57/@@
ou
争
7,@@
生病
精
途中
听起来
警惕
思路
撞@@
申@@
像@@
生产商
乡@@
昨晚
算是
缩@@
183
2.3
锁@@
被告人
45@@
发展局
空调
侮辱
在与
索偿
潜@@
穿越
铅
翻
琳
口语
学费
捐助方
晚@@
追查
给我
培育
AN@@
顿@@
祖
薪水
特拉@@
棉@@
猜
英国人
新年
六月
讯
政变
母语
合资
完毕
鸡@@
一般来说
刑@@
PC
基本法
政体
多达
申请书
际
口径
山脉
力图
RE@@
官处
°
奧
忠诚
高质量
沃
北欧
诚意
研究员
争@@
育儿
ard@@
芬
总署
填@@
楼@@
氮
一律
余下
30万
马克思
济@@
纯@@
血统
da
卡尔
有益的
逾
包围
夜晚
然@@
语音
率领
上半年
哈马斯
联络处
炸药
秀
另@@
逊
手里
表决权
普京
吻
第二十七
不了
废
I/@@
床上
户主
职司
赖@@
逆转
播@@
头上
效
教科书
综管
现今
股权
商标
德拉@@
身为
S.@@
Ag@@
礼貌
获胜
沟
克莱@@
男生
1963年
占用
让@@
减弱
周一
战斗机
割@@
奥·@@
妈
西南
派别
闭门
肺
Qu@@
抓
炮弹
结算
SP@@
画面
航运
3/L.@@
五月
Cl@@
恋
ter@@
博客
En@@
Q
交货
受益于
并行
想想
喂养
容纳
单曲
关节
英译
折扣
衍生
相连
薪资
1966年
湿地
入口
加热
子孙
增添
出示
节能
P.@@
审批
爆@@
1:00
同性
囊
届会
躺在
例句
偏
儿@@
办事
塑造
173
现存
京@@
172
新建
251
屋顶
向上
误
乙@@
上来
是非
潜能
爱国
落在
声誉
珠
瓜@@
腹@@
天堂
精神病
心理学
益@@
取缔
漏洞
便是
借贷
齿@@
地形
放缓
标的
三维
乔治·@@
流失
图案
乔治
链@@
亞
旋@@
禁毒
196@@
iy@@
伯爵
第34
矿产
压制
ai
紫@@
陪伴
2.5
肤色
共处
郑@@
丢失
保护法
和为
手枪
访问团
事务所
L.1
uc@@
浆
爱好
并为
格局
发生率
外观
模仿
第六十六
怪@@
固
效用
澳
炮@@
电邮
只好
1958年
精心
布鲁@@
悬@@
滑
默
e-@@
临@@
兽
自然人
四月
喀布尔
母乳
中为
恩·@@
座@@
──
国旗
焦虑
射线
武
扩@@
那边
四周
错过
可供
ara
偶然
关键性
174
天文台
姿态
·拉@@
社群
罐
_@@
II@@
信徒
禁毒署
星球
收藏
水源
Pl@@
帐
年初
不对
堆@@
并由
答辩
敌方
伯利兹
多媒体
學
州长
2003/@@
80@@
Mr.
A/5@@
猛@@
又@@
吃惊
所知
350
担负
开辟
摆在
改编
泡
不公正
纪
跳舞
59@@
6％
厄@@
脂
稍后
6,@@
斯托@@
祝福
公爵
斯坦
物业
做了
外表
休闲
盐@@
德尔
检察院
死者
人心
收录
案子
氧化@@
琴@@
闻名
总会
四十@@
专属
及早
1964年
最少
较少
抱
精算
191
性取向
敏感性
贝克
贝尔格莱德
闪@@
丰@@
反抗
苏里南
午餐
名人
增列
外资
未能
人称
电源
2000-2001
内存
健@@
催化剂
应邀
基督徒
授@@
裂@@
靠@@
族人
幼@@
船长
牢固
并发症
1970年代
交战
侦察机
厘米
谋
互联
控制权
结核
两方面
母婴
还将
暗杀
玫瑰
理工
中共
会计师
墨@@
心脏病
资发
齿
难度
援助团
副部长
氢
氧@@
保管
差旅费
贴
171
物理学
纵@@
1946年
帕
廷@@
监察组
下半年
等候
网球
二战
不安全
油价
增
抽样
点击
阴谋
低估
累
退役
历来
熟
承运人
ef@@
今@@
检@@
Bo@@
竞@@
衷心
187@@
某种
写道
译@@
6亿
柔@@
介绍性
冷却
禁毒办
部族
非线性
稍@@
发售
尿@@
夹@@
捷@@
童年
北美洲
戒@@
揭露
编程
为使
毁
奋斗
儿基
浓@@
唱@@
巡回
法例
瓜
第35
膨胀
捕@@
灾难性
19世纪
坡
挫折
185
滚@@
方应
催化
噪声
见证
灰色
大湖区
Par@@
学历
狗@@
盆地
联索
争夺
逾期
ran@@
征服
管理部
冒@@
四十
多种
规范性
㈤
附注
大会堂
晚餐
议长
头部
泵
直径
ary
氏@@
第六十七
研究者
178
审案
宿舍
177
不时
优
应收款
洛克
~
出版社
所设
秋@@
短语
节奏
1.5
得益于
驻科
休会
国际性
大为
界@@
疑@@
繁殖
203
占领军
荣
变暖
寡妇
新设
永
钢铁
大厅
夸@@
察
匮乏
图瓦卢
47@@
什麽
桥@@
按钮
181
OS
谷歌
织@@
ati@@
优良
互
第四十九
策
翻修
阴影
岛上
钢琴
单个
地说
以求
带头
广州
诗歌
跨境
186@@
击中
中方
赚
协@@
氯
起码
餐@@
多·@@
兑换
纽约市
蛋糕
1325
中毒
所指
狂
0/@@
医师
以至于
外交官
氯化
贝尔@@
更多地
献@@
专项
小麦
电器
笑@@
1.3
听证会
不足以
电视剧
速率
中旬
宫@@
放到
时报
氛围
胃@@
换句话说
被动
分数
刚@@
止@@
胺
ta
真空
，@@
亨利
商业性
IM@@
偶@@
反对党
机车
镜头
艺@@
午@@
/C@@
瓦努阿图
雾
Z
萊@@
负荷
总监
币
搬到
孤@@
热爱
竟然
频@@
船上
定向
高温
4.1
元件
敌军
2002-2003年
anc@@
尼斯
恨
领导层
侵@@
联格
反射
装运
仍未
街@@
泡@@
越过
安保部
幼儿园
喀土穆
Tr@@
多余
每当
覆盖面
过后
年纪
拉丁
假日
醇
承包者
逆@@
P/@@
听众
209
申请者
高出
怒
望@@
陶@@
会在
登上
现已
有望
一月
执@@
西班牙文
从一开始
谋@@
重型
ric@@
举动
光明
抛@@
教员
谷@@
D-2
摩
ish@@
对面
186
1965年
年龄组
为人
恰恰
押
轮胎
1950年
不停
1962年
制服
导言
育
川@@
果断
A/6@@
骗
劳
兴奋剂
铺
碎@@
187
ID@@
精英
聖@@
交由
拉美
三十@@
奇迹
斗@@
昆@@
迈进
三月
另见
资本主义
释@@
鸟类
SE@@
干部
径
克制
鸦片
176
彭@@
奴
始@@
许
与否
存货
斯威士兰
九月
欢乐
终结
不确定
擅长
画家
积
过高
礼拜
交互
凭借
密封
ton
己
烤@@
q
und@@
宣誓
因果
疏@@
184
混
w
控诉
混合物
魏@@
局@@
庆
<
摆@@
坦
肝@@
钱@@
平稳
幻@@
接替
质的
均匀
课@@
静
坚@@
ek
捍卫者
胎
显现
郊区
庇护所
屈@@
连任
丘@@
断定
灯@@
极限
棵
增订
繁@@
鹿
奔@@
祝愿
ka
街上
逐@@
10.
欠款
22@@
400万
忠@@
也@@
科目
迦@@
研训所
206
留给
美联储
教廷
ari
线索
17.
23.@@
eh
分阶段
源@@
评定
明了
柜
宜@@
改建
格拉@@
反思
百分点
有效期
殿
混淆
王朝
不应
宠物
柳@@
降落
AM@@
随即
ie@@
控制器
跟随
勤@@
狭窄
深海
語
推测
联合体
Windows
兼@@
市政府
冷静
演说
ce
孤独
建模
挑战性
不适用
乐意
逢
喜剧
奉@@
依旧
速效
上课
埃尔@@
切合
物价
矿业
雄
级@@
行驶
控@@
机组
柴油
荣@@
鼻子
涉@@
善意
肥胖
厕所
含水层
医
诽谤
里·@@
还说
SO@@
冰川
来源于
PR@@
罗伯特·@@
借款
各界
用法
解读
酮
963-@@
底部
粮
洁净
肖@@
庄严
桃@@
渔船
one
保人
搬@@
树脂
流向
对立
签@@
肾
安慰
抽象
研究院
AL@@
得了
备用
ss@@
劲
归类
尚@@
抵触
扇
our@@
法学院
欧共体
例行
10:00
函件
哀@@
考绩
覆盖率
帮你
书写
70@@
序
队长
202
琼斯
188
205
疲劳
服用
甚@@
称呼
表情
毫无疑问
F-@@
Un@@
可见
崛起
量子
音乐会
划
功
注视
秀@@
A节
刊物
还在
销@@
2019年
阿鲁沙
鼓掌
利于
奉献
听着
金牌
泉
enn@@
不管是
规
剧@@
194
闭@@
祝
答@@
续@@
飞行员
Dec.@@
S/2000/@@
摄@@
搭@@
撞击
4.2
候补
充实
寒@@
报告期
暗
合法化
穷
清偿
识字
棉花
金沙萨
动力学
挑衅
挤@@
经营者
179
意在
拉加
气旋
父@@
去除
可卡因
继@@
拘留所
注明
伯特
昆虫
迟到
199
业余
手法
料@@
认
oh@@
开头
查验
或将
洞@@
一百@@
剧本
捕获
水质
好象
邓@@
不太
分部
券
伴
冬@@
伊丽莎白
论证
煤炭
CD
穿上
谈@@
12.
何处
displaystyle
周五
行为人
ya
比重
互补
焊接
福特
毕@@
浪
热量
乐趣
某@@
较低
厚@@
否决权
90年代
运费
40万
恶意
詹姆斯
一时
回避
起因
扫雷
挽救
根深蒂固
组织法
麦
送往
唐
坐标
198@@
谨向
输送
之友
带给
怎么办
推销
寒冷
选举法
梁@@
IV
察@@
未成年
44@@
教导
据以
案@@
漏
陷
舒服
里亚
估
Mu@@
伤残
公正性
闲@@
21.@@
丧@@
不止
售
喊
纹
208
偷
角落
调和
宣@@
当务之急
晚些时候
村民
腐蚀
扫@@
脉冲
阿拉木图
被控
amb@@
大街
静止
193
原型
明文
相等
祖先
oy@@
公海
坦率
票@@
贫@@
道义
2014-2015年
机票
珀@@
International
伪@@
夹
动乱
开火
出租
刀@@
58@@
收缩
狮子
米兰
零部件
ma
研@@
扩建
第六十八
ge
亮@@
可取
盈利
示威者
专业化
选用
那天
透
把@@
电缆
白天
迎@@
CH@@
Mor@@
国土
巨额
火焰
RA@@
启发
户@@
水道
翻新
19.
+@@
207
圣卢西亚
宾
无形
遗弃
执行官
讽刺
面谈
减小
包裹
妊娠
无家可归
押@@
停战
迷
鹰
DE@@
10号
1954年
所有者
烦恼
em
气温
罪恶
七月
上映
律
渥太华
穆罕默德
集群
所称
竭尽全力
蘭
除名
一次性
卫
可使
se
威尔
教派
02
丙@@
荡
棘手
约翰@@
专
虎
B.@@
多边主义
退还
无限期
巴拉@@
沉积
祭
介质
略有
腰@@
ion
维尔京
直至
As@@
大鼠
德意志
此刻
2.4
凡是
阿布@@
大自然
塞舌尔
学前
忍@@
人性
负责者
登记@@
诚信
ong@@
弗里@@
迟于
有名
服务@@
第三十一
57@@
Add.3
受灾
船员
05
宿@@
行走
解体
跟进
光盘
发布会
文莱
败
Fl@@
aj@@
打印
遗址
ion@@
从其
机能
布里@@
弯@@
虎@@
中产
鲜@@
ak
喂
探
防空
100@@
文凭
遇见
冻@@
凶@@
不平衡
当初
胜@@
220
3.3
伸出
桌
付给
报名
减排
欲望
调拨
并就
本项
活着
68@@
搞@@
精彩
萨拉@@
还没
暂
赔偿金
光线
抵御
奈
激情
还没有
巡@@
联署
摇@@
CE@@
在前
版@@
are
十月
当日
言语
永恒
照明
驻扎
CC@@
县@@
反驳
早婚
遇
盗@@
值@@
席@@
资深
204
CR@@
出缺
烈@@
爬
院@@
198
敬@@
历@@
预订
公元
责
轻轻
商用
西洋
进修
兴起
眼镜
结局
审定
斯顿
推断
视作
还对
驻@@
口袋
汤@@
运河
注@@
S/1999
下届
登陆
替代性
加密
外围
注定
装有
彼@@
9％
基础上
电机
配套
黛@@
15.
中性
鬼@@
幢
排序
服刑
爱德华
蒸汽
不合理
地产
Mon@@
不一
市中心
pro@@
幽默
仍旧
偿
办公厅
纵向
芯片
3:00
概率
蜂@@
失衡
海洛因
袭
195
来信
字符
归属
早餐
明亮
华尔街
^
合计
雅典
步兵
第30
俄@@
240
合乎
降到
有序
缺失
臣
苯@@
给@@
伸@@
军团
CP.@@
上下
其第
填
触发
岛@@
徒
格里@@
CRC/C/@@
旁@@
价值链
搭配
腰
领导者
六十
微观
出国
悬挂
第四十
维奇
一共
备件
让步
销量
黎
反洗钱
蒙受
停滞
输
流体
倾听
安道尔
归纳
总经理
硬币
鸟@@
前南
废止
Ba@@
代办
牛津
竹@@
觉
承包
牵@@
童
卡拉巴赫
12%
使馆
关怀
抢@@
详述
磷
逃
摩西
胃
视野
你方
徐@@
悠久
第九@@
劳资
原材料
坛
龄
疡
造福
2006/@@
600万
所用
欣@@
俄语
找@@
签约
本节
反过来
管理制
雨水
抵销
第59/2@@
过境国
Mc@@
制剂
巴厘
ES@@
封信
成员们
技
游说
197
自称
鼓
如上所述
拆@@
清醒
萨尔@@
GC.@@
纺织品
1956年
科学家们
184@@
处分
牵涉
钙
典@@
钟@@
奶@@
第37
253
宽带
辍学
远景
凝@@
派往
阿克拉
1,000
ale
们@@
巴尔干
德黑兰
敬意
谋生
东北部
坚强
大马士革
成像
昨日
珊瑚礁
磁场
不然
九龙
年中
新喀里多尼亚
法学
浅
电讯
开创
胸
ew@@
se@@
公会
门槛
Ali
面的
旗帜
长者
以内
弥@@
推移
切断
划为
处理器
折
溶液
凸@@
升值
园@@
阿比让
巡逻队
星期日
更快
队@@
定制
推理
旅@@
空袭
野蛮
或非
鸡蛋
日渐
泄漏
教养
主观
判例法
吞@@
照射
商讨
水分
胎儿
ure
全职
崇拜
据@@
曰
宁愿
平原
术后
tion
狼@@
视听
贵方
屋@@
通货膨胀率
掌
缩编
辞@@
楚@@
产地
步行
百慕大
喝@@
就任
帮@@
塔尔
更具
第四十八
纳税人
骑士
ity
盟友
2/2@@
供电
For@@
仓
可观
村@@
醒来
世上
大海
伯格
犯罪者
性暴力
瑟
196
付费
胜任
所在国
法则
静脉
布局
避难
ast@@
创新性
场@@
汤加
〕
东南欧
控制@@
无知
铺平
随便
內@@
第65/@@
行人
过滤
30年
滴@@
验@@
上级
卫生@@
投降
放大
此处
祖父
说到
丝毫
A/CN.9/@@
内涵
逗留
相机
孙
研究@@
东南
账
1957年
尺
水中
牢房
每日
侦察
外聘
彩色
极少
运动@@
吻合
抓@@
首领
A/C.3/5@@
无国籍
必定
96@@
书中
删去
覆@@
ica
非暴力
肌@@
轴@@
悬而未决
珍贵
貝@@
鲜明
散布
再见
反应堆
杀戮
仲裁员
陈
撤@@
喀@@
砍伐
总协定
家们
格雷
車站
陷于
P.
扶@@
旅程
赦免
万亿
〔
自由@@
航天局
Is@@
全境
邻@@
上方
東@@
楼宇
琴
per@@
以使
小于
新任
互利
仿@@
消化
不人道
过剩
须@@
战时
重力
骑@@
引
更是
盆
饥荒
亚·@@
德里
账目
朵
熟@@
荣耀
IP@@
宪兵
巴尔@@
测验
裁@@
恒@@
1955年
函@@
搁置
在此之前
锌
时效
螺@@
特许权
顾@@
同伴
树林
环绕
Se@@
式@@
检疫
收缴
颈@@
@@@
Cor@@
批@@
第四十六
默认
政治化
益于
牌@@
判@@
间谍
倾斜
出差
50％
rac@@
用地
高压
逃跑
特种
联伊
存活
带走
摩擦
沃尔@@
出口国
奥斯陆
娜@@
辩称
衫
第61/2@@
11.
废弃
增补
敬
卓@@
练
伍德
惊奇
华人
国中
积分
问道
安全局
ens@@
滤@@
起义
报销
站点
布莱@@
跨国界
原住民
马克@@
君主
当是
求助
Em@@
保有
外出
嫁给
諾@@
险@@
8,@@
化为
孟@@
局限性
发光
既有
ne
扑@@
投资@@
ME@@
亚历山大
伤口
简
停车场
陶瓷
ort@@
几百
43@@
上将
引人注目
污@@
绕
踢
om
安全网
税款
转而
初中
统
人际
国营
财产权
部份
碰@@
葬
周三
境地
对人
浪@@
五年
Ac@@
沿线
灌@@
内务部
君
抽
经受
天文
指向
ik
洋
为数
旗下
潜艇
等着
联东
吩咐
全身
战后
查找
熔@@
第八@@
威廉·@@
德里@@
空前
宝石
律@@
鄉
银行业
刑期
35%
A/CONF.@@
但@@
吹
计入
第7@@
赞@@
轻型
E/CN.4/200@@
春季
粗
脂@@
夺取
宽松
抵
经济区
CS@@
绳
10％
ley
乐器
陪
查理
手臂
散步
iss@@
科学院
宋@@
00万
ber@@
业者
寄
韦
iyah
制图
第三十
聘
1947年
He@@
勋章
遥@@
犯罪人
缩写
才@@
样@@
识
菜单
气味
福音
天才
拖
con@@
例@@
哈利
珍@@
eng@@
下雨
备灾
确
360
周二
唱歌
国界
ers@@
冬
所得税
嘉宾
多项
13%
善于
弯曲
日前
标明
PA@@
月台
猜测
穆罕默德·@@
里约热内卢
剧烈
放下
共产主义
恰
赚取
陛下
Sam@@
9亿
拨@@
甜
150@@
安娜
新娘
温柔
这类
oo@@
为准
至迟
马拉
平时
应变
早先
星期天
菲尔德
20.
郎
前线
安提瓜
拜访
油田
印制
妇@@
分析师
友@@
学的
燃@@
制定者
安第斯
查尔斯
耕地
公吨
可向
对着
诱惑
鞋@@
一般而言
ee
he@@
其间
不可分割
私有
耐
豆
26.@@
Per@@
骨折
专职
走过
水面
砂
丑
概@@
24.@@
扰乱
周日
宣扬
平均数
归咎于
得很
次要
酯
all
过失
公安
体检
无权
衬衫
票据
za
吐@@
掉@@
欲@@
待命
微波
era
打造
经纪人
弟
钻@@
厌恶
清算
调控
运输@@
好多
等人
22.@@
255
At@@
唯@@
连贯性
ore
不可避免
来的
潮流
瞬间
CT
体会
离去
第55/@@
致意
势@@
缝
IP
腾@@
英联邦
R.@@
意向
记入
路易
举证
5.1
2:@@
开端
电梯
第三十三
瘫痪
老是
联席会议
风景
&@@
兼职
非核心
S/2006/@@
掠夺
眼光
开幕式
弯
技@@
沿@@
秋
边远
陪审团
伤心
稳固
伏
参看
打交道
斯克
笑话
爱上
牧@@
显
盗窃
海拔
车间
高加索
植
训@@
述@@
就算
谎言
age
产后
保险费
嘿
独裁
移民局
敏
祭司
尼克
鉴别
1959年
并经
惠及
动植物
高的
ata
忠实
总体而言
中乍
盛行
视力
5.2
乔治@@
反歧视
海报
不经
突发
劳工法
定理
ane
得分
题@@
210
责成
天赋
官僚
痕迹
马车
AP@@
cl@@
oll@@
逆转录
22.
th
信奉
咬
豪华
降解
ij@@
电动
关爱
本组
ich@@
查访
好莱坞
典
肥
尚待
Fre@@
候@@
方言
方可
格尔
植被
简历
胡
平安
中级
临近
务必
正常化
第36
哈佛
拥抱
苯
堂@@
人大
紧紧
Col@@
Me@@
学期
心态
旧金山
深受
致辞
1952年
á@@
也可以
大师
灵感
送回
55/@@
甲基
扫
摩托车
奶
第三十二
脚注
典范
未知
楼梯
开拓
习@@
局限
抵@@
国家级
转用
代表权
构@@
标本
磨
那就是
ić
摸@@
南太平洋
夺得
济
商界
传授
yn@@
末@@
宝贝
应受
勤
卫队
草地
伍@@
就业率
摇滚
晶体
魯@@
感冒
罩
驶@@
IR@@
开通
共和
防扩散
出口商
仁@@
皇后
第9@@
识字率
1万
ire
想像
几何
碗
A/51/@@
萧条
切尔诺贝利
圣马力诺
换言之
四处
陌生人
杀虫剂
260
C.
掌控
2011/@@
办@@
多学科
庭@@
装修
鼓@@
圆形
民意
254
INF
电网
行之有效
258
借调
外贸
威慑
重振
历年
二月
大都
汉堡
ht@@
农田
真主党
缩
95%
新近
深处
非经
有史以来
第32
先知
可将
拦截
贡@@
十二月
并以
建议书
马拉@@
art@@
影子
耗@@
阿拉伯文
候
创始人
架次
老化
著@@
上游
以防
因其
收容所
第8@@
没错
准予
利用率
叔叔
善良
探测器
E/CN.@@
一带
迈克尔
Pr@@
兑
屬
直线
份子
所占
CD/@@
停车
文化@@
猛烈
定律
微妙
微小
伴@@
壁@@
机枪
点钟
达喀尔
Ham@@
改名
Mat@@
有人
行政@@
仰@@
八月
向下
脾气
IC
厚度
翁
解析
轮流
CD@@
做为
烈
促
情事
海港
涌入
第四十一
8/L.@@
各方面
ice
球迷
252
不定
代表作
7/L.@@
信服
劝
预言
×
农发
电磁
听力
墙@@
水量
爱的
撤退
敏@@
man@@
即可
换取
斯塔
格林
秋天
为重
450
困惑
天线
硅
联发援
返
骂
S.
可望
困@@
移送
箱子
娶
子公司
提法
氟@@
财
14.
工作人员
棒球
荒@@
高风险
5/1
A/AC.@@
免税
口号
出血
M.@@
校友
腾
S/2002/@@
契@@
演示
警员
该法
布尔
来往
230
不一定
另行
學@@
溶剂
台北
第57
ue
创造力
晚期
稍微
股价
A/69/@@
台风
月亮
大赛
线上
英译汉
具@@
失误
拆
数字化
罗·@@
静态
撞
群组
na
产科
写入
情报局
第64/2@@
顽固
IT
ess
厂@@
戈尔
斯科@@
硅@@
辖区
20多
布置
损
行程
摩尔多瓦
根本性
溜@@
桑
波特
点儿
Bu@@
ID
物料
发音
圣地亚哥
研
试行
建筑师
承
第三十九
第二十八
纺织
好转
放心
物件
迪·@@
our
第58
缘故
若要
夏威夷
差价
合作@@
棒@@
欠@@
科技委
诱@@
赶上
第三十六
镜子
體
21.
亲爱
发掘
葡萄
助手
戏@@
遵行
66@@
亲戚
布宜诺斯艾利斯
安全区
暴
统治者
青春
准时
指的
己@@
战机
黎@@
难过
DA@@
令@@
底下
教育权
詹@@
利·@@
加利福尼亚州
账款
25.
抗击
指认
杨
烦@@
阳性
E.
做成
党员
感动
泥
辩@@
20％
4.3
劳务
所处
抱有
登录
兰德
动摇
尿
牢记
第二十九
腺
ii
争吵
发病
福克兰
辰
受众
纪念碑
代谢
令人@@
作好
1960年代
灭@@
国家队
平常
归因于
打败
灯光
在乎
垫
放宽
犹豫
螺旋
谷物
M.
求解
燃油
玉
议席
巧
黏@@
Man@@
展出
放入
秋季
避@@
带上
张贴
15-@@
信息@@
当成
濒危
部际
客运
示例
23.
墨
第61/@@
偶
第四十四
锦@@
号召
妇
激增
聊天
连结
享用
户外
～
养育
束缚
航线
12时
25.@@
出租车
庞@@
旗@@
竭力
家用
购买力
ial
翅膀
藉
800万
纸张
10-@@
稳@@
T-@@
格林纳达
移居
Ed@@
率先
确@@
实证
似@@
光纤
地毯
03
凝聚力
逃脱
遮@@
问责制
ment
年满
sk@@
庙
慢@@
之日起
太阳@@
董事长
巴布达
科长
规例
De@@
加盟
印第安人
归于
PS@@
Sha@@
打印机
抱@@
招
晚饭
趋于
跑道
IS
S/1998
培@@
尊@@
恐慌
亏损
净化
频
凯
政务
祷告
195@@
前期
原定
新界
独
大人
卵
同类
天文学家
迟
盒子
公国
约翰逊
落入
赞美
偶像
摆
艺术@@
砂@@
细胞@@
隶属于
雷斯
变的
大火
妻
露出
2004/@@
人事费
厂商
尤
存档
湖泊
熊@@
造型
比起
渣
4/L.@@
圈@@
萨里奥
为限
城里
奥斯@@
德军
全盘
商场
未必
车子
倒退
尘
尾巴
拿着
Ros@@
减损
师们
逼
幸@@
过渡期
退回
额度
1267
政客
不堪
传单
艾伦
超声
不加
本章
赐
天下
猪@@
鼠@@
公益
吸
挣扎
河畔
系指
27.
娃
织
遴选
陈旧
咬@@
居住地
醒
适于
Part
宝宝
尼科西亚
名声
时段
适度
制宪
幼
晋@@
辈
Ph@@
其下
未满
特里
亿@@
分化
断裂
窝
国贸
旱地
水文
第三十八
专科
马绍尔
Ber@@
调查局
工商业
扶养
护
政治犯
亨@@
操
执行@@
协
薪@@
Ram@@
ord@@
涨
飞往
偏低
共存
戈马
第四十七
遂
后于
卖给
及第
吓@@
岁月
朴@@
ies
大桥
流亡
配件
第38
鞋子
365
勾@@
德斯
核爆炸
9,@@
Min@@
征募
迈向
克什米尔
剩
雷区
牢
花钱
豁免权
倍@@
激活
随函附上
06
Pol@@
卧@@
生动
24.
迷人
期货
欧洲人
妇人
帕劳
Google
嘴@@
Or@@
年鉴
灵活的
隶属
amp@@
全都
即便是
吓
接入
搭
陆
凉
星星
狂热
1.4
不足之处
80年代
att@@
引述
歌唱
羽毛球
E.@@
i-@@
te
中世纪
手上
无情
259
喜悦
第56/@@
共有
勇@@
圣文森特
惨@@
逊@@
帐篷
工发组织
刮@@
得主
维斯
运往
界线
身材
丢
体育场
捕捉
波利
贪@@
嘛
探访
第61
控件
童@@
文中
礼品
227
ISO
互惠
养殖
常委会
眼泪
践踏
兼容
主机
富人
飞船
5/L.@@
斯坦@@
第三十四
纪@@
联苯
04
他国
坏@@
开庭
改正
魔
PDF
吸毒者
呆@@
洁@@
211
2万
85%
桌面
瞧
神奇
阵@@
高原
斯蒂@@
方对
远处
后备
草原
远见
S/2005/@@
波罗的海
结尾
//www.@@
2001-@@
将于
笔译
公元前
念@@
暖
视委
运气
滥@@
督察
ha
land
态势
模具
疾@@
闹@@
第六十九
缓冲区
轿车
乐于
对等
横
生产国
绝大部分
19号
在第
蒙特@@
困
识@@
录制
恐龙
派对
这项
逆
雀@@
出自
引爆
买到
会的
治愈
肯尼迪
克里
映射
申
醉
1944年
肌
保全
信赖
处方
开除
禽流感
跟@@
顶部
256
见于
Sc@@
利物浦
却@@
肥@@
冰箱
盾
诉求
苏维埃
加勒比海
国人
地缘
崔@@
弦
通风
一览表
优雅
情势
焚烧
700万
183@@
保险@@
景象
MISC.@@
分辨率
厉害
司令部
圣保罗
密克罗尼西亚
民选
PO@@
举止
发言权
枝@@
7/Add.@@
丑闻
适用性
细目
au
头衔
互补性
尔顿
结案
2003-@@
在此期间
英属
.com
用到
投机
骚乱
不愿意
伙
渡@@
用处
ba
塞尔
赶
铝@@
罂粟
留意
藤
Mal@@
红外
GS
呼声
适
国务卿
津
演唱
转动
磷@@
第58/@@
倘若
悲@@
挺@@
伊斯@@
做事
收款
果实
后悔
酗酒
不行
电报
讨@@
化管
限期
Ne@@
托·@@
未清
路口
NBA
列名
宴会
晚会
伽@@
报刊
捉@@
监核
蛋@@
sc@@
会使
外语
垫@@
开曼
避开
震
二○○@@
力争
挑@@
繁忙
钠
协力
对联
David
精灵
被判
周四
或由
扣留
67@@
咨询@@
强硬
流传
脉
卡·@@
开口
第63/2@@
维多利亚
功效
加利
迫@@
饲养
使用权
保罗·@@
前身
热门
Ra@@
习
烏@@
载体
遵从
Gre@@
哪@@
弃
美國
芒@@
随函
骨头
of@@
1953年
20亿
A-@@
S/200@@
ace
愈
昂
辉煌
里昂
1701
co
肝
理智
磁
话语
逃犯
点燃
肩
Jo@@
S/2004/@@
挖@@
a-@@
27.@@
危险性
妇女的
彗星
法学家
波士顿
浦@@
深圳
高潮
226
特里@@
雾@@
28.@@
ath@@
ical
始
瞄准
至多
S/2003/@@
自助
韩
179@@
传奇
吉姆
告诫
注释
饲料
Gr@@
杀伤性
液压
第四十二
Her@@
冲动
说的
ler
不列颠
本地区
率@@
有鉴于此
介意
敌意
毗邻
爬@@
辛
情人
构架
63@@
:30
斯堡
烷
第四十三
ung@@
以东
和睦
格陵兰
绞@@
领养
214
判决书
情愿
综合症
摸
赞成票
辍学率
前瞻性
域外
帐@@
补给
G-@@
单亲
巢
拉克
谓
旺@@
看守
30分
卢萨卡
叙@@
305
广东
调到
ty
柱@@
样式
第三十五
ada
前方
篇幅
配有
键盘
协理
崇@@
晓@@
疫情
辅@@
第63/@@
致死
表面上
同酬
外长
挥@@
条第
第四十五
严
人次
呈@@
极力
设于
德尔@@
腹
减去
姓氏
纲
上层
受访者
批准书
敲定
本科
全会
十多
卧室
南京
地狱
城区
普尔
酋长
①
庄
娅
害@@
工党
2000-@@
納
225
丛
串
房产
援@@
上任
专案
以在
农作物
科学界
酱
分区域
MS@@
整整
麽
奖@@
257
柄
沦为
9/L.@@
Co@@
gu@@
ex
·马@@
世人
牙科
祸害
235
危急
瑙鲁
18%
运算
参选
奏
第53
终生
蒸@@
蓝图
诺夫
跃@@
搜@@
杠杆
吉他
線
舞弊
谈及
海里
动物园
来源国
架@@
配方
切除
红新月会
GE@@
Mo@@
味@@
弱@@
所定
组织者
弥合
染@@
看成
水电
良
边防
NA@@
十几
择@@
颁奖
ama
天生
渡
第三十七
山谷
数个
格林纳丁斯
砖
继承人
主旨
抹@@
管理司
锅
往返
羽@@
蓄@@
馆@@
亚人
安·@@
徒@@
可惜
奶奶
掌@@
第67
争辩
超市
埋@@
筹款
打断
旱灾
疏散
一一
备份
羞辱
译成
合伙
委@@
核武库
由该
近代
隐私权
D-@@
标示
棚
不信任
刑事罪
尴尬
Ben@@
战俘
破产法
维亚
考生
16.
est
减肥
地表
杜绝
窄
送达
集结
拨给
更名
倫@@
000@@
ory
临时性
欧空局
壮@@
脑袋
ung
制药
检方
3.5
罗德
int
丰
加尔@@
数次
失业者
担当
着力
18.
Ay@@
变异
因数
批判
煮
盖茨
软弱
防守
oun@@
剑桥
副作用
启示
愚@@
残余
没事
疏忽
阻力
契
限@@
ol
均应
岭
最小
欣慰
介@@
发酵
选为
需@@
发誓
四川
流血
第53/@@
利马
提供商
2002/@@
体力
出具
诊
一天
磺酸
埃尔
眼中
途
国际化
描写
甲烷
省长
看似
硫
趟
69@@
劳力
妓女
拱@@
世俗
公署
不起
等同于
策@@
畅销
ick@@
哪怕
流浪
账@@
一点点
涂料
脖子
侯
再加上
斯托
缉获量
融
非凡
自营
周期性
盟军
迈克
时数
CL@@
副总理
来访
责@@
阿尔及尔
北朝鲜
南美
可比
轴承
里克
第64
魚
共用
不遗余力
建于
毫克
ost@@
ü@@
串@@
主计
巨人
演唱会
胚胎
艺
宽度
雇@@
喝酒
应从
斐@@
汗@@
葡萄牙语
裁研
魔鬼
带动
扭@@
日本人
者@@
IMF
催@@
碰
单据
合众
坚固
帝@@
能效
减低
致电
恶魔
方为
钉
驱
字体
幽@@
抽烟
艺术品
同胞
因应
抬头
750
居所
服务员
确定性
第62/@@
6:00
B-@@
叹
高频
电联
为首
前沿
本函
惟一
教育法
受让人
彼得·@@
树上
监
罗夫
赛车
1/L.@@
XX@@
不佳
化工
拐@@
极大地
独一无二
肉体
電影
可信度
圣地
马里@@
天上
导师
ance
心理学家
挖
柴@@
瘦@@
脸@@
150万
环球
负载
较高
一千
京
福德
高专办
世代
导则
林迪
肢
走了
走路
铃
驱@@
２@@
me
增幅
应能
棋
备受
纳德
论及
Ex@@
恋爱
珠宝
冒
哭@@
嘲笑
第59
11%
33.
中小学
匿名
作文
入选
前夕
如在
状@@
笔记本
严密
杰克逊
比如说
脑子
隐瞒
出场
论者
通向
酷@@
45%
sch@@
居然
患病
教育@@
17%
选举权
尊
第67/2@@
Michael
ence
延至
病情
缸
辖
6.2
出门
可予
州立
票房
蘇@@
俗
剧情
发性
周六
年龄段
重重
无所@@
第66
箭
而后
订阅
多年
猫@@
右翼
大体上
怒@@
适应性
隊
PV.@@
抗体
解答
14%
ma@@
pp@@
感知
拳
5,000
从没
器材
氮@@
证明书
假装
委派
盈@@
私下
遍布
鸣@@
耦合
颠覆
ier
卡塔赫纳
披@@
断言
赵@@
不及
兆@@
工具包
御@@
评为
哭泣
渐@@
阿布贾
性侵犯
抚@@
锋
欠缺
浏览器
返@@
停顿
护送
组装
自力更生
弃@@
烹饪
获利
过期
會@@
湾@@
爷爷
逍遥法外
阅
津@@
磨损
耕作
装配
方程式
某项
跌
使者
异性
气压
S/2001/@@
不在
悉尼
敲
＊
2000-2001年
偿@@
奥斯卡
枢纽
残留
蓬勃
倾倒
可可
陷阱
得起
珍惜
马尔维纳斯
实质上
ff@@
意为
程@@
陆上
ri
发作
大宗
普拉@@
高血压
正直
词典
超支
再一次
墓@@
网格
布雷@@
质素
遭@@
穷@@
歪曲
达鲁萨兰国
金枪鱼
企
克斯@@
会长
置信
投票权
查出
30％
导游
水下
ke
当你
生活费
罚金
溶@@
违@@
出发点
忽然
私法
裤
迈
反击
着陆
窗@@
复活
检控
Val@@
分手
北大西洋
溪
美味
30多
军营
舰@@
锁定
kh@@
外流
精密
@un.org
事关
株
滑雪
确凿
AP
老婆
齿轮
Abu
大卫·@@
佐证
寿@@
脉@@
蝴蝶
National
敦
环境法
终
巴赫
或以
撕@@
火车站
触犯
乳腺癌
身分
捕
滩
脏
起源于
叛军
无核
昏@@
阿里@@
吉尔
安全部
求职
WP.@@
卡片
囊@@
学龄
货车
赏@@
企@@
可比性
姿势
宁静
希尔
本·@@
经纪
忧@@
息@@
第62
纳税
老虎
误导
钻
饱受
!
MO@@
天津
开了
低温
第65/2@@
优于
插
美妙
耗费
肠@@
卜
多氯
章@@
封面
往年
触及
诱导
Mus@@
整天
潮湿
长得
音频
3万
─
克尔
盟国
肺结核
院的
彻@@
把手
激起
十一月
有线
褐色
还原
进驻
饮@@
12号
宽恕
航天器
风俗
管辖区
该部
°@@
头痛
微不足道
纪念日
见表
铸@@
麻疹
智
Sar@@
佐
升温
好事
不便
训
CM@@
ly
刷
密集型
摊@@
暨
梯@@
贺@@
健身
否
坚定不移
林肯
书店
叶子
昌@@
第33
213
黑海
270
教皇
理应
第24@@
价钱
急救
泛滥
珊瑚
雄心
3.4
ich
单证
视图
路面
验
有益于
266
兽@@
文艺
降临
BBC
J.
无偿
牧场
东南部
史上
扼要
请愿人
16%
Mil@@
加元
迁
水库
血清
丹尼尔
凸显
打下
泄露
王后
第57/2@@
落成
轨迹
PC@@
克利@@
拿起
缔造
人权@@
可由
陆续
巴马
彩
日记
普里什蒂纳
过量
1940年
为之
学说
所属
约有
蔑视
被盗
Ev@@
十字
史蒂@@
希特勒
持有人
期满
阿斯@@
雕像
08
A/C.4/6@@
不一致
内向
希族塞人
浩@@
加利福尼亚
勉强
景点
最迟
笑容
筹@@
1941年
发电厂
巴塞罗那
扰
控股
杰夫
肩@@
哲学家
霸@@
名录
炸
嗣后
科尔@@
任一
忘@@
无聊
桌@@
洪
祖母
预付款
Far@@
收拾
芳@@
54@@
ö@@
会同
层级
据点
肿
机上
之初
廷
沉积物
耶夫
5.3
指挥@@
肩膀
悄悄
莱斯
训练有素
大区
矫正
迪亚@@
216
四分之三
辛格
疼
闭
07
56/@@
同志
塞尔@@
总统令
救护车
280
剑@@
ern@@
加班
合伙人
兔子
分隔
淡
片段
耗
木星
虚构
闹
Gh@@
公投
近似
卜@@
呼
壶
煤矿
猜@@
瓶颈
2030年
Ro@@
以北
既@@
1989
ner
ul
之久
伊斯
偏好
恪守
敦@@
效@@
标书
细致
聚合物
评判
迪拜
亭
字典
诠释
同位素
族@@
遗体
长途
80万
裙子
25/@@
4/200@@
TD/B/@@
杂
满意度
舞会
马路
㈥
中和
优异
多部门
有辱
宽泛
椅
金融@@
1939年
int@@
各州
带回
带薪
睡着
磁盘
蕾@@
适时
不善
攸关方
渔民
第64/@@
艺人
不已
住处
可通过
开出
日军
段@@
A/AC.109
做些
几千
含糊
坟墓
并于
攻势
牛肉
献给
簿
责任感
可得
炉@@
不知
俗@@
嫌疑犯
打扰
织物
能使
评分
庄@@
疑
登场
社会学
健
反政府
援用
215
块@@
夫斯基
穴
起见
稀@@
结清
态@@
6.1
同居
被杀
辛烷
逮捕令
邮政局
鉴@@
钦@@
首府
DP/@@
大韩民国
惩教
比賽
考古
排水
Pet@@
ock
农户
消
犯@@
贼
非传统
亲人
杀手
预约
参与人
当他
执行率
挡
滥
上司
安德@@
眼下
转发
.org/@@
客户端
库尔德
一日
纪录片
覆
阻挡
中小
叉@@
收音机
简便
优美
长老
专题组
传给
哲@@
底层
简洁
载荷
顺便
预示
El
凌晨
器具
詹姆斯·@@
发展@@
拔
金色
首位
收据
稀少
评述
墙壁
情报区
避难所
[@@
下游
弗拉@@
河谷
美术
7/2@@
ts
分销
行者
走访
本应
辩解
重伤
变迁
后方
尸@@
拥@@
贷
港元
澳@@
诚
迫
取样
遗忘
克拉
弟兄
歌词
申请表
AD@@
ation@@
·哈@@
小国
痕
í@@
改装
积极性
第56
64@@
侍@@
绕@@
·巴@@
好评
民主@@
睦邻
理会
甘
银河
中就
校正
赠
amm@@
受审
移民@@
赶到
在外
法国人
车手
小鼠
试试
3:@@
ust@@
方括号
di
听从
敌@@
过早
连带
動@@
双性恋
大洲
好奇
尔特
2/200@@
二十年
升至
罗伯特
Web
傻@@
文盲率
体外
分会
录取
棕色
氢氟
电视机
4.5
ant
侨民
财物
1942年
28.
亚非
妙@@
存量
没法
炼@@
S/PRST/200@@
ala
参
国都
并购
晓
简明
苗
轮廓
320
时在
生物@@
233
左翼
滥杀
13.
?
Mohamed
在案
梅尔
轮调
合理性
宣判
第一百@@
35.
上一
同样的
浪潮
营利
蓬@@
藐视
ris@@
售@@
汀
家政
病理
邮寄
之二
抗生素
每人
ena
安圭拉
帐目
80％
初审
地步
应按
NO@@
修饰
凉@@
妇女署
快捷
植@@
绳子
聚焦
4.4
不符
惹@@
捐助界
政府军
除去
须经
INF.@@
债权
匠
紫色
组办
裤子
车厢
雄性
77@@
冈@@
分期
成见
趣
辅
全氟
天文学
替@@
//@@
克雷@@
基尔
第29@@
19/@@
min@@
弧@@
D.@@
农业部
握
00亿
B节
传来
壮
盲@@
藤@@
霜
一点儿
入伍
分之一
教法
数以千计
水资源
法域
迁@@
近日
递
有钱
纹@@
鸭
不曾
倡导者
羽毛
阻
Bas@@
浇@@
病假
反弹
普罗@@
副主任
恩德培
萎缩
陷@@
够@@
抢
福利部
威尔@@
字样
抄@@
碟
22%
备有
师范
有期
本说明
肢体
放映
调研
o-@@
减量
呼叫
和善
核销
油漆
燕@@
题材
卑@@
哀悼
赌博
辩
若是
成形
海面
拿破仑
行长
鸣
ade
ain
成因
裙
死后
爱人
葬礼
1973
援
躲避
进口国
45.
5/Add.@@
人间
咸@@
秦@@
肉类
荒谬
负起
防备
香烟
FA@@
专制
洛斯
转送
ó@@
司令
树枝
盼望
跟上
转给
Wal@@
目击者
耻辱
蜜@@
波斯
犹@@
砖@@
5/2@@
会议厅
公信力
奋@@
嫌犯
感染率
斯科
第49
纱
2001/@@
com@@
大豆
已向
年限
漆
反倾销
可转让
烂
蚀
骗@@
2007-@@
许诺
镍
麦克
班机
第27@@
高科技
40％
客车
手下
责备
ham
分析@@
馬
不力
哈瓦那
天天
宾馆
废弃物
粗糙
零售商
Ge@@
友善
囚禁
恭@@
教义
脏@@
51/@@
IE@@
一块
哨所
4:@@
CC
公法
操@@
科菲·安南
脊@@
兼任
宏@@
座谈会
有约
杆菌
烤
鞭@@
0.7%
Mas@@
位数
参谋
清晨
舟
认出
霍乱
之地
机体
终点
辨认
便携式
口腔
滕@@
LO@@
履@@
帆
捐@@
军警
分派
单边
各次
182@@
亡
努
历程
各地区
好友
景色
边际
迈克尔·@@
:00
析
王室
车道
顶级
连锁
叛@@
虾
留住
UR@@
下方
为生
强力
愛@@
筹划
革@@
304
二十五
多伦多
亟需
特殊性
2008/09年
by
约瑟夫·@@
朝向
空间站
帕拉
第66/2@@
规避
墓地
吸入
神经@@
非营利
首尔
9:@@
五分之一
克拉克
同工
在各
太阳系
应把
eh@@
双向
第48
佣金
兔
古怪
存有
屈服
犹如
瓦斯
表彰
达尔
ics
一会
凶手
迪士尼
非歧视
借用
商业化
招收
柏
受权
建国
狭隘
资历
选中
Met@@
半导体
填充
缉获
2005-@@
家禽
曹@@
滚
飞行器
ut
字符串
教區
侦测
肚子
虫@@
身亡
ev
碑
238
劫@@
离散
竣工
表达式
门诊
221
IDB.3@@
S/2007/@@
候选
所长
盯
mm
·奥@@
开业
斯卡@@
新疆
玩笑
蜡烛
销售@@
6/L.@@
do
勤奋
市值
膜@@
观光
驾驶员
悲观
放进
祂
蔡@@
二十四
单击
审问
或者@@
潘基文
222
已故
有赖于
买家
染
柜@@
装载
里斯本
29.
LE@@
组别
调配
起床
通盘
称号
30.@@
夺
惯常
淹没
风力
偿债
占领区
同期
宰@@
60万
吸附
圣多美
绘图
近地
掩饰
疑虑
院子
雅各
5000
商事
就是说
推导
暴雨
残暴
胳膊
Gl@@
安妮
继承权
缓冲
该报告
表扬
香蕉
丙
S/2008/@@
ere
安援
鼓吹
将对
暴风雨
电车
自发
』
后送
第59/@@
190@@
况
听证
寒
开放式
畅@@
譬如
MS
勒索
同性恋者
嫉妒
掌管
阿富汗人
非常任
受体
责任人
直播
瞩目
99.@@
下一
诺言
兼并
手套
沙滩
265
交际
入狱
坎帕拉
婆@@
或有
达尔@@
鲨鱼
st
化解
印刷@@
悲痛
构
泛美
裂缝
赫尔辛基
在意
特质
引力
教宗
米尔
ta@@
格外
渐进
焦
酶@@
雀
瘦
荡@@
人权署
列示
SC@@
乐园
舌
高尔夫
不可逆转
国籍法
扔
蒙特塞拉特
西北部
进球
3/2@@
泵@@
第68
身处
中小企业
伸张正义
知名度
矮
范
露天
嗨
指挥部
诚挚
58/@@
总表
for@@
不多
拆毁
时有
237
八国
及时性
颇为
1943年
失踪者
振
電@@
ira
佣工
修道院
加权
塞族人
青春期
228
在位
山上
翁@@
跟你
重心
26.
临界
细分
243
330
器件
投掷
猎人
陪@@
拒@@
紫外线
血压
试用
象是
跑到
2008/@@
慎重
脚本
需求量
传动
例证
修缮
凭@@
吉尔吉斯
灌木
票数
起诉书
65%
论据
34.
水灾
燃
肩负
镀@@
阅@@
33%
背叛
迟@@
乳
凌@@
巴德
踢@@
ker
喉@@
场址
经济@@
运营商
勃勃
受灾国
拳@@
莱特
Ap@@
up@@
作曲家
分包
归入
焊@@
ect@@
第58/2@@
葬@@
凹@@
政界
移民法
2006-@@
儒@@
排定
暂@@
有助
联保
聚合
饱和
232
ack@@
战车
狩猎
侯赛因
叶片
岁@@
303
克劳@@
抑郁
迁往
选取
世界性
所为
砍@@
面部
分校
弗兰克
敲@@
烧毁
现正
突变
醉@@
31.
J.@@
場
戰@@
托马斯
由其
自给自足
Ind@@
丛林
安定
矿石
紧迫性
缓@@
轮换
面具
受控
待在
数据集
301
债@@
疲软
评论家
展览会
经管
逼@@
ino
不可思议
第62/2@@
缓
预付
医学院
夺@@
雕刻
不大可能
惹
继承国
账单
足球队
IF@@
硝@@
郭@@
15号
A/C.3/6@@
ish
ult@@
图象
民盟
炮击
人手
强壮
打扮
米勒
缴费
踏@@
总和
盲人
知晓
返还
房价
门徒
283
Av@@
ond@@
妹
尸
晶
猴子
...@@
37.
优越
瓶@@
绍@@
A/C.6/6@@
臭@@
课本
避孕套
Mag@@
不作为
旋风
笼统
递@@
ide
斯拉@@
70年代
伞
奥斯曼
当事国
辉
发援
善政
宏伟
富国
烟雾
ih@@
不复
权衡
軍
争执
口味
召
安曼
美德
United
enc@@
山顶
工作室
日元
服饰
聆听
肺炎
钓
相邻
偏差
嘉莉
戈尔诺
遇@@
INF/@@
小孩子
妥当
格林@@
54/@@
aya
ero
歌剧
US@@
钾
Bur@@
大体
戒指
电极
IV@@
伪
加固
威尼斯
美金
下一次
柔软
格雷@@
金斯
DA
TR@@
了不起
外套
真实性
ru@@
体育馆
性感
旅行社
氧气
订于
傲慢
华丽
召唤
娘
少年犯
洁
警卫队
CT@@
ini
衔
额@@
_
寡@@
想知道
毕业于
Ak@@
方法学
纳·@@
绒
辣
不许
分泌
达·@@
雅加达
交出
推动力
秘@@
编排
上下文
公民权
峡谷
庫@@
时空
讯问
银行家
9/2@@
OL
erg@@
we@@
不必要
奔
小计
常数
幕@@
戴上
肝脏
队部
冰淇淋
巴里
皮革
雕@@
2011-@@
Peter
不致
跑步
11时@@
ia@@
布尔@@
德国人
快点
讲师
贷@@
赶出
卡扎菲
度量
攀@@
涌@@
瓦解
昌
督@@
拨付
照管
盘子
问候
234
Com@@
tr@@
接获
普林西比
毕业后
街区
鼻
俄文
初稿
埋葬
建构
还向
向量
女友
完备
闪电
音乐家
2007/08年
op
婆
成型
本能
萨拉热窝
非关税
17号
242
ight
创始
膏
行进
231
剧场
卡特尔
平息
过敏
还给
消毒
领事馆
Sim@@
克運動會
胡子
ans
同在
室@@
应得
法兰西
羅
占到
闪烁
主场
会话
受训
口中
少将
屋里
楚
218
代数
偏向
毁@@
ab
叠@@
好看
季节性
浮动
电子@@
ile
最大化
烦
相容
行了
09
凭证
分析性
码@@
罗斯福
29.@@
养老
出卖
孟加拉
很久
有损
镜@@
开玩笑
第67/@@
蛇@@
负债表
退伍
马克·@@
65@@
专为
多半
班级
頓
堡@@
慰问
深层
赋@@
降雨
亲王
医护
取出
成份
联想
饮用
介绍会
名列
地层
基加利
廊
末期
破碎
缝@@
New
在校
姑@@
拘捕
求职者
繁重
关在
Add.1-@@
小学生
223
res@@
车上
217
倒闭
存入
板块
染色体
阵营
50亿
SD@@
ite
合规
校舍
环卫
瓶子
D.
工程@@
暖@@
跌@@
1/200@@
A/AC.109/200@@
航海
主宰
肘
行的
HR@@
即为
叠
怪物
授课
此次
认罪
调试
颈
Abd@@
化验
婴
碳化
舱@@
译员
2050年
H.
写下
嘴唇
某事
腺@@
触
谜
DP/200@@
两部分
比喻
载明
晒
水流
53@@
域名
旺
潮@@
立方米
第31
绵@@
蒙罗维亚
BS
短信
第28@@
腹部
遗失
长于
骨骼
共振
滚动
哈拉@@
国民党
日语
益
转会
远距离
Net@@
卵@@
吐
塑
抬@@
牧民
皇
给定
震动
次日
电影院
车臣
前列
手表
投票@@
担@@
水手
自愿性
2008-@@
告别
嘉
毛病
突显
给他
贪婪
走去
野心
236
ano
未婚
TE@@
阻塞
性交
惊喜
新颖
次于
第63
难得
ech@@
刷@@
性教育
旋
公允
审美
火力
虚
选拔
1244
400@@
SA
医治
右边
坦诚
塔拉
男朋友
雕塑
Ger@@
介于
寄宿
无比
泪@@
瓦加杜古
248
A/C.2/5@@
克人
成套
致敬
SS
其一
参政
西撒
促销
后的
国债
平均值
庭审
润滑油
打发
沿用
什叶派
碧@@
竹
苗@@
所获
有一天
索马里兰
莲
起步
出演
句@@
相继
礼仪
离境
锯@@
CRP.@@
循
编剧
饮
1988
凯瑟琳
在上
布雷
立足
股长
花在
通行证
4万
偷窃
范本
0年代
2015
敏捷
埃德@@
存取
巧妙
授
脚步
蜜蜂
座堂
忍
联络官
追
M-@@
Paul
Wor@@
刑院
埋
夸大
报警
1937年
PS
上演
要件
部内
雌性
178@@
博览会
溴@@
炭
传唤
感应
朱巴
20-@@
微额
拉姆
收益率
而异
被毁
『
波音
第七@@
bl@@
弦@@
核扩散
ova
不负责任
以至
关上
油气
路易斯
Sol@@
der
创下
投资人
挂在
消费品
膝盖
交通@@
微弱
抨击
联布
肝炎
语义
2.6
Im@@
仍在
患上
照看
稍
2010-@@
星际
发觉
可选
拘@@
此地
爱好者
2008-2011年
末尾
浴室
遗嘱
反腐
心地
招待会
桂@@
臭
面貌
E/C.12
先驱
锅炉
兄
原籍
摄入
樂@@
衣物
派系
紀@@
运到
叫我
地政
标准@@
获奖
阴
A/52/@@
禽@@
观察站
And@@
下车
崭新
源代码
觉@@
天地
性关系
曝光
经销商
阀门
复会
庆@@
想象力
气球
该区域
邮局
Pri@@
减速
拒服
機
藻
试验@@
AC@@
不适
学界
逐出
部厅
ist
出名
当量
理所当然
饮酒
Na@@
儿女
勒·@@
说服力
Nor@@
亏
响@@
无误
La@@
取向
文化部
灾后
突击
足额
防务
1936年
号法
女神
衬@@
车祸
里斯
高危
拆卸
毁林
水力
沥青
特拉
芯
車
还未
高空
充斥
域@@
将由
琳@@
科斯
赞
Fran@@
参赛者
外壳
上诉@@
冗长
周刊
郁@@
Khal@@
大米
术@@
沙发
湾仔
赏
380
PE@@
亲眼
疡@@
盟
神父
XV
构件
Bal@@
夜里
数据@@
航空器
规管
检查员
第54
下设
半径
州市
显微镜
特雷@@
资料库
非裔
261
41.
柬
流出
直觉
罕
辛苦
分级
水利
责任制
项@@
鲜
丸
成了
调制
邻
附加值
准军事
妇幼
2,000
亨利·@@
Pal@@
ne@@
仪@@
厨师
继任
融化
周岁
弓@@
撰文人
火炮
Mad@@
俯@@
富翁
无期
ura
截然不同
死了
西斯
ICCD/COP
亏@@
低廉
布莱尔
耗氧
25％
咽
敞开
红利
43.
550
Med@@
工地
民法典
罢了
铸造
oo
仙
挪用
活泼
涡@@
第48/@@
独家
组长
几率
基因组
括号
马尼拉
大象
失调
新人
时会
滞
12-@@
Aw@@
IA
执行人
狮
主演
尖锐
1930年
Rad@@
S/2@@
摇
新德里
添@@
立足于
而来
语气
天基
环形
贤
酷
更替
水产
玛丽亚
2007/@@
滴滴涕
相近
硫丹
身后
ita
好运
岛国
批发
科尔
管理科
自治@@
World
卖出
好在
攻
祭@@
Bro@@
三角洲
棱@@
殿@@
蚊帐
长的
224
恒
欧亚
水稻
Add.4
墙上
Robert
丘
厂家
发射器
宏
支架
氧化物
纪要
adi
日增
讲解
鹿@@
3000
ve
全局
减税
并同
廉正
所要
美学
与众不同
女朋友
妙
裁员
以人为本
特尔
酌处
女孩子
服务台
高涨
Bel@@
CCPR/C/@@
公升
制冷
区划
天数
左边
货品
·埃@@
祝你
笼罩
苏丹@@
7.2
漂@@
详见
1995-@@
交织
问及
高管
311
一九@@
并能
碍
简述
Atlas
胸部
至为
起始
位居
共同点
木头
欺@@
水管
盲目
联接
/CO/@@
ort
山地
245
310
信息化
渐
长短
全面地
古迹
润
炸@@
自在
韋@@
219
●
午夜
压倒
堤
玛丽@@
移除
镑
6.3
Lu@@
art
兆
口岸
同事们
气专委
等同
胜过
⑴
劝@@
唇
源头
特克斯
养成
处处
帕克
恶心
氨酸
汇聚
灾区
身子
亵渎
廉政
开门
毛利人
理查德
管控
编撰
不好
坐下
壮大
工商界
视察员
千克
娃娃
山羊
感和
日刊
王位
线程
Rev.@@
聊@@
买下
尝
指纹
探视
贫民
递送
销售额
面孔
事儿
伦·@@
停靠
宴
慕尼黑
考核
87@@
可从
弹头
德拉
自私
號
下旬
助益
定额
将使
饥@@
位移
全方位
坊
基薪
梯
瀑布
MA
上了
冯@@
向外
唯有
圖@@
士气
定的
柜台
玩耍
Sk@@
写成
夸张
客观性
未付
芦@@
随身
牙医
相遇
302
大夫
巨头
年假
打扫
营养@@
陌生
SB@@
佛罗里达州
右手
商学院
让我
0亿
S/2010
供应@@
保护性
场面
滞后
病变
神学
腐@@
英文版
从句
厌@@
短片
要使
造就
鲸
宠@@
整编
淋@@
男士
30.
必需品
肌肤
NE@@
切尔西
哪种
字段
洞穴
1933年
CP.7
不可
十万
外阴
淫@@
花朵
英军
雌@@
回头
绅士
绝育
翔
坚称
屏
赚钱
受害国
宫殿
用性
麥@@
IG@@
It
La
Q/@@
ari@@
人民党
倒塌
南共
占地
回想
在最
念头
怀着
无条件
糖果
芒
谱@@
鲜花
1938年
ja
中去
使用率
堵塞
居民区
真菌
BA
光度
全人类
厌倦
安非他明
239
文人
普里@@
5:@@
实话
才干
旅途
融@@
外在
大意
大片
约为
则@@
栽培
活动家
阵列
拿走
华沙
对吗
床@@
微量
截
歇@@
祥
迎来
马尔
L-@@
候选国
植物@@
甲板
航空@@
说谎
闪
241
E4
售出
水生
自尊
启
工业界
总检察长
执导
棍
烃
硬化
系统化
光芒
区议会
或者说
扎伊尔
ali
ez@@
一流
体操
对了
坡@@
无遗
曼哈顿
最优
rah
储量
园区
拼写
缠@@
A/4@@
俊@@
多米尼克
死因
部将
饭@@
264
F-16
上阵
回报率
洒
6:@@
WG@@
干嘛
23%
IA@@
仍有
地基
律法
招待
气管
溴
灣
粗暴
谨此
复杂化
宋
技术员
万一
停滞不前
器@@
语句
0.0@@
We@@
培训@@
安宁
效仿
立法者
蒸发
贮存
迟迟
适合于
中长期
凤@@
呼吸道
改性
水晶
赶走
起伏
音乐@@
21%
307
国产
招生
核电站
猛虎
观赏
制作人
攀升
数位
賽@@
246
Mac@@
塞人
笔者
胜出
10,000
PC.@@
一如既往
伞@@
墨西哥城
太子港
废墟
开销
弗雷@@
熊猫
还请
遗迹
ase
rig@@
宣传@@
拓宽
损耗
177@@
伟@@
征用
F.@@
Gra@@
卡尔·@@
参与率
安全@@
成瘾
问问
预
高尚
DS
折衷
村子
流行率
短短
illa
上周
下调
体中
可用性
排行榜
甚麽
腹泻
金星
宇航员
显示器
水层
000亿
３@@
挨@@
第0@@
粒@@
耗尽
豪
逐字
Hal@@
东正教
大院
太过
氟化
舌@@
inc@@
体型
斯通
饰@@
凯特
凯科斯
大洋洲
租约
纽约州
０@@
7.1
依赖性
好人
子宫
枪击
面粉
James
口气
摒弃
敏锐
氯烃
海洋学
编拟
1.6
ill
源泉
访客
WG.@@
分量
渴
6万
ST/@@
不应该
年长
提早
气息
纠@@
ick
执政党
放牧
政治处
胖
贸易区
走在
轰炸机
ank@@
小时候
离岸
44.
A/CN.9/WG.@@
中药
将其
玻璃@@
留出
舌头
262
CRP.1
剪
弗朗@@
胎@@
时装
杯子
爱因斯坦
衔接
100多
DC@@
但愿
促@@
危@@
政令
近乎
邀
机械@@
灿烂
饱
仿效
后卫
就说
拉尔@@
看护
首选
ens
帖
悲哀
扔@@
精通
药具
迟交
伊·@@
借以
小偷
岗
手动
整数
浓
游览
相差
肮脏
重庆
不使用
你自己
做完
私
28%
U-@@
学名
浙江
勇
市内
德曼
性传播
战线
芽
贝格
固然
地处
府@@
托运人
民粹
海员
留学
ei
书院
期中
茎
19%
249
Az@@
合体
盃
纪念@@
锐@@
阔@@
My@@
分布式
当场
斟酌
趋向
軍@@
转播
束@@
纳斯
5/200@@
Wh@@
卫生署
投保
海岸线
骑兵
养恤金
升起
工伤
未用
生化
萨尔
高额
9/200@@
98%
电话@@
竞争者
阿卜杜拉
ski
哈利@@
坝
布兰@@
約@@
群落
229
公诉
姆斯
预留
Cal@@
乎
保守党
出路
奶酪
沾@@
波长
玄@@
脑海
衰落
采购@@
2005/06年
ron@@
之处
同日
寻
库克群岛
柯
批量
汇总表
库尔@@
战斗员
立体
275
割礼
身高
长足
Ha@@
巴斯
变数
大法官
屠@@
338
38.
克鲁@@
姊妹
拥有者
数十亿
杯@@
甚少
盘存
膳食
CMP.1
Fa@@
停下来
售价
尽头
探究
有别于
服务处
猜想
第687
肺@@
芙@@
东道
華@@
辞去
挤
掩护
斥
格勒
说来
驾车
Pe@@
大笑
客厅
布拉格
蜘蛛
CF@@
Ta@@
ea
亲身
冷冻
切换
用量
自此
27%
5.5
审判@@
忙@@
滞留
讲授
说成
Ter@@
ñ@@
专栏
会儿
侦探
女权
房委会
海平面
硫化物
近海
2009/@@
BC
Kam@@
墓
接壤
班吉
裨益
贡
长江
坐落
学徒
宿
比亚
路边
顺应
1920年
46.
匆匆
巨星
第44
迫击炮
门外
隐
虚弱
金矿
阿什@@
伊拉克人
伐
克朗
役@@
306
仔
匆忙
晚间
青蛙
24%
500@@
OE@@
−
石棉
闯入
650
别墅
星座
法西斯
溶
爱心
用具
离任
迫击炮弹
5.4
信息网
实用性
排队
海豚
畸形
祸
节制
领水
55%
You@@
la@@
干活
有幸
植入
歧@@
约瑟
羊毛
美食
持有者
晕@@
采样
CP@@
帕尔@@
订有
重罪
黎明
267
厅@@
宅
戴维斯
灌输
矿床
/Add.1
不惜
抗拒
阈值
亡@@
光滑
冷漠
化学@@
期末
索尼
路段
达格·哈马舍尔德
信封
欢呼
润@@
火炬
西区
轮值
逝
iz
区间
抑郁症
游击队
第51
鸟儿
47.
企业界
只得
政局
泪
流行病学
特等
蒙特
修补
开发者
请愿
60％
基数
客机
年青人
弄得
有损于
缘@@
转账
不公
外商
奥委会
就绪
金属@@
鼠标
TV
→
举起
仅限于
外形
失控
找个
煮@@
XML
保健@@
叉
双胞胎
居高不下
改成
琳·@@
维尔@@
迈阿密
安全感
屑
很长
恢复性
未遂
汇票
港币
肥料
载述
不动
取而代之
权威性
电阻
裁
观察@@
途@@
金字塔
鸿@@
亚当
泉@@
莎士比亚
Dar@@
围栏
奴@@
帅
爆炸性
200多
8万
就座
摄影师
枯@@
涂
罢
转载
88@@
咳嗽
园艺
对之
很好地
獎
瓣
笛
第40
这边
S/2009/@@
副代表
沈@@
科学@@
突
篮子
達
42.
•
印第安
律的
筑
对吧
施以
无损
曼联
县级
处所
每月
特工
黑洞
发展司
250万
Mart@@
力气
对准
比照
涂层
狐狸
翼@@
下级
刚好
搬运
科夫
316
主席国
想出
竞技
脸色
个个
中途
同侪
添
烂@@
英勇
读取
通信@@
I-@@
发自
尘@@
饱@@
驳斥
309
出生率
可接受
毛泽东
淀粉
球員
稀缺
罚@@
一百万
珍
礼服
视线
迭代
30-@@
一路
伸
格·@@
筑@@
耽搁
胰@@
萨利@@
行车
让他
C节
上岗
并把
拥护
疗@@
70％
不锈
壳@@
布罗@@
执业
放慢
相干
眼里
自觉
薄膜
90％
FCCC/SBSTA/@@
Te@@
火箭弹
电影节
肃@@
OR@@
克里斯
26%
312
34.@@
一年
亲切
傻瓜
邮箱
7:@@
卓有
244
嘴里
房租
映@@
沟@@
碱@@
获知
6/2@@
人日
增援
屈
怀特
损毁
新闻@@
通话
99@@
十亿
嫩
察觉
转身
Da@@
乏味
树叶
伟
原力
吸纳
如果说
求助于
献身
笔记
里亚@@
·德@@
亚伯拉罕
假释
农夫
分权
劳动部
棉
现为
研训
1935年
受雇
挡@@
生于
耸@@
酸盐
1950年代
2002-2005年
一下子
圣母
擦
身穿
邦特兰
幽灵
时速
萝@@
阐释
关联性
映
14号
仓@@
学童
对第
比索
涅
现役
贞@@
过大
５@@
340
借给
大奖赛
开工
1,0@@
光辉
加油
高大
Sy@@
van
乏
哈里
构思
电线
钱包
韦尔
Ass@@
臣@@
警觉
ery
可笑
基里巴斯
尼维斯
炭@@
考量
议院
1.0@@
乾@@
年幼
望着
玛格丽特
田径
返回者
钉@@
290
匹@@
大奖
比利@@
联军
问到
验收
I.@@
ock@@
大事
或为
董@@
革
以西
信守
巴克
充电
政治部
理学
疗
联会
900万
很可能
拟于
格斯
耕种
香味
主力
幸存
托马斯·@@
纽带
美國@@
冈
往前
新闻处
灭亡
篮
许是
躁
附文
308
Ahmed
MP@@
不均衡
布达佩斯
朴
犹
受阻
振奋
脊髓
先锋
按摩
渊源
规划@@
入手
暴乱
渗@@
１
热心
研究金
豹
饼干
98.@@
交替
保释
流利
畜牧业
莱尔
ud
堡垒
小伙子
爽
船队
袋@@
yl@@
低迷
小农
年老
灰尘
茂@@
足迹
不属于
侯@@
威力
捷
电站
運動員
雄心勃勃
Rep@@
Sw@@
per
兽医
官兵
而出
聯@@
苍白
CO2
E/C.@@
ony
旋律
衰
313
iri@@
庆典
碘@@
螺
并无
砸@@
赐给
一世
年终
抗议者
经贸
钦
59/@@
为零
克罗@@
口服
十字架
員
大有
歇
汉字
雨林
Del@@
一千@@
不禁
乡镇
土地权
奥利@@
较早
三角形
人类学
大雨
铅@@
长城
颜@@
驻留
Mer@@
沙龙
猖獗
263
A/C.1/5@@
土豆
圣基茨
扯
爸
自立
钴
ach
四年
所持
挑
40.
加载
劣势
挣
散射
本站
那人
霸
1978
即使是
尖端
引诱
掩@@
特纳
辨@@
May@@
乙醇
偷偷
象征性
可获得
拘留@@
排出
详
调入
贸@@
轻重
2002-@@
犬@@
粮@@
递解
销售量
1/2@@
247
XX
建筑业
服务费
洪灾
维持费
羞@@
资料@@
ash
上床
协商会
搅拌
电厂
结晶
翠@@
诋毁
逐年
陆战队
8:@@
mar@@
凝聚
硫@@
花旗
馀
上尉
南海
开幕词
步入
西南部
15％
Bi@@
Group
ix
严谨
惧怕
水坝
知悉
石块
贫富
1929年
1970
425
ti
渡过
能为
多层面
akh@@
ila
wa
个性化
分居
琼@@
紧要
蒂斯
诺·@@
跨学科
2006/07年度
berg
中间@@
帝汶
彼得@@
战事
源码
追逐
领海
／@@
FC
IX
RO@@
有机@@
30亿
Ob@@
Richard
且@@
亮度
出价
帝力
瓦尔@@
li
增拨
斯拉夫
有无
芝@@
平价
座标
康乐
矫@@
鳞@@
Facebook
ood
喊@@
秘
胰岛素
Phil@@
二.@@
爷
钩
Linux
⑵
光荣
克兰
子们
少见
并可
海边
野外
2000/@@
后被
崩@@
工序
彩虹
遣@@
键@@

不可接受
卡拉
广告@@
折旧
长长
Af@@
整修
有偿
广东省
应被
成品
留存
监护权
维权
迅猛
雨季
38%
作风
军舰
单单
尽职
忙碌
惠
队友
120万
分项目
时钟
肺癌
进口商
遍及
魁北克
暴动
过往
迷惑
55.
William
人民军
保留地
卡特
苑
连通
AR
代表@@
当下
umb@@
不可缺少
中子
摘@@
旦
逃走
郊
声望
忽@@
测绘
狱
眠
规程
RS
℃
揽子
燃料@@
第一@@
自然界
逊尼派
霉素
31.@@
奶油
怜悯
猎物
过错
體育
充作
大肆
矿区
维生素
长寿
静静
268
33.@@
Bou@@
E-@@
Ir@@
Res@@
克里斯蒂@@
大笔
排球
撒谎
曼·@@
枯竭
酚
厄尔尼诺
官员们
屏@@
巨
店铺
漆@@
G.@@
万物
动产
每周
间隙
弹簧
水上
炸死
诚@@
青睐
东区
中风
姿
排除在外
钚
锚@@
下称
校区
海滨
淘@@
童婚
粉末
适当地
﹐
从小
室外
接洽
民防
的黎波里
答道
粉碎
面板
1932年
吸血鬼
围墙
投放
讲台
269
来吧
遥
人种
依次
就地
强国
当做
衰竭
订定
调停
铸
Go@@
傅@@
反对者
哈尔@@
奖章
店@@
慈@@
滤波器
疲@@
ela
专有
中学生
德州
改用
波及
滞@@
而论
赫尔
288
吊
恫吓
普拉
罐@@
莲@@
诈骗
辛勤
非洲裔
驾
Ng@@
不具
代号
佛罗里达
俘虏
写出
叫声
国军
挫败
湿度
跨大西洋
阴道
Ang@@
DC
列宁
塑@@
推向
卡洛斯
拉斯@@
拼命
独有
紫
终极
色素
隐含
2004-@@
告终
塑性
旅行者
模特
编译
錦標賽
钞票
麦凯恩
8/2@@
Char@@
仇视
寂寞
微分
扰动
方方面面
矩
聊
贩
286
会场
十年
大洋
所涉
据信
猴
礁
写的
向导
忙于
忠于
种姓
赶快
不久前
干的
热切
精细
胆
莫斯
-0@@
COP.@@
ement
嫩@@
早年
统计学
解脱
专心
奸@@
工人们
政治性
时任
维克@@
赋
不清
奇异
撤军
转折点
佩
保障@@
擅自
核设施
/200@@
共和党人
序@@
慰
机油
直升飞机
参谋长
小儿麻痹症
无常
气质
罗马@@
脊椎
议和
霸权
飙升
318
不大
亞洲
全面性
果汁
胖@@
照相机
盆@@
斯特·@@
明示
背道而驰
自制
非歧视性
乒乓球
冒犯
如表
小队
无穷
正视
民营
游牧
生产线
阿克@@
48.
CERD/C/@@
ans@@
gr@@
仆
侧面
前锋
拓扑
显着
来回
窒息
42%
XL@@
ys@@
國家
复发
尘埃
格兰@@
泥土
献
领导力
颇@@
Gal@@
中低
器械
溶解
辨别
15/@@
IBM
兜@@
分公司
不切实际
带宽
盧@@
陨石
Can@@
ast
发型
第66/@@
纳尔@@
36%
情报@@
拿来
滋生
细微
低价
形容词
烘@@
疾
谣言
2009-@@
A/AC.105/@@
堪@@
外侨
联运
6.5
Wil@@
尼奥
招呼
民行
稳健
路障
隔绝
#@@
为有
冻
弗兰@@
手语
联安
诚然
阿姆斯特丹
仲@@
便会
化妆品
多功能
晋
晨@@
纷@@
逃到
ko
取自
彬@@
苏珊
中场
向后
好坏
添加剂
為
铺设
A/C.1/6@@
仗
公園
圣战
圣灵
玛丽·@@
精美
城墙
愈来愈
跟我
團
泳@@
监委
ake
弗莱@@
怀有
撇@@
未作
横跨
第55/2@@
阮@@
36.
ress
倡@@
吴
围困
平凡
染料
沙田
泳
管教
良性
较长
钱财
·布@@
交易@@
安卡拉
武汉
特人
米歇尔
膝@@
CA
尼尔
工业@@
耗资
使不
侠
大學
操作性
珍珠
遣送
rav@@
日间
時@@
氯苯
笼
管理股
能以
University
僧@@
PD@@
仁慈
无私
警戒
主语
亚马逊
坎昆
奇妙
定论
巨型
探险
敦请
部级
1919年
www.un@@
α
吾
处死
巧@@
慕@@
打伤
拉丁语
童军
蜡@@
遣散
驯鹿
1925年
以其
去掉
寄给
溺@@
轰@@
克减
嵌入
征询
itt@@
吉隆坡
对地
改写
格拉
毛派
精致
维度
272
凶
断层
Ol@@
急于
梯度
虔诚
走开
驱使
奏效
移到
诉状
试验性
午饭
抗辩
有效率
楼房
JIU
Ser@@
听听
污
涌
过重
十足
如期
托尼
牢@@
1918年
一视同仁
全程
勇士
坦白
夷@@
扁
溪@@
能见度
冒着
化物
化肥
封建
文件夹
水体
轮椅
ella
不正常
减半
回升
辩方
一连串
错综复杂
动手
向来
愤@@
继而
79@@
GP@@
描@@
电荷
血腥
誉
轮机
314
BO@@
UNA
一眼
莎拉
20号
63/@@
Pa@@
SH@@
Thomas
劳工部
2.7
Tor@@
基伍
期盼
長@@
唤醒
挪@@
泊@@
私隐
贵重
变压器
巴克@@
往常
挽回
bo@@
ida
丢弃
传承
根基
欢
海伦
潜水
秃@@
租户
背离
1928年
射入
常识
总而言之
普斯
股本
顶端
par@@
为受
同名
唇@@
处理厂
浴
狱@@
糊@@
A/C.2/6@@
Pre@@
姬
帮派
恰好
抽签
无理
时分
相位
美属
0.5%
凱@@
增值税
揽
波斯@@
茅@@
60年代
性命
换成
核技术
著称
辑
锅@@
SM@@
保证金
再来
安德烈
寄养
并进
春节
爾·@@
甜蜜
莉·@@
/CO@@
315
eth
伙计
埃博拉
帐单
引致
进食
37.@@
Dav@@
Mah@@
Ver@@
伪装
分辨
未获
税务局
符@@
至此
详@@
贾
001
垒
境界
金和
Fin@@
ks
不详
历时
最长
牵连
磁带
绘@@
足球@@
11:@@
下班
劳动@@
堕落
联机
荧光
身旁
46/@@
伯特·@@
宪
屏障
正确性
硬盘
警察@@
醒@@
非正常
VII
中间人
主页
台阶
夺走
32%
剥@@
小屋
应尽
打了
敷@@
昭@@
本届
纱@@
－－
分遣队
卸任
压抑
国境
难民法
Gar@@
San@@
Tel@@
伐木
传闻
傻
可信性
痒
费城
远东
连接@@
1718
Ash@@
Gen@@
可于
圣城
桃
煤气
聘@@
训练班
闻@@
动物@@
卢比
悠@@
留言
米·@@
BM@@
不容易
似宜
停下
孙子
old
与人
做饭
大国
才华
杭州
次年
哨
微粒
田野
皇室
贝拉
AF@@
TP
产能
承包人
抚恤金
按揭
最有
炼
研讨
孕
得不到
清朝
325
劣
奇特
屁股
惩罚性
窥@@
第七十三
联手
讯号
陵
高山
挑起
法老
虫害
57/@@
戒
浓厚
爪
12年
2014-2017年
HD
丛@@
归档
箱@@
索尔
南极洲
原件
域内
编织
弄清
解救
贩@@
递延
齐全
业部
乡下
卖掉
家居
挤压
明日
杖
环境部
皱
谢意
贷记
阿里·@@
魂@@
实习生
槽@@
浦
细小
裁量
讲习会
ign@@
丰田
别处
呈交
塔·@@
妈@@
嫁
拒不
星云
浴@@
胶囊
迷你
197@@
6.4
ović
交互式
伤者
年均
恩斯
比勒陀利亚
直属
落到
薪金税
7万
a'@@
举出
山东
票价
释
高盛
11-@@
š@@
印度@@
摄像机
普选
滋@@
︰
erv@@
加薪
建筑@@
精算师
裂纹
逐一
1931年
2.5%
TC
奖牌
抑@@
海姆
胜地
胞
艾哈迈德·@@
逃亡
阿巴斯
对口
滑冰
第65
责任者
防线
AC
变通
威尔逊
访@@
靶@@
UN
吞并
地盘
多彩
孕@@
对冲基金
尔森
揭@@
操控
无尽
河水
设计@@
韵@@
峰值
男友
阁
阵容
1980
78@@
厂房
抛
拍照
无助于
本片
气流
电离
Tar@@
万国宫
乳房
侧重点
光彩
引领
排在
热水
秒钟
艾
译为
贸
迪亚
下台
不至于
召@@
坠毁
契机
媒
守卫
开发商
徒步
真心
写在
后天
萧@@
西·@@
Muhammad
ium
oj@@
居于
怨@@
級@@
约谈
赶紧
ook
份@@
温哥华
花园里
范式
路德
车库
雅虎
魂
You
为向
充沛
在座
士们
暑假
监督@@
伸展
借款人
孝@@
抬起
满怀
维拉
萨斯
G.
上调
兵团
忠
相片
370
个子
全日制
学派
广西
托尔@@
文斯
水位
用心
疯
肾脏
181@@
98@@
傍晚
傑@@
引信
涉案
配音
凝
商务部
遇害
上台
分层
助产士
即是
塌@@
制成品
弃权票
征兵
懒@@
泪水
珍妮
难忘
273
二年
动向
天花板
菲利普
1967
多民族
炎热
赌@@
ise
ola
专责
业务@@
为最
可受
坑@@
总长
整顿
普通法
杆@@
装卸
贬@@
斯大林
西蒙
受制于
熟知
町
颂@@
1934年
反之
孟买
滕
肥沃
15亿
Hu@@
中用
在押
款式
洛夫
续会
胺@@
金币
闷@@
rab@@
加利@@
妖@@
握手
携
良知
萨米人
频谱
Ru@@
水里
洲@@
笑声
第47
罢@@
苍@@
防灾
1时@@
不偏不倚
垃圾@@
窝@@
fl@@
九年
罹患
追随者
1921年
不遵守
副产品
并用
沉没
照亮
马格里布
37%
LL
中医
光子
入账
心血管
牛顿
绝缘
菊@@
蠢@@
387
合力
接近于
歌声
行政法
诅咒
说说
闸@@
1号
及格
客们
小事
款人
眉
解剖
过渡性
违禁
和平@@
海区
百分@@
致残
资本@@
资质
钻井
les
定时
很好
装上
过滤器
阿爾@@
Rom@@
埃及人
巢@@
总能
显露
过上
领带
麻管局
TP@@
不间断
使她
分之@@
巾
想过
清新
狱中
CAT/C/@@
SS@@
会后
大坝
悟
栖@@
衰老
霍尔
anda
查尔斯·@@
自定义
IO@@
亲近
兵库
亮相
最高级
罗伯@@
281
北京市
宇
时髦
本性
琼
缓存
西安
赠@@
ations
ä@@
并存
柔和
氯化@@
览
驴
TD/B/CO@@
ox
如能
婴幼儿
摔
斯科特
筋
讲到
迟缓
鲸@@
性生活
栖息地
沼泽
球季
生产@@
23/@@
Bor@@
很高
所作所为
波尔
网播
dis@@
濒临
知觉
诱发
2012-@@
49.
rit@@
同样地
奏@@
导出
忠告
愈合
所能
营业@@
课税
透彻
黑夜
复习
摩根
韦斯
7.3
EM@@
ç@@
地主
戒烟
手头
KO@@
分队
生机
藏在
餐桌
323
低地
前去
历经
施压
有色
犹太教
纤@@
络
绿化
调查组
里亚尔
丰厚
则为
妄@@
报案
矿山
1996-1997
43%
不可以
吃掉
悬崖
情人节
畔
阿拉斯加
叙事
地段
意大利语
承载
拿下
明斯克
渔
绕过
那件
add@@
商谈
复核
损@@
是指
跳跃
隐蔽
wor@@
于此
施暴
潜能值
一级
中度
到访
妥
机率
校准
矿工
结转
高尔夫球
军事化
功夫
评选
375
互动式
佩戴
喬@@
权时
浑身
火山@@
籍@@
西雅图
不可侵犯
修女
弓
无从
森·@@
法系
皮肤@@
虽@@
防火
也没有
修订版
复数
政和
榴弹
说明书
迁至
门票
亲吻
偿金
担保权
接任
醇@@
顶点
Comp@@
子宫@@
巴马科
录像带
翻了
阀@@
餐饮
852
E/ICEF/200@@
und
别无选择
有否
筹
277
285
Mos@@
怎
搭乘
条纹
毫无@@
趁@@
饶@@
326
不容
传到
同学们
师资
得意
成都
犹大
窑
1923年
7.5
ene
iya
内务
岛民
庄园
政见
白皮书
44%
前言
I.
三日
减刑
Du@@
Lin@@
RNA
停在
出了
小子
班上
病症
酸性
顶峰
GA
ado
ram
平坦
水池
自备
衰@@
道夫
ith@@
吸入器
基建
恳求
欧安组织
筒@@
背部
装满
上衣
单调
基辅
小狗
悉
未交
爆破
珀
肖
貌
较差
静电
AI@@
ack
mon@@
实施者
涌现
第51/2@@
10:@@
一无所知
循证
战舰
物力
箭@@
贫血
踏上
辨识
铃@@
160@@
侵略者
借由
劝说
好吃
抗灾
招致
Shar@@
ons
复仇
差点
拢
现成
用药
站立
苯丙胺类
FCCC/SBI/200@@
ame
一九九@@
吞
哇
林地
爱丽丝
癌@@
赔
遇难
高贵
Sm@@
圈子
嫌疑
应聘
染色
灾@@
贺卡
（@@
Mak@@
è@@
精明
国度
大军
她@@
空洞
陆路
零容忍
Sil@@
剖@@
猪肉
精子
迫在眉睫
ret@@
一万
刮
慌@@
散播
病患
预制
体育部
增加额
外展
完好
晒@@
涨@@
焊
缺损
苯酚
足球赛
吵
提具
日托
271
分析法
各式各样
游泳池
关掉
布琼布拉
惊
殿下
畏惧
直流
運
All@@
中枢
哈里@@
困苦
孕产
整洁
脊
葡萄@@
虐@@
衬
Ny@@
歐@@
补充性
调往
2000@@
AB@@
云南
创设
安全法
张力
性工作者
有系统
總@@
繁多
纬度
迷失
逆向
南奥塞梯
曲面
毛坯
激怒
窃
羡慕
荒漠
333
George
The@@
公交
平板
模样
违犯
强势
月度
浆@@
躲
通车
阿联酋
Jul@@
不休
五百
外人
学习者
尔人
沙巴
那条
加里
解开
保护局
印度教
商量
地下室
民族@@
膝
观测@@
1917年
31%
55/2@@
不是吗
今世
带入
Gam@@
上个
二维
元数据
卡斯@@
应征
纯洁
贬低
阿方索
面包@@
A/49/@@
S/2011/@@
关头
多夫
手榴弹
美分
防水
S/RES
原创
物理学家
稀有
致以
51.
S/PRST/@@
也为
储藏
可悲
失灵
妥@@
或因
浸
电影@@
霍
274
57.
A/AC.105
Bank
E/CN.4/Sub.2/200@@
S/PV.@@
des
手持
更长
机械化
肆意
赫尔@@
酯@@
enti@@
弗洛@@
得名
托儿所
浮
89@@
CO
联检组
肠道
袋子
辈子
送入
重金属
愿@@
是吗
栅栏
球赛
磁性
1时15
278
光电
品尝
粉丝
蜂蜜
赠送
零星
276
ire@@
像素
出口@@
并已
往后
新来
楼上
4/2@@
L.2
三年
加班费
德文
惯@@
深夜
腾出
举例来说
侵占
醋
Arm@@
CN@@
会为
听讯
并被
扫除
爬上
达尔文
顽@@
鹰@@
Fer@@
方和
滑稽
眼神
能在
295
48/@@
Kr@@
德勒
极化
棋@@
监察@@
腔@@
10,@@
土星
将向
性病
烫
约瑟夫
过长
邮报
3,000
一次
亚特兰大
交涉
国民军
审咨委
屡@@
巴特
掉了
橙@@
泄@@
真主
裸@@
要想
超人
中会
福克斯
繁琐
1500
1927年
Reg@@
}@@
机床
活动@@
潘
糊
配给
重演
850
伽利略
哩
如是
追赶
287
找寻
橘@@
贝卡
路易斯·@@
那家
Rob@@
上场
斯卡
烯@@
282
9月份
为名
岸@@
投票站
未予
洗澡
渣@@
而不@@
订婚
2007-2008年
侵袭
称职
阿拉法特
hi
公屋
军民
发射@@
柴
装甲车
递给
非军事化
2/L.@@
最惠国
这样一来
进口@@
退款
钩@@
3D
公理
成败
泰尔
薇@@
西蒙@@
赖以
边上
uk
機@@
歐洲
湖南
疹
石化
踩@@
驾驶@@
骆驼
1737
335
able
棕@@
略微
遥控
TA
ins
way
发烧
喜好
对峙
提要
联营
谋杀案
镁
str@@
势必
召集人
后才
触摸
跟他
38.@@
IN
Lib@@
Ur@@
中西部
园林
对阵
热衷于
近距离
问他
319
te@@
大理石
流落
言辞
降水
鳍
292
发扬
希拉里
有意思
枪杀
用意
美术馆
谚语
追随
重现
铅笔
3.6
hm@@
利人
29%
Er@@
Gi@@
TS
在被
说过
路程
34%
低级
削
图标
在这@@
平方@@
闸
35.@@
Maj@@
向往
总括
恐@@
推选
析@@
礼宾
程序法
HIV
懒惰
粪便
遗骸
露面
21号
23号
Si@@
ern
mann
六氯环己烷
搭建
第46
训练@@
5/Add.1
oth@@
七十
不干涉
使用费
促进@@
坏事
棚@@
溢
筛查
组分
血糖
询@@
Cont@@
Inter@@
人意
侦@@
犯罪率
用力
童话
羽
读到
驱动器
2.8
A/CN.9/6@@
放电
斜坡
筹办
罗德@@
仪表
扼杀
推论
阿勒@@
供词
儿科
转过
顾虑
娘@@
弗里
新教
电文
百货
第56/2@@
至上
过世
铬
12亿
4.6
VI
oz@@
人中
元音
國際
多种多样
布鲁斯
拖延地
敬畏
植树
珍视
艦
追捕
54.
内陆国
写给
受限
口音
可变
格伦
椎
滑动
琪
蒸气
规矩
遗漏
AA
Tal@@
二十世纪
伊斯兰国
打个
确有
联系人
19-@@
48.@@
先行
全然
内尔
小鸟
抽屉
撑@@
晋级
积金
突袭
阿卜杜勒
2012/@@
A/48/@@
AS
Lar@@
be
如前所述
密钥
抉择
无政府
梳@@
法兰
评估组
酸化
高棉
1924年
440
Rev@@
af
军区
反感
搭档
米尔@@
钢筋
39.
On@@
克里米亚
台式
合用
待审
忙着
无能为力
蓝线
誓言
骤@@
８@@
F-15
Mel@@
喷射
导入
掠@@
正统
武术
特曼
甚么
退学
130@@
del
修订案
分行
包机
咖啡@@
实实在在
整齐
斯普斯卡
甫
讲究
难点
骗子
基桑加尼
想念
打工
概
正文
洄游
溢@@
越发
趋@@
错误地
０
20,000
倒是
加仑
外加
庄稼
用人
神经元
第20@@
维生素@@
罪案
1926年
ith
仍是
半球
司法@@
大衣
奢侈品
帆船
投影
派出所
菲利@@
逃往
逼近
1912年
2:30
SC
if
互换
感恩节
梭@@
祈求
竞标
重塑
50,000
世界@@
墨尔本
如上
朱
此事
溢出
订明
Ahmad
原子弹
检察@@
灵顿
简言之
07@@
Mohammed
地方性
培
普雷@@
沉
灼@@
禁忌
终审
Jac@@
㈦
伊比利亚
文·@@
诈@@
费尔@@
279
97@@
島@@
库克
病房
绑
自上
获得者
虐
诊@@
难于
1914年
R.
不同意
复议
布伦
当晚
援助@@
斜
比对
辩护人
马拉喀什
21/@@
不带
不知@@
往下
敌视
毫@@
灾民
臂@@
轧@@
轮船
风速
47/@@
K.
付清
便捷
入籍
小的
活化
炸毁
热器
病因
耀@@
蛮@@
1:15
因在
坎
希腊人
心肌
正向
罕@@
草莓
遇上
中心@@
化武
尼亞
邮戳
长处
Ban@@
体育@@
咨委会
感官
流逝
保守派
姜@@
灌
生命力
疲倦
福建
量刑
须由
驱散
289
TRA@@
三年期
十二@@
接手
摔@@
顿·@@
――
各成员国
在下
并从
2005-2006年
以为@@
发言稿
多长
嵌@@
戰
甲状腺
禁用
辣@@
480
SU@@
ora
原状
地貌
残骸
16/@@
人命
本会
村落
芳
金融业
颤抖
岳@@
投标人
晓得
暗中
本期
足联
辖下
驻在
2014/@@
心智
折叠
权重
茱@@
317
中外
争斗
勒斯
忘了
执
果树
肇@@
遏止
关系@@
溜
疫@@
美女
报废
这份
460
不得已
享@@
会被
同化
垮
学家们
捐
教育局
联席
载人
丝绸
徘徊
渍
礼堂
科·@@
脆
76@@
www.un.org/@@
别是
反向
司法权
唤起
第68/@@
业经
免得
卤@@
听觉
妮·@@
定点
幕后
比特
s.@@
sky
好玩
崎@@
桌上
氟氯化
氨
表上
1981
32.
Kal@@
上传
尼亚语
布拉
并肩
延缓
悦
惟@@
时与
疲惫
瞎@@
简报会
车轮
达卡
门前
驱回
321
99%
俾@@
参赞
斯坦福
风味
1922年
47%
CEDAW/C@@
印度人
喔
欣
比利
洛美
玻@@
西伯利亚
1987
东北亚
判罪
懒
纳尔
绳@@
计划@@
身着
近亲
284
Comm@@
主妇
堪称
复印件
抽出
教程
更少
盈
研究组
联系国
背面
野兽
wh@@
上报
代理商
工程学
年青
徽@@
牵引
目下
肥皂
营养不良
薛@@
uss@@
为我
五溴二
劝告
千百万
祥@@
转基因
醚
170@@
420
50.@@
Ku@@
bert
哲
姐
心思
拳击
提炼
施用
模范
流的
1612
信道
凝胶
埃斯@@
多变
无家可归者
滑坡
潭
笨
语言学
违宪
ati
ole
工时
暗淡
校内
点头
老实
莫尔
赛道
297
卡特@@
富含
稻米
食者
War@@
ous
入住
快要
统计@@
记录@@
Law
Sab@@
中国@@
其上
击退
句型
吃完
指着
波尔@@
胆固醇
通货
雕
Charles
书本
堵
忧
来函
督
美人
邮品
重构
阿马@@
青年@@
鼓动
8.1
停泊
安德森
心目
氨基酸
yan
深思
矮@@
25-@@
327
410
公设
叔@@
租借
都柏林
隔壁
刻意
副总裁
化疗
匙
字面
深厚
科技@@
ula
克洛@@
反常
复活节
外币
待定
时间@@
末端
设计者
丢@@
出版@@
山坡
担
指针
曼德拉
殉@@
马拉松
00多
291
DO@@
为时过早
从属
姐@@
急诊
肽
S/199@@
不合@@
募集
打入
扣减
業
省略
第七十
萨姆
面对面
1514
Dec@@
传导
悬浮
捐献
灾祸
碗@@
起了
躲在
下落不明
人也
保险业
出入境
嘴巴
开立
日落
生产量
KB
保险法
圣殿
客房
徒劳
数学家
昏
标定
汉姆
闷
颈部
館
48%
奢侈
少校
液化
耗时
诈
阿萨德
100,000
331
ac
举足轻重
全力以赴
四氯化碳
掌权
碰巧
茶叶
110.@@
Wat@@
乌尔@@
估@@
客气
幸
廷杜夫
烷@@
猛
脑部
铭
1.8
97.@@
中年
代表处
但该
凝视
厌烦
抽取
里德
亚军
爱国者
不舒服
兰人
哈马@@
旷日持久
知识库
种植园
陀@@
隐形
1.5%
ok
主审
乌兹别克斯坦@@
内有
有空
橄榄球
水土
演进
科威特国
课外
雷尔
麦当劳
Ms.
书目
出版商
岭@@
手续费
茜
2004-2007年
401
哈特
夸
如图
将以
愁
清洁@@
转录
进攻性
ild@@
tor@@
万维网
卡罗@@
希·@@
技术@@
断然
栖息
结实
uri
业内
握@@
艾尔@@
雷曼
,7@@
Dom@@
急速
方框
水井
灯塔
第43
26/@@
ier@@
五千
多名
女士们
归化
末日
稻@@
腿@@
隔离区
业局
冲洗
剧中
向性
椎@@
比尔·@@
牵
英亩
长子
鲍勃
龟
337
345
EX@@
凑@@
制片人
商船
期权
欧安会
混沌
炫耀
皮特凯恩
美化
过了
邪@@
PBC.@@
ford
传教士
安全地
明朗
联络人
达赖
BE@@
ings
一面
主教练
天主教徒
悔
晴@@
水泵
瘤@@
郎@@
Add.5
双亲
呃
多式
居住区
很久以前
星团
讷@@
难受
18/@@
乙方
塔克
无关紧要
本杰明
民权
看得
下定
商议
氨@@
端口
钦佩
阿里
Jos@@
乍@@
克里斯@@
勾结
发交
啥
好些
希腊语
泛
漫步
超新星
遵@@
可喜
寺庙
社会化
还价
交还
刹车
巴比伦
无能
栗
纪念品
肆虐
记作
辨
高低
委托人
威士忌
干脆
忧郁
禄
篮@@
继任者
苦恼
西尔@@
谐@@
迎合
金子
up
yp@@
乃是
二零零@@
嫌
布莱克
挨饿
核动力源
残障
监测@@
盗版
落下
迭@@
雏@@
Bern@@
ST/SGB/200@@
传记
入睡
加之
必备
滔@@
牧
狭义
社会党
耕
赢@@
震荡
/CRP.@@
39.@@
53/@@
伤员
偷走
建筑群
权法
椭圆
毛利
职业病
调解员
队列
36.@@
昔日
松散
温家宝
甲型
A/C.4/@@
户口
瞪@@
赌场
面上
顾问@@
432
EN@@
oul@@
仇敌
机电
籽
纳州
转至
32.@@
332
ip
代行
先生们
烧伤
税法
象棋
Inc.
PA
乙型
俄亥俄州
抱负
特拉特洛尔科
闪闪
eta
不符合
前述
单车
地道
广播@@
手势
旅游@@
0.5
322
ABC
复查
属下
并列
归功
愉悦
稽@@
虹@@
那不勒斯
334
Os@@
外衣
获选
顶尖
298
336
入门
内核
凯恩斯
庇护@@
思索
扯@@
政策性
淡化
维多利亚@@
讲坛
A/HRC/2@@
Tur@@
严酷
亚历@@
最爱
男爵
管治
财经
这不
25亿
52%
Des@@
oss@@
rom@@
分析员
新郎
紊乱
美式
耶鲁
谜@@
重启
San
TO@@
停产
圣彼得堡
小区
德鲁@@
掀起
无用
立案
缓急
諾
诸位
闲
ris
不规则
中环
分机
对话者
就学
拉德
登载
相对论
眉@@
迁离
这部
马诺河
４@@
61/@@
ON@@
Tom@@
伊尔
众议员
加拿大人
品味
廉@@
沃尔
父母亲
畅
预后
驻外
ales
公分
固执
地里
坚硬
尽情
日程表
毁掉
藉@@
血症
裸体
锥@@
324
F/@@
图画
型态
塞拉@@
想着
打出
数控
消防@@
绩
趁
凯尔
塘
增益
苷
鸽子
默许
1907年
别国
字节
探望
旷野
瑪@@
留有
纵容
美容
路由
通力
E/CN.7/@@
S/AC.@@
ass
iro
医务@@
将为
巫@@
干练
烈士
赔@@
1353
传入
妇科
弗雷
接待@@
无助
池塘
炎症
观察员国
买主
决策@@
命题
增量
新版
犯了
驾@@
56%
65/@@
eth@@
不正当
宽大
意想不到
捐赠者
暖和
盏
霍华德
507
占了
场馆
甲方
直观
赛跑
Vol@@
学问
悼念
慰@@
戴尔
民们
法兰克福
蒙古@@
鄂@@
黑客
F.
Mac
out
养活
锤
328
aa
与水
估量
充
尽责
差错
怀念
戏剧性
晚了
最快
正规化
武断
蚊子
巴巴
提振
沙拉
温带
砍
缓刑
辉@@
错了
顺着
魔术
Cast@@
光年
斯基區
有一点
虚伪
鉴
龍@@
/CONF.@@
′@@
伯利恒
内置
天性
太空@@
梅斯
清点
片刻
甚微
相关联
精华
过得
03@@
Hom@@
Inf@@
修订本
幼年
放开
网路
296
一夫多妻制
向南
扫射
涩
维系
迪克
邀请@@
顽强
香料
可乐
史无前例
巡洋舰
新华社
脚下
采掘业
SC-@@
利坚
抢救
治罪
衣着
食物权
Cam@@
不需要
巴尔
瑜伽
第54/@@
线条
订货
超额
降级
雅各@@
46%
Hy@@
ver@@
住宅区
兰特
国队
晚年
检查@@
沉降
确诊
穆
苛刻
g/@@
保佑
吊销
寸
效忠
飞速
Art@@
eo
丑@@
从这
光临
分明
崩
心意
惨重
派人
混合@@
照护
躲@@
74@@
伊科
冶金
受邀
数以
昂山
涵
破灭
纺@@
非军事区
须在
魔力
EC@@
Fr@@
Mur@@
他妈的
参与权
境遇
廖@@
弥漫
核安全
棘@@
用完
神情
第15@@
阵亡
18号
伊加特
害羞
屯门
截面
斋@@
营救
表征
逮捕证
顺差
51%
64/@@
协调@@
参差不齐
寂静
或使
所说
找我
斑点
色谱
DE
School
不顾
临到
控制区
摄取
炒@@
衡@@
音像
马达
卫生局
向北
日食
橄榄@@
Dj@@
不完全
奠@@
对流
廉
收紧
炒
韵
驰
SG@@
任教
平壤
拉尔
求得
油脂
留用
薇
Mun@@
互信
供养
保住
吉利
大专
杂交
纠缠
赎金
还款
ft
不见
奔跑
宪@@
打电话
蒙古国
采掘
4.7
S/1994
ert
本区
电能
疮
砸
荒唐
质子
Tre@@
亚语
功能性
匀支
士兵们
牛仔裤
甸
蟹
誉为
車@@
轻而易举
青岛
293
3/200@@
AH@@
仓储
供求
兼容性
壮观
惟
扑
普鲁士
走势
非官方
299
we
古兰经
武士
活在
签定
艳@@
蒲@@
��
a/@@
出访
制动
弊端
接头
斯克@@
新式
普及率
注册处
粗鲁
蹂躏
迷信
金银
间断
领队
560
南非洲
循序渐进
摘
翅
蚂蚁
请将
7.4
备案
如对
攻读
降雨量
AG@@
Jam@@
反正
夺回
指示@@
掺@@
波浪
红外线
纯属
12:@@
17/@@
Joseph
Rev.2
YouTube
主办@@
党内
国名
所含
收敛
斯基@@
炎@@
联阵
Vi@@
人事@@
失明
小提琴
旅行@@
洛·@@
疯@@
腊@@
产期
咖啡馆
狱警
答覆
索赔额
觉醒
600@@
勋爵
善治
均须
奖赏
妻@@
无阻
纸上
联储
357
ua
事前
历史@@
安的列斯
归功于
收复
核燃料
自然@@
贯@@
黄昏
tor
公交车
并发
斩@@
视察团
锋@@
难免
音响
don
台上
对数
棵树
欢喜
治疗@@
电动机
秘诀
窃@@
育龄
表层
起身
39%
och@@
报到
有条件
比勒
滨@@
立法@@
索马里人
转介
骑马
2.0
329
6/200@@
A/C.5/@@
IL@@
南大
帕斯
敢于
波段
移至
袭@@
費@@
顺从
功课
劫
喷发
宏大
州政府
影视
接收@@
甄别
與
萨米@@
語@@
说起
Sub@@
交火
会员卡
卒
地区性
市级
洗衣
海龟
矮星
窗帘
而作
ardo
不只是
出行
刑事法
孤儿院
抓获
无礼
梨@@
航道
里根
分子@@
协调局
屡次
梅托希亚
條@@
消逝
责令
DI
Dis@@
Str@@
体制性
供应量
倾
光束
光灯
布满
款待
神庙
窗子
級
绊@@
绪@@
耐用
见表@@
车型
雌
45.@@
eed
eva
凌辱
區@@
喉咙
塘@@
怨恨
攻占
译本
预测性
风能
18-@@
格尔@@
进军
A/C.6/5@@
下层
不堪@@
六年
出错
单项
姬@@
拉拉
贤@@
超重
问答
17-@@
Cre@@
WP.
ision
固态
故乡
玛利亚
阔
53%
动人
四方
控方
菲尔
高处
130万
ron
三明治
关门
卡西@@
向东
拜托
揭开
57%
Stev@@
‧
住了
剃@@
动性
彻
无声
来得
爱丁堡
禅@@
车票
2009-2010年
352
American
Op@@
乘数
偏爱
岌岌可危
拇指
袭击者
14-@@
49.@@
ius
冯·@@
式化
洗手
贝蒂
鼎@@
1874
374
class@@
二零零六年
农历
北韩
友情
国语
在任
坛@@
宵禁
请问
预设
鱼种
６@@
７@@
430
亚州
保护人
关系法
助学金
区块
同情心
思念
收成
经济学家
赢了
酬金
780
W.
下个
假说
润滑
纸币
莫里@@
isa
农用
危
尼罗
标界
義@@
自由党
���
294
346
发援会
向她
完结
戒毒
马丁·@@
s/@@
亚美尼亚人
商家
大湖
希尔@@
挨
盲
矩形
石蜡
菲尔@@
货款
贴上
406
Fil@@
TC@@
rez
华纳
呼唤
哑
多年期
宁可
播种
灯泡
阿姆@@
366
Luc@@
不实
与日俱增
散会
溃疡
盯着
苏丹人
诡@@
谊
1930年代
364
Cap@@
rop@@
不向
内衣
合作部
民主党人
没能
等效
警署
误会
Don
合作者
小船
条理
疑似
相联系
睡在
笼@@
谭@@
阿德@@
13亿
duc@@
不少于
古希腊
师生
常备
庇@@
总的说来
捧
点火
瑞克
背上
袁@@
辐射@@
龟@@
二百@@
刊@@
居留证
属实
巴库
漢@@
特斯
生物量
肩上
荣获
费力
跌倒
341
75％
LC
乐曲
会堂
卧
旅游者
池@@
这笔
25年
公有
总线
指甲
方位
旷@@
苹@@
莉莉
袜
跪@@
递增
镇上
香水
安大略省
梨
矢量
穿梭
闪光
470
纹理
Martin
不好意思
再者
得当
插件
摘录
激
禽
莫过于
试剂
越界
22/@@
24/@@
49%
Ibrahim
克族
市政厅
禁区
花了
角逐
震撼
T.
sen
中转
交界
对上
尽全力
忧伤
独裁者
称道
19:@@
Bak@@
mail
娱乐@@
目击
简而言之
纬@@
织在
议员们
176@@
41%
ver
介
內
反坦克
吉斯
徽章
挽@@
短文
走吧
风气
21@@
di@@
不均
再三
刊载
土木
坐着
好战
库尔德人
征召
河道
窗外
超声波
1.7
Abdel@@
Po@@
own
亟
卡塔尔国
原地
捆绑
接轨
转子
道格拉斯
高档
默克尔
351
中山
公私营
出面
协约
小儿
极高
相传
看他
蚁@@
通讯@@
347
509
孩童
工艺品
徽
有悖于
汉普
相爱
跑去
40亿
r.
下周
加在
夺去
宇@@
情境
挤出
接连
皱@@
绵羊
虽说
走近
送进
食堂
光碟
哮喘
增建
处女
断绝
紧接着
记号
２
355
net
光是
兵营
出生日期
前一
巴拉
德克萨斯州
筛
翔@@
赖斯
须要
Sl@@
十年期
在任何
弱者
战区
拾@@
燃烧@@
现值
病的
词组
途经
鲜艳
386
A/C.2/57/L.@@
光泽
北区
孜@@
怨
患@@
技术处
淋巴
肚@@
自来水
黃@@
３
＝
R-@@
丝·@@
几百万
熏@@
芋
芝
赌
靠着
950
CRP.2
启蒙
头盔
审计师
成语
护卫
耀
E/ICEF/@@
下议院
伙伴们
先令
受力
喘@@
彼
托运
检察署
耕@@
裔人
路透社
邮
.gov.@@
1624
348
不全
九十年代
做个
猎
记账
铁道
下半@@
克斯·@@
博尔@@
反射@@
墨水
失常
底特律
恩贾梅纳
材@@
氟氯烃
福利@@
营养素
萨米
袜子
财团
雷场
25万
344
8.2
Jabal
仍@@
夕
引出
忌@@
怎麽
科幻
糊涂
网友
脱落
贩子
踏
颁@@
,0@@
Maria
S/2012
世间
保费
公牛
击落
头顶
拐卖
梗@@
沸@@
病院
稀释
稿@@
穆尔
粉红色
调至
贞
过头
金边
集邮
75@@
CMP.@@
ym@@
害者
暂缓
本港
正交
虫病
诺维奇
送来
390
A/50
zi
公决
强盗
机队
武库
湿润
滤波
看好
程序员
管理法
25号
F-14
SD
fre@@
交纳
兴旺
勋
困难重重
大堂
审判前
最重要
死的
陨石坑
339
与此相反
囚@@
坚守
息息相关
能源部
远方
那麽
上载
务局
古柯
巧合
弗里敦
无机
汞@@
牛排
硬度
翅@@
语境
381
660
伸手
吞噬
哈尔
尖叫
旗舰
艾哈迈德
著作权
警力
计算机化
重于
356
94.@@
属地
若有
西班牙人
许许多多
请假
隙
霍姆斯
ain@@
寓@@
汇辑
油井
界别
粗略
职业者
蹄@@
韧性
PT@@
用餐
由来
盟@@
红军
缺水
药剂
FS
Ste@@
七日
书信
卡尔扎伊
射程
购物@@
采矿业
Il@@
WTO
二十六
喻
尝@@
熙
碑@@
这时候
障
高端
E/CN.15/@@
Li@@
伊斯兰堡
彰显
慈爱
承租人
牢牢
理财
男孩子
短的
赢家
越狱
....
5.6
I/WP.@@
偏僻
厘@@
巴士拉
文摘
离子体
遗传学
類
喇嘛
因人
总统府
格言
畜@@
行文
说完
趣@@
预想
Jean
inter@@
书法
來
搅@@
渗入
镇静
长篇
龍屬
40.@@
代际
剪切
即刻
吉尔@@
大叫
头等
夹克
安东尼
港岛
瘟疫
蒂·@@
B.
大阪
弧
戏院
特别@@
發@@
美观
谋杀罪
音节
＋
gh@@
从没有
劳工局
和尚
小说家
捆@@
搬
汪@@
疏远
短篇
综合征
色调
1900年
354
A/65/L.@@
ath
ig
ón
剪辑
开放性
忍耐
搭载
样板
病原体
腐烂
阿勒颇
雷诺
11/@@
az
六日
办学
化身
心跳
恐
恶人
札@@
沦@@
生子
第242
练@@
运兵车
铭@@
350万
58%
Stud@@
涉足
热能
第比利斯
520
54%
60亿
ment@@
pre@@
亚斯
化妆
去做
取胜
山姆
意料
抗原
摆放
第47/@@
,8@@
form@@
亚伦
停用
响起
橱
瘘管
让你
请求书
冰冷
受苦
咨询组
守护
帐款
极少数
游艇
葡萄糖
都灵
项链
A/HRC/WG.6/@@
EL@@
emb@@
ily
伐@@
召回
哑@@
孕育
序号
怂恿
更有
格罗@@
短时
跃
锻@@
麗@@
Saf@@
be@@
俱@@
感恩
期初
栽
监管者
肾@@
袍
Air@@
东道主
以备
无故
看望
號@@
语系
隐性
20年
Eng@@
亨特
决策权
前行
增派
岂@@
愤
扁@@
数和
材质
污泥
烟囱
细心
黑白
540
89.@@
代尔
出产
分立
堆积
外貌
惯性
才智
挣@@
贫民区
353
elle
ry@@
商业界
壁画
尘土
踪
送上
钛@@
鲍尔
鸭@@
47.@@
65.
E/CONF.@@
off@@
que
上海市
历届
干线
收割
收听
栽@@
河边
过低
驱逐舰
使用量
可言
床位
油画
番茄
过夜
鎮
黄油
46.@@
Sect.
丹尼@@
任满
喊道
地壳
实情
当家
泄
生下
西南亚
见证人
趋
返国
进制
颅@@
鹦鹉
AK@@
Sec@@
ger
og
二百
加尔
想去
求婚
番@@
里尔
ipp@@
互为
害虫
有多
本年度
本金
检视
锰
頓@@
1908年
Mod@@
ons@@
ual
β
偏袒
到场
商贸
孕期
抗争
拉赫@@
排放@@
无可
用手
芭@@
表态
霞
30年代
67%
丽莎
受托
基尼
故此
显出
显微
权责
米德
给与
袖
释出
Company
交叉@@
合营
富于
年薪
录用
憎恨
撰@@
特大
辽@@
锥
非常规
骨髓
丰度
听了
基督教徒
小节
数组
暴跌
替补
欧文
睁@@
纷争
荃湾
衰减
马德@@
Khan
Smith
便可
先天性
双眼
岂
工件
平滑
愁@@
神职
A/57/L.@@
ney
保障法
克劳
农产
抹
早于
槍
禁核试
站台
索要
联合@@
计时
香气
373
41.@@
增高
安全带
左手
扇@@
柔性
痴@@
西省
Web@@
ald
剖析
听我
惨
整套
湖区
畏
篇章
勃
梦中
欠佳
波哥大
福克
非本
伊图
光源
卡通
拉开
涵@@
自主性
辐照
重整
香港@@
驱动力
Hor@@
awa
以色列国
手腕
料理
申请@@
第51/@@
谈起
软禁
高职
不合
废气
散文
海浪
紐@@
維
红新月
补偿金
银河系
100％
188@@
de@@
esc@@
交配
天主教会
换算
热闹
燕
胡锦涛
进了
Marc@@
ve@@
之用
动身
去吧
反应@@
受教育权
名片
增速
提单
潮汐
甩@@
盛大
之角
互通
付钱
安放
平权
归根结底
泊
海床
瞬@@
祖父母
科尔多凡
纪元
367
port
协委会
审计@@
枪手
荫
诊治
防火墙
2025年
404
SL@@
ib
体性
做梦
分局
历次
复合@@
小心翼翼
尼亚人
德利
新车
机动车
母舰
沉思
炮火
背诵
Cent@@
ive
ú@@
交错
以该
传出
剧团
动量
开具
数年
赡养
140@@
343
AL
II/@@
che
从业者
军控
厨@@
大炮
好啊
毛巾
汤姆·@@
玲
肺部
華
372
Fed@@
der@@
刀具
巷
托儿
斯人
有能力
看重
福尔
说是
逼迫
N.@@
伺@@
利亞
危险@@
归来
支派
涡轮
科托努
赫·@@
門
342
349
405
63.
世界观
人时
人气
全心全意
南朝鲜
斯瓦@@
枢密院
爱滋病
职场
膛
重置
预见性
368
{\displaystyle
一.@@
峰@@
摇摇@@
碳酸@@
赡养费
页数
140万
iel@@
{@@
会所
冷淡
办公楼
在册
大连
山峰
平和
教益
直辖市
维克
轻度
镶@@
/2007
D/@@
Hay@@
了结
倫
冷酷
加德满都
垂
孤单
小费
局域网
戈登
挣钱
敌国
法塔赫
特遣
螺旋@@
501
上风
伊拉@@
叫人
向着
命中
回信
多层
密不可分
早点
比我
气动
阿拉伯@@
27/@@
56.
不见了
军阀
勘查
半衰期
橙色
洒@@
,6@@
43.@@
the@@
出道
木制
民生
民解
沙子
相识
蝶
谨@@
CD/18@@
Pan@@
上千
何塞·@@
囊括
娇@@
审计长
左侧
液相
生的
田地
着想
稀土
经理人
锚
首播
Java
何况
信使
惊恐
模特儿
法师
注册@@
物权
独特性
看过
蜜
适量
革命@@
720
劣@@
已获
排挤
架子
良机
还好
闭上
408
bu@@
会把
可耻
多年@@
引人@@
摇摆
民俗
躺
鲸鱼
,9@@
385
59/2@@
ando
ki
协联
工业区
攸关者
耍
违
359
63%
人满为患
受雇于
四日
如你
普林斯顿
社会@@
第69
评估所
较短
马丁内斯
Pat@@
后继
坚
朱利@@
消亡
盾牌
蟹@@
V.
八十
分在
利弊
去了
枪械
渗
磷酸
誓@@
长期性
饿
鸡肉
N.
PP@@
ology
削@@
奸
婚姻法
染上
江苏
源自于
片面
班子
1994-@@
67.
ood@@
下于
不和
攻击者
消费@@

1982
ST
ime
天啊
宾语
抓到
无限制
祝@@
382
公诉人
动工
拖车
督导
谣
逼供
ull@@
固化
法希尔
而行
踩
開@@
371
FO@@
ae
乙烯
傲
刺杀
咽@@
圭@@
导管
开普敦
核弹头
赛义@@
走动
陆运
300@@
Rec@@
Sou@@
a.@@
③
下水道
充裕
反响
堪
将领
忌
是以
獎@@
碟@@
阿波罗
22号
US
oug@@
失散
工业部
总站
请愿书
高斯
NGC
个人@@
中间商
卑
尼克松
措@@
提款权
敢@@
斯蒂芬
普顿
更易
深水
貌@@
7/200@@
Don@@
RP@@
出在
受托人
埃厄
拮据
本体
珍妮@@
议论
读写
贝利
1559
Jal@@
RES
v.
八.@@
合同法
婚前
底线
当地人
推销员
更广
法尔
活塞
等值
致词
酵@@
100年
Est@@
发疯
巴伦西亚
泛非
渠
赞助者
C.3/@@
DP/FPA/@@
中尉
以利
后世
喂@@
尼亞@@
尼罗河
振荡
斯特拉斯堡
穿透
聋@@
英才
览@@
让人
迟早
齊@@
Ke@@
仇@@
公证
刃
堵@@
托雷斯
抢走
教育者
混蛋
荷载
再说
利雅得
卷宗
名牌
巫师
布斯
梵@@
河岸
淑@@
稀
肿@@
腺癌
致癌
芳香
记述
comm@@
var@@
布朗@@
政治学
旱@@
权者
栏目
生态学
稠密
际@@
陶
70亿
86@@
serv@@
·斯@@
倒数
做得
奥斯
拥
拷贝
栖
穗
钓鱼
1913年
E/CN.4/Sub.2/@@
Hassan
也好
信条
加油站
婉@@
打字
欺凌
诞@@
风筝
高手
asc@@
tive
传教
再接再厉
凑
图示
如不
恋@@
欺诈@@
附于
enko
let
ze
人寿
关卡
卡塔@@
場@@
打进
放出
旱
极地
没关系
火花
米尔·@@
蓬
逃出
驱逐令
ition
发器
右侧
售卖
奶粉
审判室
工具箱
幻觉
所生
手提
摄氏度
時
畜牧
问世
霉@@
鱼雷
3.7
C.1/@@
T.@@
ust
借钱
口译员
喷
照相
用词
紧凑
自学
茎@@
越是
马铃薯
1994-1995
AN
José
席卷
征集
按其
灵敏度
点心
站不住脚
阿布
62%
Fern@@
NPT/CONF.@@
ico
保密性
内载
判分
取用
同伙
基质
幽默感
手稿
拉伸
标语
第17@@
编队
自相矛盾
K-@@
ism
伤势
喉
安德鲁
宫廷
推到
施暴者
晚宴
葡萄牙@@
蹦@@
辩说
镇定
點
黨
76.@@
AT
之子
伴有
吉拉@@
后台
和第
手们
正要
花瓶
转售
遗属
铲@@
12/@@
170万
7月份
ER
中校
公义
发来
可被
憎恶
技师
斯图@@
正由
死人
空闲
衰变
要塞
连串
475
530
7/SR.@@
元朗
已久
异构体
登机
罗马人
莉亚
隐喻
飞翔
911
依循
卑鄙
周到
境@@
抗日
杂质
栈
残害
膏@@
落后于
非农业
Bre@@
GN@@
yn
二十二
人与
伦理学
卫士
取证
安大略
悦@@
标志性
逐案
酬@@
飞去
优缺点
办事员
圣人
宅@@
安东尼奥
寿
生前
祸患
54/2@@
omb@@
不说
咪
塑胶
宗派
愈@@
或称
生物体
编成
蒋@@
购入
酬
500亿
及其他
发货
可口可乐
年间
恋人
成交
改观
晕
毅
稳妥
莫里斯
部下
锦
35年
A/CN.9/7@@
另类
她的
店员
潜水@@
茲@@
413
96.@@
anga
上门
尤指
攀登
母国
理查德·@@
给付
赛场
Jan@@
ren
作弊
挑剔
溃@@
经商
罪孽
讨
马吕斯
Win@@
下巴
情侣
查谟
毅力
選舉
Abdul@@
Lee
Park
TH@@
\@@
不解
亚瑟
假冒
共产@@
匪
夏日
摩天
无动于衷
无证
死伤
沉淀
渲染
自下而上
输出国
迟钝
358
403
下水
俄罗斯人
埃尔·@@
廉署
懈@@
无益
維爾
莎·@@
诞
走来
上届
婚后
就像
捏造
犯罪法
筛@@
置身
44.@@
ji
不适当
乃@@
从来没有
传票
公平性
冷水
基调
所见
抓紧
电信@@
画廊
袖@@
颜料
361
Int@@
下图
书上
凯利
博弈
叹@@
库尔
得对
扔掉
摊派
本分
炼油厂
老太太
通报会
重创
５
一点@@
三百
为数不多
寄生
改称
皆@@
积聚
贷项
这就是说
配对
93.@@
De
事迹
先于
全长
呕吐
拉巴特
金发
除此以外
鞍@@
2001-2010十年期
392
Camp@@
ett
丑陋
北基伍
大腿
拐
特快
离家
蕾
装入
连线
露西
CEO
Raf@@
借助于
技艺
矣
硫酸
算术
里程
62.
PH@@
体质
偏高
印刷品
水污染
海豹
液态
混杂
院士
4000
51.@@
But@@
Mark
oun
○@@
全年
巴厘岛
巴哈@@
广岛
慧@@
按下
殖@@
瓦特
讷
Kat@@
SR.
me@@
tion@@
专利权
世行
以对
作主
初始化
埋在
市议会
曲折
量度
高位
362
SP
Techn@@
克森
共鸣
咸
宿主
富兰克林
慧
我从
战火
普利@@
法属
溴二
矢@@
铎
160万
21-@@
一辈子
保险金
名下
垢
天哪
字眼
实验性
尾声
恭
昏迷
甸@@
缴@@
胁@@
蝎@@
轻视
363
369
AC.@@
催生
受益国
尔曼
怪异
法军
法律@@
计算@@
非洲@@
24号
383
Nik@@
享年
嵌入式
戈·@@
探矿
搏
星等
智商
点半
辩论会
97%
A/CN.4/@@
Kor@@
Raj@@
bur@@
关乎
内乱
减为
庭院
性状
找回
放大器
新兵
泉水
浑@@
用了
留学生
缉@@
计画
转诊
酰胺
银行@@
A/62
Pi@@
oph@@
二十三
冗余
受人
地铁站
珊
立宪
舰艇
蓄
逛
Alma
不服
伙伴国
尼亚拉
第A
自律
记名
辊
限量
A/63/L.@@
DP
再现
列在
剩@@
国是
坠
定出
常被
庸@@
开阔
易事
河里
矿井
２００@@
减慢
叮@@
澳元
第54/2@@
纾@@
轻罪
里奇
90.@@
Andre@@
CER
H.@@
拉里
氯化萘
轮到
那时候
间内
麻省
僵硬
套房
想方设法
抗性
水星
浮现
穆巴拉克
还可
远大
野餐
；@@
No@@
冰原
北面
单体
卸@@
开花
科隆
臀部
/2008
va
上期
卸
审评委
山西
巡航
应负
技合
新法
点数
爬行
聯賽
达累斯萨拉姆
酱@@
NASA
使徒
妨害
巫术
投机@@
朋@@
疯了
附着
Hel@@
令人不安
早饭
烹调
皮埃尔
钢板
雅温得
14:@@
E/2010
It@@
ative
印地@@
参考@@
曲目
有种
流行@@
特兰
罗姆族
蝙蝠
诺斯
闪耀
馆长
马萨诸塞州
1910年
389
61/2@@
su@@
亿万
体格
常住
改派
欧佩克
温馨
眼球
蜂
377
402
L/@@
万多
不太可能
分散@@
布尼亚
拜占庭
撕裂
收看
未使用
泰米尔
洋葱
淫
萨格勒布
gl@@
充资
君子
咳
多项式
安抚
干了
循@@
景区
纳库
置换
胞@@
观察者
邓小平
采行
体能
屏蔽
惜
执勤
抚
最易
盔
碱性
等式
379
Luis
低落
合署
哈里里
埃米尔
封装
柠檬@@
皮埃尔·@@
谕
部和
阿拉
407
640
Has@@
ega
lin@@
吸烟者
处理@@
好感
拘留者
毯子
演绎
物色
画像
荷兰语
进取
逃税
416
V/@@
茅斯
药用
西方人
视而不见
阿尔
1-3
411
4－@@
PLC
olog@@
丢掉
主编
喷洒
宰
将此
尊贵
得来
思想家
急忙
打仗
流放
滨
透镜
通缉
412
Dem@@
列述
制衡
妇女@@
微克
机型
模块化
演艺
無@@
罐头
Nic@@
一旁
仆@@
兰语
军政府
午
卡比拉
可谓
家畜
寄生虫
得益
是要
木板
生死
疆@@
看书
花生
转弯
逸@@
17世纪
Van
俱樂部
失落
妇女节
座椅
性爱
枪管
赔偿@@
辟
釜山
66%
公司法
减除
大通
头巾
征兆
档案馆
由衷
糟@@
能干
草药
马·@@
/2001
Kim
ima
令人鼓舞
出生地
到时
單@@
塔什干
复国
或许是
戴维
抚养费
拾
生态@@
科比
第42
藏匿
越大
这些年来
错失
飘
9万
A1
Ni@@
SAT
冥想
副手
叙利亚人
填妥
大帝
小规模
比他
温泉
阶梯
106.@@
Twitter
不言而喻
传言
压倒性
宣战
打赌
知情权
重审
颠@@
1915年
2002/2@@
8.3
些@@
凤
可获
归为
数月
1911
488
交易商
励@@
北角
原子@@
变体
嗜@@
寡
对不
服务局
本部
椰@@
汽
消散
煎@@
犹太@@
經@@
萃取
血浆
辅助性
逐个
采伐
E/CN.4/1999
企鹅
宝座
德斯@@
掳@@
笛@@
身在
CS
Carlos
Ga@@
pol@@
买入
划一
奥克兰
安全套
慢性病
拼
教士
晃@@
流泪
球菌
艾德
谢尔@@
辣椒
酵母
里奥
随处
页@@
Sand@@
仑
布莱恩
当心
收受
特此
默默
2013/@@
RA
sa
台词
火鸡
犯法
衛@@
询
,5@@
1.5@@
A/59/2@@
养分
孔子
布加勒斯特
年期
弗朗西斯
所欠
文具
星体
欣然
毛衣
特鲁@@
视窗
调派
那座
钟头
默示
400多
490
56/2@@
AM
Trans@@
ator
一行
协调性
受援
婚约
左派
果然
湄公河
续集
腰带
艰辛
2号
C.2/@@
中队
冕
呈件
天真
寂
射手
巴勒莫
深造
狂风
画作
空缺率
绑@@
编辑器
诱人
Tim@@
ode
原生
实验@@
当它
揭发
機場
油墨
羞愧
贸易@@
远未
陪审员
陵@@
.c@@
13:@@
不平
克林@@
威廉斯
寇@@
悉@@
生殖@@
重度
非人道
1906年
603
Nav@@
lin
uel
umm@@
厥
币@@
或多或少
操作员
猪笼草
用者
联卢
自家
资源部
飞来
unt@@
保姆
停了
博士@@
宽阔
平方英里
得去
暑
正确地
消耗量
白血病
算出
荷尔蒙
萨·@@
50年代
Say@@
án
亨利@@
数以百计
烫@@
疑惑
眷@@
破损
罗姆@@
裹@@
谎@@
逆差
66/@@
XXI
一站式
主流化
债务国
動
对照组
投手
拉姆@@
旧约
有利可图
林区
瑕疵
言行
遍@@
Lab@@
Maz@@
Tu@@
gar@@
东海
兔@@
刘
吵架
姚明
山丘
纤维素
贮@@
阴暗
隐患
下限
体温
十字@@
拓@@
状语
管线
蝶@@
评委
追寻
选秀
fa@@
tic
中区
十分之一
展品
書@@
睹
走得
通讯社
雨量
高新
391
4.8
Kab@@
哥伦布
回路
并没
幼虫
来访者
畜
看管
调任
阴茎
1/Add.1
4,000
gen@@
伊利诺伊
全数
决定权
分给
可靠地
坪
源性
英俊
预支
Rah@@
喷雾
妓院
对账
履历
开源
枕头
残割
皱纹
A/62/2@@
XV@@
乌兹别克
公债
口感
後@@
果是
横滨
竟@@
荫@@
說
记忆力
轨@@
达西
马格@@
倒霉
公关
周密
幻
插图
摆动
核电
病学
笨@@
纵火
罪责
警示
诬@@
豪斯
费尔南@@
逐
钢笔
關係
-2
62/@@
Mut@@
事由
偷渡
十五日
双手
布料
收件人
民有
永生
电气化
自大
重开
面纱
376
42.@@
CP.
oub@@
rec@@
丹·@@
入口处
兹·@@
分离@@
卡洛@@
原名
反面
发怒
尺@@
店主
打着
时而
紀
组织@@
而为
聚居地
辱骂
Mi@@
二日
加拉@@
帮他
折算
电场
着迷
碘
萨克斯坦
贵宾
通量
:00@@
其事
单人
地平线
埋设
快餐
打来
VIII
临界@@
双层
常年
技经
担保@@
拉法
掷@@
新泽西州
普惠制
曼彻斯特
究
预知
3/Add.1
MP
Mans@@
SR@@
Sn@@
乖@@
候审
劃
图纸
外星人
学系
害性
平衡@@
明知
油轮
盘点
萨克
迁入
GPS
ington
正本
电波
第XV@@
财务处
2010-2013年
Mark@@
Tra@@
ami
res
冠状
去向
发抖
嫁@@
斯利
期期
消遣
记下
贴在
通胀率
重写
驻守
1916年
公车
多么的
所有人
支线
柱子
案卷
殖民者
氰@@
精选
脸部
苔@@
连通性
2000－@@
456
awi
切地
品格
年数
无奈
有如
痛惜
纬
解密
里拉
阶@@
510
Ari@@
mi
下行
亩
制卡
勘测
射出
屁
已于
恼
截获
所选
承保
第X@@
精品
能耗
蚊@@
装在
西德
钞
0.7％
全能
八日
出动
募@@
夫特
最先进
编造
脂肪酸
苍蝇
茲
西装
迪斯尼
鹅
445
Zh@@
fer@@
hat
剔除
助人
复印
套装
学率
廣@@
整治
礼拜@@
莱恩
越多
雙@@
霍尔@@
鲨
180万
IM
假的
别名
好比
找不到
格莱
玷污
瘾
礁@@
维特
萤@@
车身
透明性
造影
//www.un@@
12:00
习近平
利纳
刷新
北海
平方英尺
弗吉尼亚
杉
看台
秦
管理器
約
线圈
酝酿
1,500
1月份
Mill@@
价款
俗称
兑换率
凭单
球会
米亚
芽@@
蛙
钢管
飞到
2003/2@@
伍
内蒙古
印第安@@
宣
撞到
斯山
看的
绑定
警队
隔开
非核
22-@@
Kan@@
介乎
光亮
军费
哨@@
悬殊
摄影机
格鲁
河南
笼子
醛
驱赶
魏
503
New@@
上天
乱伦
伯恩
兰·@@
往上
海鲜
第62/208
被困
贸易商
26号
61.
Bon@@
Kafr
勘@@
天鹅
极低
较多
110万
16:@@
485
FP@@
Mou@@
任天堂
伊利
关於
升格
合作署
后退
拉丁文
流露
液晶
深渊
瓦德
觉察
近些
通则
酰@@
阳台
512
ICC@@
共谋
吉·@@
堕@@
投下
报称
数十万
沐浴
湘@@
素材
茫
费时
迫性
/2000
426
受惠
各类
和约
大方
熄灭
相似性
管局
谦虚
跳动
800@@
B/@@
反应器
女巫
嫁妆
杜马
面条
黑塞哥
上帝军
出手
卡纳@@
变质
恤
救济金
晴
脱水
诺基亚
Ka@@
P/C@@
ef
eng
僵@@
公路网
内塔尼亚胡
农地
变了
奶牛
守法
師
柠檬
檀@@
相一致
足协
还押
饭菜
龙卷风
1905年
Hol@@
之列
公开赛
删@@
堤@@
崖
杠
沉浸
灌注
纳尔逊
面世
齐心协力
龍
428
61%
Sul@@
不知不觉
乙烷
关连
卫生部长
噩梦
太空船
战地
挡住
接见
攻击性
比方说
法第
第一百零@@
能对
词义
选择权
雇
風@@
龄@@
tw@@
同谋
射杀
小镇
工匠
扎实
接生
没用
矿物质
薩
血性
跳过
运抵
迪尔
1904年
A/64/L.@@
Bay@@
Microsoft
aka
ational
付诸实施
宇航
官邸
审判权
意大利人
正轨
漂浮
着装
蚕@@
轮子
15:@@
1：@@
409
79.@@
LU@@
世界级
中國
任内
作过
克鲁斯
决算
反省
存储器
捣@@
普林@@
申领
结识
行贿
认明
跳水
铵
HRI/@@
on-@@
专家组
书架
入球
共事
埃里@@
开发区
德雷@@
求学
白雪
翰
育有
脱贫
薯
運動會
颜
64%
64.
68%
凝固
女郎
妓
接地
旺盛
有增无减
竖
第53/2@@
联尼
衍生物
长出
Coun@@
ection
ral
}}
也会
傀儡
兰州
卡斯特罗
复方
蕴含
败坏
郑重
驾驭
2014-@@
415
Jun@@
Nab@@
凯文
到此
区域化
印有
各省
喘
布里
往事
忘掉
抗旱
拉登
拍卖@@
暮@@
气泡
田间
疯子
盼
谐
质询
Dep@@
俱
儒家
切除术
南半球
受聘
场上
接通
本案
洽谈
渗漏
苦苦
萌@@
规范化
送去
417
A/C.3/62/L.@@
iri
主修
五.@@
切削
创办人
南面
呈报
拟出
特例
资料袋
辅导员
45/@@
59.
E/CN.15@@
Sel@@
_{@@
人知
叹息
抵挡
模糊不清
流氓
看清
索赔@@
西贡
问你
鳄鱼
2011-2012年
398
5/
Bab@@
Kon@@
old@@
亲友
何人
推崇
来电
等价
表团
赢利
马修
1909年
250@@
486
Mohammad
ader
义务@@
交通部
可按
慎@@
打碎
橄榄
活动者
狡猾
登堡
相撞
第一〇@@
組織
聚类
骨干
72%
BP
之意
佣
印章
国库
坏了
小贩
平日
抒@@
樱@@
汀@@
百老汇
见识
贸易部
较小
驳@@
202@@
Office
⑶
上瘾
亡者
南基伍
姑
富豪
拆解
民调
皮质
监督员
胜诉
节食
雅克
388
565
95.@@
Tom
上部
佛罗伦萨
候任
废旧
所有制
曲子
牟利
用电
警长
马利@@
马普托
黄河
3.5%
9.1
C.5/@@
ona
一堂
克莱
分离主义
医疗@@
半夜
威廉@@
平地
房东
留守
缕
象牙
郊野
長
1-2
Association
Id@@
何地
僧侣
发运
将从
有区别
转速
钙@@
395
502
Oli@@
上车
交接
务虚会
君王
吵@@
喋@@
开往
径向
无休止
村里
清华
缴获
聯
胚@@
花样
避
锥体
阻断
饵
E/2006/@@
Han@@
Nd@@
分配数
南瓜
取暖
媒@@
安息日
就象
广度
微风
拉斯维加斯
拉萨
政治@@
日出
牛仔
特设局
证言
评议
课文
高价
兄弟会
名言
寺院
录影带
抱着
洲际
约旦河
酸酯
378
Bra@@
Bus@@
Mul@@
停职
前端
帅@@
木炭
爱护
盘问
筋@@
维纳
装船
郁
附属于
1983
605
DC-@@
XXVI
app@@
ards
习惯于
南区
原产地
嘎@@
如实
接受者
标注
毒气
派发
痊愈
皮带
讲演
铁矿
集中营
音樂
Mis@@
RD@@
er-@@
ette
保护者
值班
冥@@
到新
报告@@
挪威@@
精确度
荒
问她
64/2@@
Antonio
inf@@
再造
十日
古巴人
可作
如需
委员们
干吗
或用
海尔
网民
耐力
重任
重负
银色
1/
414
Gold@@
ese
二十多
五年期
体贴
刹@@
北纬
报社
编译器
跨过
透了
鸭子
乔丹
刚度
劳伦斯
意见书
救出
汇丰
莫拉@@
锂
rid@@
上诉人
丧
凳
努美阿
棕榈@@
水解
生来
用上
登记簿
算了
通俗
als
专业性
保有权
就医
斯洛@@
新高
歉意
歷史
由於
第77
苏黎世
蜡
397
cont@@
č@@
乔布斯
仰
其三
到下
勿
天皇
尔巴@@
愚昧
摇晃
旗国
本系统
汉密尔顿
琳娜
耻@@
钻探
1503
乘车
出局
呈文
哈桑
奢华
孤身
放学
星级
杂草
狠狠
猴@@
盗
稍有
苯丙胺
*@@
505
一段时间
凤凰
彩票
格莱@@
波斯湾
甜点
空地
臭名昭著
较弱
15万
HT@@
LED
关节炎
奄@@
弄清楚
战国
掌声
日光
晃
有机物
红树林
赞誉
适龄
通路
那段
雄厚
71%
Mont@@
丰收
光照
含糊不清
支持率
框@@
毒物
派任
演奏@@
瓦利@@
石器
舞者
艰@@
英國
褐@@
迷宫
首饰
2/
乘以
入场
基底
救了
晨
最先
柔
每一
灵敏
热忱
迦
POPS/COP.@@
enz@@
之路
从那时
卡里@@
吻@@
國際@@
手提@@
打架
梵蒂冈
空虚
第45
缓减
裁判@@
迪斯
靴
436
一俟
倒下
务署
投向
投诉人
未受
积蓄
轻率
还会
10:00－
2008/09年度
Mot@@
Tri@@
iPhone
亮点
代管
即在
吸食
奈尔
推力
明信片
构筑
楼层
泼@@
瓦尔德
胜于
费利@@
赔偿额
还得
邱@@
10年
506
Ann@@
Cas@@
Pu@@
也不例外
台灣
展览@@
拖到
汉城
游离
熙@@
自闭症
艾伯@@
花卉
调查队
趋同
56.@@
ES
NGO
O/@@
与之
各处
在下列
城内
察看
打听
掘@@
月光
照样
绘
而使
西红柿
金刚石
食谱
16号
A/61/2@@
Der@@
imana
上半@@
供需
分界线
卿
噶@@
增殖
威德
孵@@
尔克
岗@@
打动
撞上
登山
绳索
领导权
2.9
Ky@@
PV@@
SV@@
ink@@
孵化
定下
无缝
评论@@
调查者
身影
迷恋
阿鲁巴
预售
13/@@
Air
States
ello
á
三十日
上为
优越性
减让
在此@@
复原力
审阅
指示性
热力学
王储
穷困
空的
经文
蒂娜
議@@
辅以
477
Lev@@
PM@@
SW@@
仔@@
小丑
战败
改叙
毒药
河内
百分之百
科伦坡
美景
角膜
还愿
进士
饶
骗局
2008-2013年
443
487
55.@@
EA-6B
侨@@
团结@@
授权@@
机身
来宾
毛发
羊群
肆无忌惮
豫
赔款
One
Ul@@
乞丐
些许
修剪
卡萨@@
叫作
坏人
大有@@
定语
接吻
无处不在
班次
电容
维吾@@
聋
赤
前次
合唱团
暑期
派生
破旧
米拉
翌年
阻抗
零售@@
霍夫
18:@@
S/2013
不可靠
亚利桑那州
吉布@@
嚷
夜总会
大队
密西西比@@
恶作剧
拦@@
核计划
甘蔗
粪@@
纯度
花粉
菊
起草@@
起重机
防护@@
1/3
384
433
GB
ms
orn@@
位元
依托
惰性
欣喜
特罗@@
管理费
老式
迎
造访
11亿
14亿
437
Soci@@
下有
不可抗力
不稳定性
供暖
凉爽
剧集
受影响
向西
地區
多元性
平等性
式样
性情
流派
清扫
爽@@
请向
辛普森
鹤
393
83%
96%
A/59/L.@@
DT@@
O'@@
PL
中叶
代词
填料
妄
存续
工作天
戊@@
时能
此信
法律界
甘地
祂@@
空间局
粘土
螺纹
观测站
酚@@
闲置
驯@@
2006-2010年
4/Add.1
A/58/2@@
CE
NG@@
不准
以示
你好
多普勒
怎@@
教唆
法罗群岛
流星
竖@@
表单
量表
颠倒
颤
442
580
开朗
感性
携带者
溫@@
苏州
调查处
高点
718
A/63/2@@
冷却@@
国道
多用途
宵
店里
德堡
打猎
拉动
拷打
智者
滋味
相对@@
羞耻
遣
镀
525
arb@@
副司长
受命
可与
同业
在此之后
戒备
把门
橡@@
流畅
火箭@@
灶
电子版
百科全书
盐类
绝佳
缅@@
自已
造价
镶嵌
难者
非婚生
风机
鯰
6－@@
82%
Mr.@@
三百@@
上以
准将
合剂
国歌
性和
愈加
月刊
杉@@
聖
能用
船厂
英特尔
距@@
1,6@@
2016
ect
人行道
听审
在说
搜救
斯市
昼夜
病了
结壳
萨达姆
衬衣
财务科
达拉斯
高超
A/C.@@
VA
its
不下
会合
保护令
创业者
劇
回收率
本意
类比
面体
451
MD@@
intern@@
中大
乌龟
位子
元帅
可口
失学
开明
疫
盎@@
英美
阿卜@@
Ca@@
Institute
Naqurah
何等
发热
回落
奋力
宾夕法尼亚州
年头
特委会
犯错
脱节
14/@@
20/@@
86%
伤痕
副院长
唉
塞特
布鲁克林
师傅
据悉
热潮
示意
葵
读完
通勤
钉子
阿族
A/C.2/60
Nas@@
P/L.@@
with
yah
亚于
写到
冤@@
出人意料
务员
动因
好奇心
妇女们
安娜·@@
应许
投射
时事
时宜
朝廷
母体
水性
涛
灭火
环保署
瑞德
离婚@@
米奇
美的
诱拐
435
CRP.3
交代
仓促
代顿
倾销
内分泌
前文
安息
改革@@
散居
浮游
退缩
阿特拉斯
附在
非军事
10多
Lor@@
一般说来
优待
假想
剧作家
哈里斯
国和
大增
娅·@@
少许
有点儿
贯
酮@@
阿片
1200
423
513
Jack
Nat@@
下辖
升降机
婴儿@@
对称性
巴尼
布卡武
有两
草率
葵@@
蚀@@
颊
444
92.@@
aki
仅次于
刚果人
努斯
圣洁
夜班
始建于
智囊团
萨拉
面目
1572
70万
iew
iii
ush
丹麦@@
供货
全港
因于
坚果
怡@@
拉马拉
新手
日本@@
注资
照着
石墨
说着
选举@@
靡
78%
Goo@@
Inspira
以致于
卜拉希米
吉米
头目
威斯康@@
孔径
挑战@@
文科
核子
河口
爆炸@@
生物圈
童兵
简陋
请洽
赞许
达标
首映
高峰期
鲁莽
466
80亿
买进
亨
克曼
咕@@
很容易
改划
枯燥
残留物
累了
飞快
ays
丹佛
之举
伊利@@
住家
变种
合一
垒@@
文号
格利@@
相似之处
讨价
铁路网
77.@@
9.2
Rober@@
SM
oa
人年
伊万@@
分处
合共
喷泉
塔吉克
天主
尼古拉
很低
惟有
打乱
接收器
时日
燃气
特别法
老爸
自杀式
菠@@
起诉@@
高龄
鼓起
/2007/@@
NA
初衷
德利@@
成文法
烯
统一性
荒凉
费尔
422
52.@@
Henry
Sur@@
ros@@
不喜欢
以待
伯明翰
勘察
愤慨
爵
磋商会
第87
统称
联危
迷路
35分
A/AC.96/@@
Nations
Open@@
Sant@@
丁·@@
为你
于世
助者
卡路里
工资@@
數
沙漠化
眠@@
蒸
裕
阿卡@@
917
A/C.1/60
City
__@@
○
不得在
参观者
屡
弱小
当值
待决
恶毒
爵士乐
耶尔
腺炎
螺栓
396
Add.6
不分
九日
写明
净值
发指
弗吉尼亚州
放了
斯泰@@
死神
行情
裁缝
謝@@
评论员
达利
马特
545
73%
不道德
利比里亚人
垮台
岸边
沈阳
活的
相距
磺@@
蒙德
陈述@@
1－@@
465
BA@@
du
ublic
ury
历任
姆斯@@
布·@@
扑灭
打倒
核军备
第68/2@@
职守
迥@@
适得其反
非物质
394
434
521
570
aga
乌萨马·本·拉丹
安东@@
无歧视
曝@@
焉
维基
脑筋
荷兰@@
记在
453
Christ@@
ICCD/CRIC
Vic@@
XXIX
go
修斯
分词
勞@@
卵巢
品德
外侧
尼基
恳请
惑@@
法学会
流行性
科纳
结石
美貌
膀胱
裕@@
迁到
50.
FCCC/@@
acc@@
休战
劝阻
反种族
硕@@
罢免
远期
邊@@
88.@@
Mit@@
不合法
严禁
坠落
并给
攻打
模态
老百姓
趣味
配制
零售业
靖
A/57/2@@
E/CN.3/@@
Hab@@
・@@
中东欧
从速
伏击
凌驾
刚性
力所能及
厌
挥霍
数据源
欺负
款者
赐予
铀@@
30,000
Um@@
West@@
ering
od
为时
二A
保单
头疼
如意
应否
投票率
教条
核生化
紅@@
胶片
蒙上
陶器
2004/05年
418
421
Had@@
始终如一
孩儿
居民点
巡演
总司令
把戏
捞@@
无名
权势
比分
环礁
瓷器
白痴
纸质
织为
蜗牛
边形
阿卜杜拉·@@
陀
58.
IE
主线
分类法
压低
四.@@
塑料袋
持平
本剧
枫@@
花儿
讯@@
贺
路人
60.
Ast@@
OzL.Pro.@@
Sus@@
总产值
意指
政策局
更低
海绵
计价
调查@@
货柜
锯
驰@@
10月份
K.@@
不通
冰山
准确度
可·@@
放任
槟@@
舵
萎@@
讨好
谦卑
足球會
逾越
难堪
450万
al-Sha'b
unc@@
仅为
大主教
执教
推土机
推算
林匹克運動會
狂欢
答卷
辜负
迅@@
重担
Bir@@
oon
下院
伯里
公墓
分类@@
制导
助产
失眠
常态
正当性
点名
献上
耳机
金正日
革命性
610
中层
以多
分流
喇叭
器皿
大地震
失事
弃置
房客
牌子
特意
节俭
贷方
量级
风度
/2006/@@
439
A/62/7@@
A/C.2/66/L.@@
E/AC.@@
HTML
丘吉尔
又是
外向
拖拉机
排行
炮塔
琪@@
订本
踢球
集中@@
面值
骨质
504
Kn@@
Sid@@
Street
佩斯
印记
字幕
工事
抄
拖网
焰
生平
着急
稳态
要地
越高
阿布扎比
高估
/2003
100亿
478
77%
Ben
Cro@@
S/2014/@@
Sin@@
共生
反犹太主义
奉命
楼下
榜首
樱桃
累累
耽误
轧
风光
66.
E/2013
Gro@@
低调
修筑
债权国
兆瓦
内含
回旋
将有
工人党
戴维@@
房地@@
普·@@
来年
椭圆形
福尔@@
美联社
营业额
蝇
要紧
躲藏
通奸
93%
si
妃
宽敞
巴西利亚
心头
悖论
机翼
沙姆沙伊赫
玛·@@
畏@@
罪人
裁武
贴近
鐵
铁矿石
音调
预告
预处理
/C/@@
两难
冷藏
化学家
喧@@
家门
工具@@
易燃
盐酸
自转
菜肴
行吗
1，@@
419
Bat@@
二世
分析家
卫生间
张开
当着
折射
敞@@
树干
正对
水电站
点子
特异性
缴交
译者
轰动
除掉
飛@@
驻军
427
557
佩尔@@
同感
图谋
圣赫勒拿
复印机
带进
手写
汇兑
泰坦尼克号
潜意识
盒@@
结构@@
自以为
茂
街市
闻到
骨架
457
492
701
Ot@@
乞讨
失利
导体
巴斯@@
橡皮
皈依
空难
紧随
背包
西奥@@
话说
诵
74%
92%
González
Ju@@
上扬
不作
乎@@
份量
关照
厚厚
噪
大埔
电解
碳氢化
维基百科
背心
苏军
语种
越野
辱
音乐剧
默默@@
6000
°C
事处
人性化
倚@@
围巾
在我看来
坠@@
小溪
居留权
已在
手无寸铁
机密性
沃尔夫
留心
砾
税额
缆
肖像
贷款人
迹@@
阿扎@@
难民@@
黯淡
399
447
oy
停电
八十年代
制造厂
劲@@
可达
安南
带去
微微
执行长
探员
摄入量
核电厂
缠绕
葡@@
逗@@
飞过
鹅@@
860
dro@@
ili
不易
主耶稣
凯蒂
恨@@
扩张@@
档@@
狮子@@
究@@
第七十六
贝尼@@
运量
land@@
∕
其是
开场
得票
手铐
指在
比的
物中
缪@@
舅@@
褒@@
责任@@
鄙视
酌@@
马歇尔
骑士团
伊-@@
健身房
免责
后人
宫颈癌
弗雷德·@@
扶助
敏感度
无耻
普世
科特@@
维拉@@
联络员
赵
靴子
麻痹
537
A/58/L.@@
A/C.1/65/L.@@
不含
位於
党人
分类账
受限制
寄予
弊
抗震
电脑化
石灰@@
谢尔盖@@
迟延
道具
雪橇
骑车
高能
100.@@
454
G/@@
Jer@@
Le
SPLOS/@@
么@@
交响
伤痛
僵化
先天
切勿
利未
包装@@
博物館
史前
应按照
掩
救护
是次
温度计
滤
那间
附庸
2000年代
22:@@
Pop@@
p.
云层
军衔
划归
县治
巷@@
微乎其微
查到
犹豫不决
甜美
真好
硬性
脚踏@@
跟在
长们
马力
髓@@
/2004
498
Co.
We
yt@@
为难
休养
划入
地面站
弘扬
棺材
电子化
矿场
科技署
第七十一
该死的
赫斯渥
辽阔
违法者
音量
Abb@@
osh@@
万象
受挫
妹@@
布设
捡@@
桂
球形
琳达
电视@@
联结
赚@@
rich
伊始
摄影@@
电讯@@
蒸馏
S/AC.26/@@
ec
供职
净增
前哨
开战
德克@@
排污
栗@@
私营化
贫乏
迷们
面料
首当其冲
164@@
57.@@
8/SR.@@
一席之地
一看
信息学
劳拉
啮@@
在哪
安迪
水事
相隔
药剂师
警察署
Aut@@
BR@@
ES-10
Jab@@
LGBT
Ts@@
oto
作曲
地势
填海
大不
專@@
接受@@
斯皮@@
浙江省
海法
绒@@
考古学家
诱使
贴现率
餐具
马丁@@
601
伤病
冲浪
昆
梦境
汽车@@
种植@@
颂
领馆
食性
166@@
448
53.@@
D节
E﻿
印本
啦@@
多尔
愈演愈烈
明治
最小化
清水
破伤风
Daniel
倍增
出兵
努尔
振作
毋@@
游击
白金
绝食
美洲狮
苏丹国
苔丝
魚@@
1.9
General
L1
cc@@
rag@@
亚马@@
佐夫
依附
前作
各部
基多
怕@@
扬·@@
法官们
社论
育种
融洽
言.
订出
51/2@@
Mary
ship
vol@@
一人
不景气
于众
升为
基因@@
大部份
宽广
心爱
慈悲
浊
维生素A
胃口
臺@@
茄@@
血流
调频
门上
须向
128.@@
2005/2@@
66.@@
A/CONF.2@@
H-@@
V.@@
ois
写法
击毙
咄@@
游戏机
潜入
离心@@
粤@@
罗安达
贱
达斯
青红皂白
９@@
1984
9/SR.@@
A/C.3/60
erson
介词
受难者
嘲弄
懊@@
暂时性
本领
查清
砌@@
硫酸@@
管家
自有
补选
邮递
0.00@@
27号
Mir@@
air
den
y-@@
代之以
伺服
创新型
匆@@
卢布
受虐待
同年
太平
救治
有一次
果园
淋
深色
焚@@
站的
魄
黑板
2000/2@@
446
AG
JP
丹尼尔·@@
已有
快车
手脚
木质
梢
税制
约克
绰号
郡@@
2003-2004年
2003/04年
555
Ant@@
出口量
发行@@
咒
射频
山脈
惩@@
戴维·@@
搞定
新婚
澤@@
珥
维吉@@
赌注
路易@@
遮盖
/2002
1,7@@
1901年
1979
76%
P.1
ito
l'@@
ox@@
㈧
事发
产卵
伦斯
克莱斯勒
写上
出处
加泰罗尼亚
同级
国与国
城门
希奇
建设@@
慕
掷
搬家
料到
节第
荒野
解职
458
Bet@@
三点
亚历山大·@@
会法
佩林达巴
保安@@
出战
参战
均由
星光
有数
栅
祭祀
翌日
腓@@
雷拉
不足为奇
为的
农民工
墨西哥湾
摧残
效性
比值
色谱法
葡语
阻燃
50多
A/65/7@@
El-@@
Nov@@
乔治亚
储
到家
合会
型式
怀里
最高层
未曾
棍@@
激光器
雇工
麻醉@@
175@@
469
不去
不对称
乌鸦
佬
划线
匿@@
报告书
果子
洋洋
渺茫
缺血
胡萝卜
说不定
软骨
Mb@@
har
二极管
外派
执行者
抽查
核酸
牺牲品
篡改
纽
衰弱
赎@@
11:30
1390
MC
NT@@
bin
异步
椒@@
比·@@
涨幅
珊@@
要务
1986
497
MB
万圣节
不仅如此
凋亡
医生们
发泄
吏
品位
奥古@@
希德
惊吓
打球
拘束
敲门
是说
极权
校外
桔@@
玩弄
病媒
盯@@
督促
箭头
花瓣
诺曼
运动场
非但
87%
App@@
不绝
代言人
八溴二
市面
抑制剂
携@@
暴发
板球
社会性
自满
青铜
11月份
3.8
X-@@
不定期
不愉快
位列
可贵
布伦@@
推展
查封
沉闷
澳大利亚人
素养
终将
统计处
蘑菇
衡平
边界线
配量
里夫
马里兰州
16亿
4/
EB.@@
Paul@@
fil@@
lie
免疫@@
多党
孢子
审查@@
屯@@
房屋署
报盘
涂抹
消退
的人
424
429
483
GO@@
State
ura@@
丰盛
六点
利润率
售货员
密歇根
帧
强权
管子
致富
观察家
陈列
鬼魂
620
AWG@@
FCCC/SBI/@@
UTC
ff
二手@@
内科
受贿
变态
围着
客观地
拳头
杰克·@@
林迪西
电击
真爱
项目表
85@@
CN-235
GIS
不高
产儿
僵尸
克特
号的
合作区
屑@@
手术@@
抑或
环流
相悖
葛
购买者
过份
oud
事务厅
尉
布赖@@
彭
悬
摩根士丹利
玛雅
表皮
马匹
FA
不为
减债
参半
受精
咖啡因
嗅觉
多多
很高兴
新约
特拉维夫
猿
码器
署于
议请
谨慎地
重生
限值
障@@
储层
初选
宗教@@
抗药性
收货人
杰作
物理@@
绝地
芯@@
萃
被保险人
要好
诀窍
路过
频频
2010号
A/C.2/68/L.@@
that
仍需
复杂度
就读于
岳
幻灯片
强奸罪
救赎
更早
科维奇
罗森
耐烦
胡安·@@
视乎
质地
跌至
难怪
iki
oor
受益@@
另有
展期
法理
畅通
签下
赎罪
驼@@
高效地
459
Android
Riv@@
ios
ye
交流@@
仇
剥离
季刊
居家
帕特@@
微薄
德兰
急切
投保人
挥发性
操场
波形
注射液
游玩
环发
着火
职称
赫特
酸奶
音乐节
马蒂@@
Tall
iro@@
ook@@
′
不包括
仿
出院
利文
变化@@
后院
在地
坟@@
宛@@
廉洁
抗菌
探寻
新奇
旋转翼
晴朗
灵性
特赦
电量
脚趾
谐波
逆境
配乐
须知
1,8@@
不得对
举重
但当
低压
再婚
声响
多糖
当上
折中
毒剂
渔具
矮人
缔@@
蠢
预选
４
41/213
6/Add.1
CPU
Energ@@
Oc@@
ins@@
oni
低声
信箱
利特
加速度
医保
均匀@@
岸上
成名
粘度
老大
而过
补偿@@
阿斯马拉
须有
预估
484
491
54.@@
A/61/L.@@
IB@@
Mich@@
arn@@
e.@@
之战
公益@@
拉特
控罪
无忧
日文
明晰
机智
氟化@@
缩水
谅
贪
风云
476
CP
GR@@
压缩机
巴希尔
批出
旁观者
炸伤
狭小
绕着
职级
與@@
芥@@
觉悟
难关
韦伯
馅饼
.org@@
1.4@@
A/59/7@@
ign
out@@
ubl@@
为整
住址
何在
參@@
土耳其人
富足
带子
扔到
有理
柏拉图
淮@@
病床
相伴
福斯
终究
者是
集市
霉
1929
2008@@
532
630
ato
中央@@
冰雪
可恶
呵@@
四川省
外墙
相提并论
社发
算子
總
自负
藉以
谁@@
POPS/POPRC.@@
不知所措
伙@@
做起
储存@@
嗓子
尾部
挠
捉
清代
演练
纪事
聪@@
认清
頭@@
A/64/2@@
AB
Rog@@
三角@@
业权
单方
學院
幼稚
报答
捞
毋庸置疑
炽@@
纤维@@
纳西
转口
预算司
0/2@@
646
68.@@
UNEP/@@
ets
不同@@
匈@@
卡纳克
地震@@
搬进
放射@@
杂货店
法兰@@
清白
生育@@
碧
福岛
绣@@
铸铁
482
496
551
70.@@
AU@@
China
FCCC/SB@@
OEWG@@
pr@@
ps
Š@@
万分
做爱
共和军
宝藏
对性
怒气
打字机
插座
本处
植株
精良
蚊
2.0@@
41/@@
Sah@@
eb
上岸
农发基金
几何@@
勉
卫兵
数万
杰宁
梗死
深知
特洛伊
缠
腐化
行政院
诉说
A/C.5/52
Cy@@
共进
国有化
应付款
成功率
捷径
电容器
第18@@
行销
计为
调味@@
蹲@@
E/CN.7/200@@
Internet
olo
刃@@
商机
已为
折断
求你
疆界
痛心
社署
获颁
钝@@
阿雷@@
548
6/Rev.1
不前
不透明
乌斯
勒姆
吼
招待@@
教官
气愤
病菌
肆
脸颊
试样
诱因
输入@@
A/C.2/65/L.@@
GC
修读
凯西
巴菲特
弗拉基米尔·@@
忏悔
推特
无端
殆尽
殘@@
篱笆
雷克@@
1990-@@
461
462
495
511
69%
Alex@@
UNEP/GC.@@
下了
半决赛
和谈
回馈
小路
漠不关心
相联
绸@@
艳
藻类
降温
馀@@
魁@@
2006/07年
84%
HS
人行
垄断@@
夫兰
宙斯
水区
浓郁
积雪
诚恳
车里
远征
1998-@@
449
467
472
52.
Do@@
Leg@@
Me
d.
line
出没
君@@
咀嚼
围攻
壁炉
声波
奔驰
弟子
摸索
查获
标出
电位
短链
笨蛋
第S-@@
里尼
里海
iga
ost
代表團
会用
光合
原判
抬高
月经
枯
柳
澜
登入
第46/@@
聆讯
金戈
龙头
A/C.3/57/L.@@
Port@@
Ty@@
促进者
個
哈德@@
基点
大相径庭
拉人
拖累
族长
水印
电视网
立方
结业
解说
109.@@
526
7/Add.1
一月份
乏@@
制冷剂
同义词
戴安娜
易懂
理科
痉挛
筷子
裤@@
道教
阴极
雪上加霜
33号
5000@@
NET
han
女方
怀抱
怡
执委会
旧的
气象学
润滑剂
火炉
特制
罗德里格斯
羊羔
转帐
转换成
21:@@
A/C.4/5@@
ors
古董
因被
國家@@
奖杯
奥古斯@@
想把
法证
测算
環@@
确证
纯净
脱下
自治权
银牌
露营
饲@@
高官
78.@@
内华@@
受损害
失败者
夺冠
定购
布干维尔
招牌
氯乙烯
污染源
洋溢
洗涤
漠视
起誓
跻身
1.6@@
90万
Mik@@
Part@@
Tw@@
ao
ean
不正确
九龙@@
亚当斯
关塔那@@
哈拉
圆柱
强暴
比拟
比萨
漆黑
续约
詹姆士
选人
降价
饿@@
20:@@
455
ga
三星
五点
任由
保温
合唱
州际
并重
悔@@
更远
有鉴于
木工
松弛
河北
派到
海南
球衣
穿戴
笨拙
赛马
非员额
飞地
饿死
59%
A/66/2@@
asp@@
my
儿们
售后
唯
塞尔维亚人
整体性
生命线
登·@@
秘书@@
蒙巴萨
运会
重中之重
随行
508
Gor@@
Morgan
ine@@
ira@@
ube
万事@@
什·@@
公文
函作
切片
务处
司法所
女性化
沙特@@
蝙蝠侠
语调
15,000
作响
冲进
分节
十字军
原发性
听懂
天国
录音室
意象
按此
撤走
曙光
正被
芙
谦@@
辱@@
1160
3:00－6:00
474
E/2012
unn@@
与会者们
付息
实事求是
怜@@
扳@@
拉比
接力
摇篮
支离破碎
流水
淹死
狐
瘘
窟
腊
自传
集权
/2009
3/SR.@@
529
70多
API
College
EX
ays@@
ema
一模一样
为您
乖
使用@@
大写
奇·@@
属人
庆幸
开学
恼火
掩埋
检察厅
瓦西@@
由此可见
立法权
群島
雇佣兵
零散
590
Act
ars
不合适
乾
加西亚
北半球
囤积
头条
强的
惠普
接驳
梳理
汹涌
穆沙拉夫
补习
轻蔑
迷于
運動
金刚
银子
马斯
1896年
1903年
81%
Acc@@
上世纪
不成比例
史蒂夫
性强
总算
恩典
批次
杰里@@
生物学家
监督团
第55
草图
萨斯@@
谢赫
贝里
都市@@
Econom@@
Ker@@
Serv@@
决策层
刘易斯
北极@@
双臂
周转@@
妆@@
寄来
开拓@@
影业
打量
拱
淡淡
演讲者
电离层
画的
自如
艾哈迈@@
高雅
431
44/@@
452
BW@@
Rub@@
与此
为什麽
卓
大英
手工艺
抢劫@@
摔跤
文法
束力
桨
窃取
简编
粪
紫外
至高无上
血缘
透视
陡峭
非同
鞭
香草
1591
58.@@
倒在
按期
文第
泌@@
炉子
监会
盲文
耶利@@
蔽
铜牌
737
Bag@@
Dev@@
Hen@@
MTV
class3'
一个@@
人权日
仰光
伊莎@@
冰球
单向
反之亦然
可不是
同心协力
唑
尘器
氰胺
熔化
祸@@
茨基
要说
转折
迁出
陡@@
65.@@
MR@@
NO
aw
休克
农场主
办案
动荡不安
南盟
对现
布鲁克
扶轮社
挤满
摄
新闻社
氯氟烃
污名
然无@@
纺织@@
自由度
菌株
警局
诊断@@
跟前
镰@@
高高
6.6
A/C.6/@@
ated
ía
丘陵
内侧
圖
审判庭
对空
并按
捐给
收视率
火柴
甚为
計@@
躯体
463
Alexander
Hum@@
W/@@
wan
不朽
则应
安置@@
库拉@@
扭
晶体管
猜疑
联邦区
被俘
西印度
要到
货船
走下
邮袋
661
A/C.2/69/L.@@
DP@@
E/2005/@@
ODP
je
ral@@
事务署
冒出
南端
嫖@@
尼科@@
年复一年
建有
摄氏
政坛
洗劫
淋浴
真想
适当性
1.0
NPT/CONF.2010
comp@@
ien
off
串通
乡间
便士
填报
就诊
島峰
弄到
弗·@@
慈
於是
永不
沃克
粮价
视网膜
逗
里人
闯
除以
雪花
风扇
驱虫
龙虾
E/CN.4/@@
Gust@@
pdf
举报人
匪浅
同前
布托
曾于
琉@@
盖尔
纽伦堡
蓋@@
蛙@@
适中
量测
马赛
骇@@
468
600多
Om@@
ge@@
ho
代表制
利伯维尔
外伤
将会
巴沙@@
撒下
早起
沃尔特
法拉@@
浩
立法院
竞
腻
词汇@@
长发
＂
680
SE
亚裔
商业@@
回顾性
总要
核素
熏
经销
辩驳
23-@@
49/@@
707
747
973
Nu@@
上表
军中
出狱
嗡@@
大麻@@
天桥
得力
成百@@
拿去
新陈代谢
核发
模组
筹委会
缓缓
路由器
选入
飞跃
Intern@@
MC@@
制药@@
增减
安然
害人
放过
桑托斯
浸泡
类似地
翘@@
赞助商
運@@
鸦@@
ET@@
Jean-@@
Ren@@
d'@@
亚尔
休息@@
先发制人
力行
卢卡斯
发射场
吟@@
外交界
学好
宠
年报
开发部
斗士
泰晤士@@
烧结
犯规
疏
皮特
细化
葡萄园
虑
请他
输给
远古
连载
酿@@
钥
饮品
571
80.@@
Law@@
ax@@
br@@
伊朗人
喻@@
年增长率
座落
掠过
梯子
穴@@
苏呼米
赫拉
40多
499
CRC/C/15/Add.@@
Tan@@
不容忽视
乔·@@
允诺
内疚
切斯特
剧组
哄
声调
女们
撑
教育家
美奖
背负
航程
萨科齐
55分
625
A/ES-10
SQL
入世
凝结
大吃一惊
户籍
斥@@
更好地
熬@@
离子@@
秉@@
等国
网关
耿@@
职系
避孕药
Dre@@
中继器
偷盗
司空见惯
径@@
本科生
清晰度
米利@@
红海
练习@@
罗列
胀
资源@@
超时
闹钟
香肠
Gir@@
Naj@@
zh@@
之以@@
弹奏
拉尼@@
新泽西
沿途
漫游
窄@@
苏莱曼
调节@@
钢材
阿美
28/@@
438
A/63/7@@
Bh@@
Dor@@
來@@
修好
副词
匀@@
呋喃
咒@@
唱名
填满
对法
涂上
灣@@
电池@@
荧@@
趾@@
选修
門@@
阿萨@@
非加太
68.
Bah@@
主人公
二十七
二零零四年
倦
尿液
急救@@
总有
本周
欧统局
污辱
盎司
船运
茹@@
薯条
谈判@@
输血
重债
阿塔@@
4.9
Eu@@
een
亚种
修课
加拉
取名
咯@@
导电
开着
整形
泊车
洗礼
爬到
用例
股息
萬@@
蔽@@
褶@@
谱仪
阿贝@@
.g@@
88%
Cit@@
oma
制造者
勇于
勺
年华
强加于
江苏省
胜者
运用于
颤@@
麦卡@@
0.1
Development
Od@@
val@@
亟待
出生证
寨
投身
杀人@@
植根于
母鸡
穆斯@@
等我
自首
蕴@@
西面
1985
441
ents
出租人
咨@@
售票@@
嚷@@
土地法
地表水
属事
工夫
技工
荷属
落地
谓语
远洋
退税
重男轻女
556
650万
Dan@@
E/1999
arm@@
c.@@
class5'
ston
下月
不上
中立性
似可
减退
就业部
屋宇
架设
格兰特
棋子
火药
老兄
考查
获发
评估团
请来
责怪
躺@@
鲜血
174@@
19年
270万
4.5%
Aust@@
GU@@
York
class2'
els
亲生
伯克利
切成
圣何塞
小山
平淡
得救
报章
爱他
皮克
藉由
谬误
集团军
1亿@@
260万
494
71.@@
Land@@
ber
ph
ype
公社
副局长
可得性
建築物
开到
弹劾
扩增
放款
洗衣机
看一下
租房
管理权
貌似
阴性
1000万
518
A/C.3/63/L.@@
Gil@@
Must@@
ution
主唱
事务@@
于人
划船
北基伍省
叠加
声学
得体
操作@@
文体
新西@@
核战争
椅@@
消耗品
理想@@
生理学
真话
管理@@
舟@@
访问者
请到
選@@
黑龙@@
190万
Cla@@
Fel@@
Flor@@
Mach@@
REP/200@@
ave
不在乎
丛书
丹尼斯
出土
协办
印证
哈哈
影院
救命
无所谓
杭@@
沃尔玛
簿@@
署理
药店
领会
高中生
194@@
BDE-@@
E/1998
IR
MV
PCNICC@@
两分钟
中西
俊
光栅
公事
嘶@@
打上
杰克@@
林丹
死亡@@
综合@@
腐蚀性
闭路
1977
464
471
Just@@
class4'
ound
不胜
凄@@
匹兹堡
商号
抗战
接续
收留
方能
格拉斯哥
相较于
讥@@
请教
资产阶级
重用
LA
U.@@
不足@@
代理@@
刻画
咆哮
大屠杀
安心
引来
强奸@@
当面
情理
打的
报应
摔倒
方形
法院的
淋巴@@
罩@@
老公
钛
间距
随地
1899年
473
83.@@
EP
Research
o.@@
乌姆@@
人名
分裂症
勾
卡斯
同住
市场化
挚@@
林·@@
汁@@
皮书
盐水
美林
菲律@@
钻孔
非选择性
鲑鱼
479
Love
reg@@
不可行
以利亚
关进
危难
厕
右派
奥兰@@
姜
掏出
江西
癫痫
看病
绩@@
维察
遇难者
霜@@
20年代
220万
3/
546
Pac@@
一万@@
主们
侄@@
制法
孤独@@
实际@@
常性
打包
新政
沉睡
测得
申办
第98
纪念馆
谈判者
阿齐兹
陳@@
﻿@@
12％
2004/2@@
Bad@@
大卫@@
斥责
步调
自由基
达致
阿尔贝@@
117@@
Enter@@
ele
ions
rip@@
力场
原作
地质学
增生
好意
对接
瞧@@
编组
耀眼
腿部
苟@@
负责@@
那块
闪亮
阿诺@@
骚动
2,0@@
230万
4:30
730
94%
Ara@@
L.3
Vol.@@
XXVII
公子
化剂
台北市
呼应
委员@@
布拉柴维尔
帆@@
查证
点缀
色泽
艾米
音符
马哈茂德
515
ca
乡试
受难
好久
妄想
提拔
沸腾
班车
症@@
盖子
私生活
药房
贿@@
递减
防洪
@@
-9@@
一步@@
善后
堵住
大得
暴徒
梅林
水箱
沙丘
渡轮
爱迪生
独资
破解
自始至终
诉人
调出
软体
过热
郊外
168@@
1920年代
31-@@
522
760
Ped@@
ika
ér@@
上下@@
不了解
主義
了吧
便衣
单张
厦门
太子
市建局
摄像头
明朝
特技
瑙
管人
联队
舱位
蛮
裙@@
迟疑
送至
鐵@@
阿利@@
6,000
为从
共犯
出入口
出口额
奥斯汀
承接
旅店
杀掉
注目
管制法
米尔顿
腕@@
蠕@@
跑了
输电
里克·@@
魁北克省
麦克风
69.
Ah@@
不由@@
厉@@
基亚
多瑙河
尼亚州
幌子
挫@@
有待于
油箱
炮兵
童子军
经济性
输掉
雷斯@@
驱逐者
8.4
8/Add.1
TV@@
illo
一心
上路
不胜@@
乌克@@
分形
历代
善待
在逃
头晕
安德烈@@
客座
探险家
播放器
桩@@
氏族
瑞·@@
笋
置之不理
膨@@
萌芽
要约
言词
雪莉
PP
代人
剧增
发行量
史诗
呵
哈姆雷特
客气话
抑
无畏
早孕
治国
燃煤
特尔@@
看了
睡得
绪
聚氨酯
蒙得维的亚
18亿
5/Add.2
552
575
A/C.2/64/L.@@
DR@@
MBA
ates
ency
交回
冰冻
减压
击球
巴顿
市立
帐号
惊叹
手掌
拉罗@@
揭幕
搅
撞击坑
毒打
父子
禅
精准
荷兰人
西侧
钳@@
35％
53.
567
61.@@
Clar@@
South
WH@@
ster
东面
二零零七年
仰望
国际@@
坯
埃尔多安
妳
带出
恩赐
投资额
拨打
来时
沙皇
溅@@
盃@@
绌
裁处
阿卜杜勒·@@
1950
240万
481
516
772
9.3
PlayStation
col@@
ille
ization
km@@
ld@@
下沉
不振
克里姆林宫
凯撒
凯莉
唾@@
寄出
弟@@
怯@@
极性
矩@@
禁闭
粤语
衍射
选址
间歇
麻木
11:00
8.5
A/C.3/58/L.@@
亲善
休斯顿
同工同酬
尖沙咀
手工业
拉夫
放贷
时时
深陷
狱长
科学部
稍稍
罗斯@@
能把
长着
-3
7.5%
Cab@@
uh@@
义工
亚特
国法
尚存
德里克
扎克
搏斗
放火
斯德@@
新世
谢里夫
跨度
4号
Hern@@
IS3.@@
修辞
厉
大王
學家
担保人
挥舞
有余
监理
科特
藻@@
起动
轨道@@
遗孀
降为
魔术师
5.7
AV@@
ison
vi@@
书桌
二恶英
付诸@@
件@@
俚语
太平@@
延后
截肢
榨@@
洗手间
灰质炎
硫磷
装扮
香槟
715
Abdul
No.
二零零五年
亚尔@@
应分
徒劳@@
援助国
正比
毛皮
清澈
现身
疽
答辩@@
绥@@
蜥蜴
西尔
跌幅
11年
489
493
·恩@@
三十一日
响声
形体
新军
柴油机
母牛
汤普森
活期
海德
涵义
直立
结冰
西西
赛中
轴心
链条
阿曼@@
1902年
之不@@
亚洲人
交换@@
作案
哄@@
啶
大蒜
姨@@
巡视
情书
某国
止于
正经
泻@@
现年
矿藏
称谓
联络组
长沙
關@@
马桶
1.7@@
67/@@
89%
Cat@@
uri@@
二零零八年
值此
公道
几年
切入
劳斯
单数
喊叫
央@@
娃@@
底薪
收效
昆士兰
梦见
男人们
脾@@
薪级
训练营
锋利
ED@@
class1'
sha@@
人居二
全线
咨
已然
慎
战乱
放行
每项
沾
照耀
神气
种的
胡同
脆@@
陕西
2006-2009年
Bay
Fe@@
PV.
东方省
亲手
加工@@
商法
大公
山东省
庙@@
归结
政务@@
时刻@@
普兰
楔@@
线图
讲课
遮蔽
长相
顺畅
514
No.@@
eral
tions
乌托邦
侄子
兵器
启程
审结
所言
扔在
施展
气象局
犯罪学
缆@@
罐子
营商
该款
附加@@
高产
17亿
emp@@
oi
ves
丈
东德
利亚人
名气
否@@
官司
心力
无神@@
有机会
消失了
贫瘠
赔额
速器
链路
麦迪逊
3月份
Net
Pin@@
Tam@@
allah
佣人
加工业
复制品
导线
开垦
感化
拉里·@@
拓
捕食
氯丁二烯
涝
病逝
繁
约书亚
脑膜炎
解剖学
辊@@
预备@@
马来@@
528
A/
Brown
E/CN.4/2005/@@
ure@@
‎
上看
也可
二氧化@@
储藏@@
华裔
受惠@@
只占
巡回赛
收发
普遍化
朗读
清查
玉米@@
理查@@
纳德·@@
读物
食宿
633
ED
Silva
医疗队
吉祥物
方人
明史
栓
污秽
活儿
碍@@
简略
联邦制
莱州
辞退
1994-1995年
Music
″
不顾@@
临终
为时@@
之家
人都
公安部
在世
大风
娥
影展
战者
技术部
拉斐@@
请在
遊戲
酒类
電視@@
2002－@@
下发
下场
不超过
专递
印花
圣诞树
心上
扎根
时间段
梅德韦
测器
爪@@
留着
空降
籽@@
蜘蛛@@
議
谋取
越好
跨文化
跳到
金砖
高阶
/2005
200亿
25,000
A/62/L.@@
Center
House
LC@@
ME
为国际
势在必行
吼@@
塞进
宴@@
心愿
报仇
捡
方法论
焕发
特利
狐@@
球状
石英
米格尔·@@
蒙·@@
计有
0.2%
13％
2005-2015年
AIG
Kir@@
WP
end
itz
ridge
东印度
伴奏
佛教徒
功用
匀
卸载
原是
惊慌
损益
生命@@
突然间
立面
绿洲
蚁
行动@@
裸
避税
阻尼
1,9@@
五万
伊夫
假若
印巴
可容纳
園
孩@@
打到
推进剂
时态
株@@
沃斯
满足于
熱@@
献出
白白
脱钩
致病
觅
趋向于
马利亚
534
Cons@@
Cr@@
EC/@@
三千
之日
产业化
倾弃
内皮
决斗
劇@@
咖@@
备好
大屿山
夸克
庇护国
底盘
救济@@
无记名
旨意
残奥会
灯笼
神秘@@
贫铀
顶层
536
Franc@@
上皮
创造者
別@@
夜空
强健
或大
打折
政协
散装
版面
甚高频
袋鼠
踪迹
Kw@@
RES/@@
ond
三峡
侍者
光顾
克莱尔
凿@@
募捐
天后
孚
改制
有碍
楼花
渴求
皇宫
葉@@
誓
账号
阿纳@@
2500
bo
ej@@
不允许
佩尔
克语
唔
无意识
榜单
珍珠@@
索夫
芬芳
袖手旁观
那张
2/3
A/C.2/58/L.@@
PB@@
Vis@@
主义@@
凡事
华语
原为
厨
嗓音
奥马尔·@@
应答
成群
橡树
的士
站着
等你
罗兰
自旋
装设
120@@
4/SR.@@
A/C.5/60
E/CN.4/2006/@@
SAP
ran
从头
分泌@@
响亮
子系统
工作团
弘@@
心事
扫描仪
擅@@
方块
瓷@@
甘油
盖上
谦逊
锐
饭馆
黑猩猩
809
Kur@@
Notes
Sat@@
Univers@@
__
wood
专区
从新
何方
佩雷斯
共性
冉阿让
同声
大会党
导员
山市
币值
市价
年金
庚
异化
当期
扶手
文娱
无所作为
最适
瓷
素食
给了
腐败@@
跋涉
轻便
锰@@
/2006
Py@@
不能够
二零零一年
其父
前门
响了
宇宙@@
开户
录音带
房门
揉@@
无与伦比
泻
特斯@@
电灯
空隙
米歇尔·@@
终点站
老家
闲暇
553
ility
不准确
东耶路撒冷
传译
便将
划出
台湾省
掸@@
栏杆
栓塞
煽@@
相抵
纸板
耶·@@
肉眼
苏人解
课上
违例
酸钠
阿尔法
568
BO
EN
Exp@@
Juan
una
停办
健壮
图中
廢除
恋情
无穷@@
殖民化
瘾@@
纳维亚
苏珊@@
责任心
類@@
Serg@@
ag
alb@@
二零零三年
后半@@
姆贝基
憧憬
扔进
本局
比作
溪流
而于
连续不断
遮住
531
604
7.6
Kl@@
Merc@@
PRO@@
Som@@
Tak@@
ares
不一样
举手
代下
佩里
入围
出乎意料
增长@@
奖品
批评家
握住
日耳曼
校方
比亚人
海中
立国
簇
缉毒
老兵
规划部
述性
1284
A/C.1/63/L.@@
eda
s-@@
work
不为过
全员
向型
圣徒
地热
坐到
市场@@
帐务
弱化
执着
披
涨价
澡
犯错误
考察团
而受
脚踝
观塘
辟@@
逛@@
＇
69.@@
73.@@
C/2@@
Dam@@
Direc@@
E/CN.4/
Yah@@
ix@@
oot@@
不清楚
代为
军力
宾客
小幅
小朋友
应负责
录音机
快递
教书
教育网
林斯
泛亚
现货
理睬
精湛
观众@@
豆腐
贵州
1.5亿
591
John@@
中原
元年
几内亚湾
只在
咯
哭了
威斯@@
效劳
文稿
溶胶
片中
猛增
眩
第XV
触动
镜像
额头
1A
535
538
COM
Ze@@
中正
亲子
供餐
免职
切开
加斯
发声
国应
引向
忙忙
思潮
性好
授标
探险@@
查理@@
沾染
湖北
相配
私家车
第33/@@
罗素
脊柱
质性
赴@@
黑帮
17:@@
59.@@
DLDD
OP
UNEP/CHW.@@
dd@@
侍
保险人
儿时
公尺
口供
哥们
大肠
实战
实绩
循环@@
拧@@
敬业
无序
法律系
溶于
滨海
碾@@
进城
62.@@
Haj@@
Kas@@
ush@@
下雪
列祖
卡内基
危害性
听他
小吃
惨遭
慈善@@
成真
擊@@
曲直
柔道
气象@@
水龙头
海图
瞻@@
等地
紧迫感
蓝天
装饰@@
还能
高分子
，000
Deb@@
Muh@@
ight@@
不得而知
不良@@
仅占
发电站
哈佛大学
員@@
彰
未就
残废
水厂
盗用
石膏
粘
聯盟
腓力
获奖者
钟声
雨伞
非要
预谋
风化
24:@@
ML@@
doc@@
卡卡
古城
好笑
妇联
布列@@
时不
有条不紊
法轮功
省会
繁衍
肠癌
腌@@
衍@@
踊跃
非盈利
587
OP@@
tran@@
丹尼
修行
凭着
单片机
发起@@
叫醒
哈尔滨
场外
奈特
容貌
必将
托付
晚于
法拉利
百度
睾丸
纳赛尔
羞
脱掉
还本
随从
领到
马库锡
,500
ique
pe@@
东侧
倾角
况且
出生@@
叔
哺乳期
待人
民党
氢气
瓦拉@@
甩
窖
西西里
计算器
赐@@
16-@@
75.
Thom@@
field
丢了
二○○七年
仅供
再分配
出众
哗@@
基本@@
心声
截止@@
抓捕
根据地
歼@@
碰上
行不通
要去
起火
难看
280万
Lind@@
itz@@
三十五
不小心
世博会
优惠@@
使劲
刀子
加丹加
危险品
吉塞
同僚
哪一
地块
塌
挠@@
支部
昵称
沧@@
睡衣
第338
萨里
蔚@@
诫
质问
首日封
马恩岛
EA
Pow@@
乔纳森
五日
加速器
博格
博爱
如前
娜塔@@
拥护者
杏@@
电图
看做
研拟
纳特
纵
纶
补给@@
调查科
边防@@
过着
运输业
防御@@
阿巴@@
随附
1898年
539
Edward
Fire@@
idi
ا@@
亚里士多德
优选
医用
后再
商品@@
回转
学史
学部
定单
干掉
库存品
探照灯
比什凯克
法尔@@
瑟·@@
电工
答辩权
网点
藏族
西亞
骇人听闻
2008-2010年
544
706
777
Mob@@
USB
三十二
公积金
双打
孙女
宁波
教学法
梭
没什么
硼@@
羟基
膳宿
贾斯@@
起作用
近视
锈@@
防腐剂
随信
雷·@@
鲜有
2017
79.
A/C.1/64/L.@@
Hot@@
Jar@@
TT@@
一生中
万国
冲锋枪
动能
实业
就会
就近
尼奥@@
巴利
捕鲸
掘
替代物
期终
油污
洞察力
狙击手
科室
耶尔@@
聪
衣裙
较之
随同
露丝
顿时
1521
2011号
572
90亿
M/@@
SN@@
T/@@
决意
心想
攻击@@
普鲁@@
格蘭@@
母公司
牧业
紧缺
组赛
结为
维他命
让·@@
请勿
通缩
障碍物
1747
210万
SI
ital
为时尚早
保险单
医科
听询
哈利·@@
回购
孟加拉@@
恒定
成衣
搏@@
第23@@
综@@
罗杰
英汉
表演者
那双
重获
防雷
Ig@@
一成@@
伊斯兰@@
传热
侵略性
停工
儒
凋@@
发回
喷气
囊肿
声带
放纵
最穷
有失
機構
烟气
熨@@
笃@@
粒度
虫子
谈判桌
错觉
阿基@@
102.@@
Live
oud@@
well
做工
剖面
卡瓦@@
喝水
忘却
拉格@@
暹@@
汉族
狠
硅谷
米饭
绵
胸前
莱茵
试卷
门将
预科
Batt@@
CCW/@@
EE
ities
и@@
为多
主食
伸缩
低头
供述
倒入
双轨
古罗马
只用
吉普赛
四分@@
均有
大城市
平安@@
心存
打消
抵减
指头
荔@@
车门
顶上
10000
12月份
Ib@@
Joh@@
Rab@@
Us@@
利性
升到
友们
名胜
外边
多谢
失职
室友
得悉
水深
混为一谈
烧烤
照顾者
社工
络@@
运输科
608
WW@@
ication
主席@@
交换所
估计值
士人
孔隙
忧愁
播映
斯曼
期前
热诚
神殿
禾@@
级数
结交
缝纫
适配器
通讯员
鹤@@
562
573
70年
In
~@@
九十
巴基@@
开幕@@
撤
沃德
然大@@
特地
瓦茨
缺勤
芬奇
衡
解码
鹏
/2008/@@
10.1
lo
之力
仑@@
团员
备注
大小@@
小板
捐款额
敲诈
明证
春秋
枢机
棍子
置疑
花岗岩
视像
转拨
辙
配角
阁楼
2007/08年度
690
参照@@
哈马
多年以来
好于
居住者
居者
幅@@
性欲
接过
施泰@@
朵@@
检修
痘
穹@@
第XX@@
米特罗@@
肝癌
药材
荷马
莫罗
血栓
讼@@
达不到
雪茄
韓@@
79%
L.4
Lo@@
kin
rah@@
东岸
主人翁
之人
休息室
众生
判断力
喷出
寄送
托盘
早早
磁铁
纯化
纺
花的
贸易额
软化
过敏@@
金库
锣@@
院内
风吹
马约@@
2,500
549
A/C.2/67/L.@@
Adobe
IPO
J·@@
Limited
Rash@@
las
二○○八年
含意
囚室
外援
开普勒
得好
微米
树种
浮标
申根
直截了当
眼科
莱昂
詹姆@@
转乘
靶
韦德
2001/2@@
NT
ott@@
ub
久远
借着
光速
哈拉雷
崇尚
庙宇
时器
深重
礼节
罗伊
花上
贝壳
23:@@
670
963
A/67/2@@
Council
Qal@@
上作
休斯
回流
塔省
奶制品
尽最大
岩浆
抛出
报关
推介
格洛@@
然性
煎
球体
甚远
留待
病态
苷@@
邻里
郊@@
609
86.@@
act@@
class6'
ian@@
不出
以解决
会籍
入院
前额
劈@@
受访
孤立@@
巴巴@@
提琴
欢笑
歧视法
漂
珠江
甲醇
窃听
筹建
肿胀
走走
那辆
部会
钳
高分
26亿
不容置疑
不接受
便能
催眠
克林
内·@@
前不久
即兴
双腿
吡@@
哼@@
在行
斧
梅洛
汀·@@
测井
消减
琵@@
电费
考评
联合国军
腾格拉尔
萝
術@@
评核
转换器
铁丝网
长沙@@
非全日制
鲁斯
鲍威尔
0.1%
543
OK
sub@@
乳腺
人权部
喜乐
墩
外逃
好让
干杯
建材
无核化
沃伦
甲基@@
癖
皮尔
砷
结肠
解冻
计分
2008-2012年
8,000
Adv@@
SI@@
T恤
Vel@@
W﻿
erc@@
━
不具备
不愿
伊德
切口
切尔@@
哈维@@
善用
套管
实惠
悠
探亲
组织科
舞曲
莱德
记者会
诏@@
逃生
间或
霰@@
非农
149@@
564
俗语
多孔
多得多
大同
怪兽
泰米尔@@
第25@@
藏品
贩运@@
连在
邪
重回
體@@
高音
711
ally
ater
―
不住
判给
即位
压在
喇@@
工兵
开创性
得罪
德米@@
抚摸
撰文
操练
桑给巴尔
梅森
爾斯
电话线
翰@@
能将
落空
被告@@
锡安
音译
颓@@
马戏团
115.@@
60年
78.
Cour@@
afa
亚述
低效
僧
出赛
可憎
基准@@
尼克@@
康德
德罗@@
搁浅
新奥尔良
暴躁
有所@@
未收
梅毒
殷勤
法医学
溢价
看守@@
科罗拉多州
窍@@
维生
萨克森
论调
软件包
长崎
颗粒@@
527
643
7,000
Vol.II
aj
tis
·穆@@
两国间
他所
使最
其二
动器
呼喊
地标
大山
头寸
实实
怒火
总则
档案@@
梦幻
洛克@@
瓣@@
藏书
蟾蜍
西尔·@@
要对
过关
阳市
阳极
食欲
1.8@@
2015-@@
Global
O.@@
ih
五角大楼
伟人
内斯
利亚州
卸下
反倾销税
名古屋
四十五
在发言
子集
居民@@
工作坊
弗朗
法术
當@@
聚居
腹腔镜
茨欣瓦利
落叶
西边
言之
贮藏
27亿
Nt@@
aut
不合格
丰硕
伤疤
停放
动脉@@
原产
含铅
好啦
安吉@@
官僚主义
定会
扮@@
格迪@@
浴缸
理查
草本
误用
遍地
阿米@@
集思
91%
MI
NP@@
Rod@@
eric@@
von
事无@@
人马
佩德@@
写了
农民们
噪@@
堂区
奖的
干得
异地
恢复@@
惶@@
搞笑
斯堪@@
明代
来者
检举
橱窗
火线
烟火
熟人
瑙@@
絮@@
胡安
萊
行李@@
贝多芬
转往
食物链
Dr@@
F1
ap
esh
允@@
利亞@@
喷嘴
奇幻
很晚
悟@@
惯
挪
插手
支流
方差
无酬
梅尔@@
模拟器
浊@@
犯者
理顺
神学院
罹@@
论断
走私@@
远比
铁路线
麦加
138.@@
24亿
3号
EP@@
Frank
Sor@@
alth
ann
oe
不妥
亞洲@@
企业@@
伯尔尼
军法
吞下
坚韧
塞缪@@
愧@@
摩苏尔
放手
既得
昏暗
歷@@
绿茶
道德@@
558
63.@@
DH@@
ICE@@
Ltd
一九八@@
不得有
专线
信用@@
刻苦
劳工处
发源
受了
吉姆·@@
吗啡
失真
希伯@@
战前
战绩
排气
斯州
曲棍球
碎石
离心机
菲斯
萨达@@
诽谤@@
超大
车牌
领头
2004-2006年
517
559
85％
AI
P-1
S/1996
TD/@@
aq
ool@@
中时
佐治@@
公款
内需
前台
即期
取回
同龄人
嚼
帝王
心怀
投标书
暇
核反应堆
渔夫
狮@@
相反地
空格
竞技场
篮球队
罗曼
肤
自尊心
螺丝
表内
西瓜
賓@@
隆重
风雨
3-4
8000
Ear@@
Fal@@
Indust@@
余生
傳@@
太郎
希伯来
引渡法
战祸
法拉
活性@@
第99
补足
解放@@
邮资
583
592
A/56/8@@
仕@@
会否
取水
多维
客体
平整
投行
流器
熔岩
研究者们
聚糖
舰船
蛾
螺钉
造纸
配送
韦恩
84.@@
Drag@@
yc@@
七年
严惩
二进制
克里斯托@@
南省
安葬
排外
推举
有限元
来做
波动性
泥浆
猎犬
竖立
跌落
黄瓜
585
704
75.@@
864
95％
Lim@@
NBC
Salman
eman
ques
rob@@
sw@@
交换机
孝
安顿
屈从
开放@@
斯达@@
注解
渠@@
焦急
画出
结构图
罗宾
肋骨
要害
躁@@
金斯敦
镉
2-3
8月份
A/65/2@@
II.@@
Je@@
Res.@@
Ye@@
ista
主轴
交易者
写字
凹陷
封存
批评者
柯林斯
环经
瓦人
用金
肢@@
蜥
运业
间歇@@
风貌
６
1890年
1995/@@
35亿
616
Doc@@
ams
供应者
军机
农耕
创建@@
剪刀
和好
地政局
坏死
安全权
巴尔的摩
幼稚园
持股
环保局
福尔摩斯
稍等
红酒
罪过
而下
聋人
脓@@
腐
谈了
面额
24-@@
578
62/2@@
Abdullah
Hug@@
Kenn@@
Rumaysh
ray
tim@@
亚齐
催促
克伦@@
全过程
台币
号令
启迪
基督山
女婴
安人
居住权
岩体
心肠
悲剧性
新老
环状
球手
矮小
胀@@
造福于
配料
鞘
预应力
题的
2007-2009年
4.1.@@
5－@@
eck
guez
ota
住地
兄@@
分光
北海道
反垄断
多斯
安居
巡逻艇
帕特里克·@@
帘
应聘者
批判性
技术科
括
爆炸案
禁飞区
窦
第49/@@
系在
船体
衡算
起居室
迫不及待
320万
74.
Ray@@
ax
cher
hag@@
亚热带
伊玛@@
会计@@
勤劳
台中
安东尼奥·@@
尼日@@
巴拿@@
应激
底座
撒切尔
救生
无异于
显眼
最喜爱
来使
氦@@
流程图
潜伏
猥亵
生活@@
用时
用率
蜿蜒
请见
退职
铁路@@
铰@@
阿克萨
Carl@@
Jef@@
Zah@@
erm@@
不乏
串联
出海
友人
填埋
打过
托夫
抢夺
按键
有道理
朴素
狙击
球面
紧跟
维利
美方
胜负
自信心
莹
迈尔
....@@
CNN
SAS
zz@@
克運動會@@
头来
奥秘
患难
时针
没完没了
法团
浓密
灭失
维纳斯
肘@@
蝶屬
贝勒
近身
鼎
561
A/56/L.@@
E/CN.4/2003/@@
乳液
使更
受惠国
吃到
回忆录
大好
妇产科
学报
家事
宾夕法尼亚
扶
拉大
援手
无非
曼努埃尔·@@
格兰人
法者
海战
看完
纵横
通称
HF@@
Rel@@
·萨@@
与此相关
专门化
事业@@
优劣
各部门
图尔
大使@@
巴拉克
怎么说
患病率
日夜
知识@@
空心
而起
自适应
艾米@@
莓
贴身
过渡@@
配电
阁@@
面子
马塞@@
黑市
547
van@@
单是
发芽
啤@@
圆柱@@
完了
封闭式
推开
梳
漫
统法
而生
话者
鐵路@@
铃声
领悟
1940年代
523
554
806
A/C.1/57/L.@@
A/C.1/59/L.@@
Sen@@
ional
ml
不履行
公平@@
利奥
南欧
变星
商业区
基期
女仆
床单
徵
悍@@
斯岛
晚安
本位
来过
浆果
片子
细细
自由派
观望
诡计
送出
闭嘴
阿特@@
11月24日
1992-@@
586
P/200@@
ska
上楼
伎俩
低得
内脏
减到
刻不容缓
升任
即从
发火
后为
圣多明各
巅峰
形形色色
彦
忿@@
手球
枕
牡@@
特惠
独角兽
粘贴
罪魁祸首
药草
足球场
間
2007-2010年
29号
CON@@
COP.8
ISBA/@@
VO@@
ress@@
uj@@
军装
分店
华盛顿州
发展观
同比
媲美
季风
屋宇署
工务
巴伐利亚
幸免
幸好
廊@@
抛光
明星@@
木屋
杰森
栅@@
橡皮@@
消防员
特加
研究会
祈@@
神灵
禁止@@
虞
蜜月
賽事
走着
连接器
里奥@@
Ja@@
回响
埋藏
实数
括@@
提纲
温和@@
真人
破坏力
科罗拉多
精髓
结账
脱硫
荐
裴@@
诉权
轴线
连续剧
里头
阵阵
1975
566
581
=@@
Luk@@
Ok@@
dev@@
stat@@
ural
不快
供认
兄长
劳作
和我
差分
抛开
昔
有朝一日
法上
湖水
狸@@
电解@@
痰
第63/250
羚羊
营房
蹄
达里
'at
1820
602
77.
A/CN.10
Conn@@
F3
Prot@@
RT@@
Tab@@
ady
乌兰巴托
乌鲁@@
坍塌
堪培拉
墨西哥州
娴熟
宇航@@
层层
巡
布丁
弗朗索瓦·@@
成文
摊位
斯勒
朔@@
查处
稻
統@@
自治州
适宜@@
阿瑟
阿盟
麟
,000多
Corporation
习得
停机坪
压电
哈利波特
回声
城中
夫斯
安倍
宪兵队
平庸
开播
感人
截止到
房主
消化@@
现职
竞相
茉@@
记念
起计
领受
598
5:00
Add.7
BR
How@@
LAU
O-@@
ose
sd@@
东边
义人
低频
侏@@
充气
参军
号为
学分
寓言
应享
废话
影评人
得奖
心底
抛售
无辜者
昆明
明媚
木柴
果真
民族主义
牧人
胡须
菱@@
诸于
1895年
1974
3.9
611
Corr@@
FCCC/CP/@@
ML
Stat@@
angu@@
ems
争战
冥王星
击打
前款
尼特
探索@@
时节
昔@@
漂流
王宫
班加西
皮涅@@
监测站
砌
精炼
绑在
绝非
脱颖而出
腮@@
良多
蕴藏
螺旋桨
韧带
黎巴嫩人
2007/2@@
801
CTOC/CO@@
PK@@
亚科
卡利@@
基本面
嵌
挂图
捧@@
放逐
河北省
满脸
烟花
盛名
目标@@
研所
紧接
罔@@
讽
试探
钻进
雅克·@@
雷特
電
马赫
122.@@
542
550万
ET
St.
Tah@@
ago
eri
uf
α@@
仅在
原位
可查
可见度
各级
增产
复出
天黑
引人
所做
拌@@
指导性
杜尚别
欢快
歹徒
沉着
治好
游乐场
皮层
继承法
罗宾@@
费解
阿比@@
/2002/@@
King
Lot@@
Peop@@
iv
rel@@
不寻常
凯恩
凸
厦
发亮
发明家
可调
安徽
小汽车
支持@@
机动性
来得及
消磨
禧
缅怀
编印
鸽
533
584
700@@
CI
COP.9
Div@@
Elect@@
Tun@@
会考
初学者
号和第
坪@@
多边形
好客
客户机
工场
愧
拉斯·@@
操作者
有礼
现金流
联同
联塔
舵@@
营区
酒馆
阿森纳
1803
588
645
S/1997
Service
XXX
anna
ech
ias
ville
一九九九年
坎贝尔
型机
扪@@
投产
更佳
格斗
汉斯·@@
流过
渗透@@
维奇·@@
老头
胚
融为
行政官
要从
都可以
高楼
158@@
1960
E/CN.4/2004/@@
三菱
世袭
书记@@
仙女
以他
伯克
农林
剥
卡梅伦
库尔德斯坦
手提包
扶轮
拉巴
极佳
每况愈下
深沉
盛会
秉持
罗拉
脚石
舍尔
赫勒拿
载运
陶醉
黑手党
110@@
524
607
Esp@@
S-29@@
esh@@
osa
不发达
东经
传球
制片
化器
反转
发炎
哎
塞斯
幼童
收买
本机
沉船
焚
现代@@
皂@@
逝去
阿加@@
6/
Cha@@
imir
党籍
兰斯
劃分
匈牙@@
名副其实
咸海
哨兵
律性
教团
未加
楠@@
毙
洛桑
涂鸦
論
重症
防腐
2007年度
290万
606
Fir@@
ild
inger
med@@
stein
中选
写着
受性
固定@@
夏洛特
官们
就在
拴@@
敲响
毗@@
炼油
的呢
豆类
邁@@
配上
11月22日
22年
576
DCP/@@
Wom@@
u-@@
入境@@
列传
办公@@
合成@@
大赦@@
将是
尼龙
布瓦凯
律师@@
性价比
智障
滋润
禁烟
选举人
预算额
马利
112@@
159@@
705
eph@@
had
mat@@
件数
加工厂
吉他手
嗣
得克萨斯州
旅游局
望去
残杀
溶性
癌细胞
相符合
矿者
福音@@
窘@@
资本化
锤@@
防范性
596
W.@@
ball
s.
丙烯
倍受
原址
吃午饭
嘈@@
多时
够了
存器
尧@@
布赖恩
惊醒
旺角
曳
最低点
殊荣
没人
窃贼
肚
裹
论处
跑车
594
708
E节
He
与生俱来
克鲁
原子核
宗族
徵@@
患儿
提亚
概念@@
海地人
眼镜@@
纳维@@
编目
羁@@
自上而下
自民党
致信
行将
规制
记分@@
赶来
題
DTIE
ovic
sh
出口品
吨位
学者们
工们
惑
承付款
无功
无所事事
无薪
有钱人
汪
琐事
瓦伦
突破性
結@@
罗伯茨
账面
辛辛@@
铣@@
问询
阿格@@
页岩
2001-2002年
2时
Prog@@
ROM
XXV@@
代表队
凶杀
开始于
扎齐
提斯
教给
时不时
明明
最受
核大国
正方形
泰山
瑞斯
白费
缺氧
腱
芋@@
诉讼@@
车头
集资
815
E/1990
FCCC/K@@
bor@@
right
不尽相同
吹嘘
奥林匹@@
尔格
戰爭
新月
海事处
电镜
舞蹈@@
载在
较量
醉酒
铝合金
阿姆
饰品
马哈
﹝
2O
519
E/ESCAP/@@
Lyn@@
Pap@@
不得将
主打
到时候
吉尔吉斯斯坦@@
咒语
多尔@@
天花
奥德
守门员
帷@@
教练@@
暴风雪
更深
果酱
毒害
活到
痴呆症
窦@@
绿地
肥皂@@
资讯@@
超自然
超速
阿波@@
高考
Omar
一对一
人机
册@@
减价
吓人
基部
媚
实弹
意念
扳机
氣@@
游荡
爪子
石灰
粥
纳米@@
缘由
视其
该法第
说明性
越长
鐵路
710
Human
inson
uma
一审
停车@@
入侵者
内特
口述
各种@@
增加值
夏令营
小径
希德·@@
库马@@
悍
拽
排他性
歌迷
火腿
照常
王国@@
现将
监察局
节假日
裸露
設@@
错乱
563
579
593
E/CN.4/1998
S/2012/@@
UNCTAD/@@
over
yi
业性
中秋节
之计
书房
共和國
出入证
单程
卦
对该
摘自
攫取
敌机
疲弱
第48/218
第57/270
胶带
英超
莫夫
诺瓦@@
过半数
锈
附加费
颅骨
541
582
589
727
Lam@@
She@@
ality
不渝
专横
发起人
埔@@
夕阳
尼古拉斯
巴萨
康纳
張@@
恼怒
抗氧化
捐助@@
无产阶级
桅@@
深圳市
玫瑰花
第48/2@@
算起
管弦
粒体
自杀@@
致命性
覆盖@@
1.9@@
1483
49/2@@
Hz
UN-@@
West
中士
利地
副渔获物
升降
卡迪@@
因病
均为
宮
富集
您@@
拂@@
挥
摆出
月食
枚举
油管
笑了
糖浆
肤浅
裁决书
逸
门人
28号
Las@@
Oper@@
不息
企业主
克里斯·@@
厄运
叫喊
嗜好
坠入
头人
存留
尼卡
所有@@
掠
新英格兰
无核区
沥@@
片剂
盗贼
相貌
纸面
署名
联谊会
调低
费尔南多
闯@@
～@@
1998-2001年
5，@@
CRP.4
Johnson
Kha@@
Rights
no
ori
一九九八年
下岗
不计@@
人世
做人
催
填埋场
大面积
宣示
寡头
少数派
当过
恍@@
拉丁@@
攻入
數@@
暴政
杯赛
歌剧院
淫秽
热液
粉尘
维修费
西人
誉@@
长远来看
项和
领军
***
5/2
两栖
仲裁法
冈萨雷斯
化成
单打
卡拉奇
叛国罪
埋伏
布洛@@
拆迁
时或
昭
有为
波罗
漩涡
灰烬
生死@@
私家
聚物
自费
船主
装饰品
计数器
谎
轩@@
键入
镍@@
C++
Gran@@
ett@@
分法
口香糖
可可@@
各区
圣约翰
圣路易斯
在在
并称
庸
掉在
斩
最能
梗
楼面
沉沉
爱意
爲
玩意
电镀
算作
葱
蛛@@
警车
谢赫·@@
躺着
轻快
追击
10.2
21年
Bol@@
Mid@@
emy
pe
én@@
分枝
删
唐代
团圆
奎
好心
威望
当她
得的
意性
有害于
朝圣
核能力
求偿
琥@@
登革热
盛开
直达
纸条
续订
聘任
议者
诱
身躯
远非
Ri@@
SF@@
oci@@
不容@@
专营
乘船
供奉
储金
单靠
受试者
头儿
实体法
广益
弟兄们
挥手
最大限度
本批
正值
淤@@
牙膏
玛丽亚·@@
第72
繁华
维尔福
联塞建
西经
销路
靠在
0.3%
HK
NS
O.
Pierre
V-@@
ects
从那
何为
偏移
公开性
刨@@
反演
园里
娶@@
孢@@
寝@@
庫
恕@@
持枪
摆着
有兴趣
枕@@
橄榄油
汇合
相形@@
矛
穿孔
组合@@
细腻
羟@@
贝特
飞行@@
高兴@@
高明
17年
olas
中继
乌云
公鸡
冰块
取物
在后
姨妈
安纳波利斯
形态学
思绪
择
按月
援救
澳大@@
物项
舍弃
菩萨
萨克@@
长成
闯进
附则
零碎
880
A/C.1/61/L.@@
ome
不对的
中南部
二○○六年
亚历山@@
低音
军校
力强
卡人
对的
形的
文集
昧
有氧
毗连
目的@@
神像
稀疏
绿灯
考特
联预
股和
达人
迎战
陆架
马克斯
魯
..@@
A/C.1/@@
Hus@@
MT@@
ert@@
ough
下手
兴盛
卵子
原样
受害@@
后部
工作会
懂@@
打水
效法
新闻网
泥沙
烏
瑞典@@
瞥
福建省
第74
自卫权
苏拉@@
Commun@@
Engine@@
ogo
ope
习性
买来
伤感
使对
停业
则由
命令@@
品行
圣马@@
地方@@
宣讲
巴登
布特@@
年末
战斗力
抖@@
拣选
持械
斯巴达
村长
渎职
潜
船东
芭蕾
轻伤
118@@
23亿
569
〇@@
人子
全家
内幕
坎大哈
展性
引言
戚@@
敬请
烃@@
焚毁
玩意儿
科多
缅
行政权
览表
贩售
这些@@
鉴定@@
马来
599
交会
供货商
俯瞰
吉普赛人
后又
告示
塔尼
尔语
德科
斌
曲解
架上
波利尼西亚
海藻
神社
苏醒
赛的
闽@@
鳄@@
767
Den@@
GC.10
System
ult
wan@@
不想
不育
交易员
亭@@
亿多
共度
切尔
厢@@
反歧视法
呼吸@@
哥伦比亚人
女佣
志愿@@
恩惠
戴着
拖动
政治局
既要
消费国
炳@@
甫@@
男的
第73
行政上
观察所
诲
谷地
豪森
造船
钱币
651
Dal@@
Moz@@
Santa
din
⑷
不加@@
不得以
主题曲
任性
密码@@
巴斯蒂@@
应承担
德尔·@@
旧式
月底
漂移
瓦哈@@
生在
稠@@
缀
考古学
胱@@
请您
追上
锥形
霍普金斯
**
68/@@
692
85.@@
A/C.1/58/L.@@
A/C.1/62/L.@@
DM
Fi
IPBE@@
MAR@@
SS.@@
ep
mer
oli
一味
可知
外邦人
小男孩
工况
得逞
微调
心肌@@
惋惜
教资
毯
水陆
签字国
群集
而上
迁居
遗
阿尔巴@@
Cur@@
Dah@@
UNEP/CHW/@@
amba
bi
overn@@
不端
便有
公认为
公证人
加拉加斯
台湾@@
基础性
奏曲
小猫
提了
搞得
施密特
水肿
江河
略为
短路
脚上
自认为
花序
茨克
荒废
蕊
阿尔马萨
64.@@
Vill@@
lan
so
span
体上
受伤害
和易
在给
妖
小姑娘
小道
斯特拉@@
月薪
母亲节
碌
老旧
见图
邮轮
醒目
11月23日
22亿
45％
Bos@@
DP/FPA
Hig@@
aza
ente
兢@@
内贾德
写字@@
冲绳
凶猛
加特
变动表
后门
布道
广州市
必有
急迫
战备
摇滚乐
教育界
水文学
温床
热衷
犁@@
疤痕
砂岩
红灯
缄默
而去
肯塔基州
要多
词句
退席
针灸
随心所欲
面团
黑莓
124.@@
2007@@
574
740
80.
921
Hall
PC/@@
sal@@
″@@
不使
严寒
伊特
兄弟@@
創@@
加装
华州
卡利
基·@@
天鹅@@
实测
总参谋长
服务法
热狗
电传
监视器
祭坛
穆德
腰部
虾@@
评析
轭
金黄色
118.@@
11月27日
1897年
189@@
687
E2
North
eum
mod@@
ram@@
一新
价位
保镖
冲出
叛徒
口试
告示牌
喧闹
喷嚏
多亏
大亨
尽其
工程科
并联
惯用
支用
收率
清关
爱慕
牟@@
男同性恋
监听
短裤
組
網@@
胡椒
自毁
舒
蕴
辅音
都行
阿尔巴尼亚人
758
Ras@@
Shah@@
不定式
传讯
伯南克
化验室
哀
孤
已将
巴特@@
意向书
指为
林木
毁损
研究生@@
社会学家
科恩
移走
第10@@
第75
签了
类似@@
索拉@@
肥胖症
腋@@
英式
诉讼案
韦尼
1-4
1907
631
840
Andrew
aff@@
ration
ric
下流
不可及
不是@@
书状
使您
假使
光环
出事
吠@@
商行
山洞
峡
总务科
换上
捣毁
教学@@
无异议
无济于事
机长
核武
汗水
污点
溅
產@@
神色
禁产
簇@@
糕@@
蜷@@
还算
透析
阿姨
颁授
黄蜂
/1
A/C.2/54/L.@@
A/C.3/66/L.@@
Def@@
E/CN.3/200@@
ound@@
〇
中國@@
予@@
减产
发式
影集
托斯
振幅
掉进
政策部
数以万计
斤
无缺
检验@@
概念性
比奥
比斯
状体
营里
酒杯
28-@@
32@@
636
641
Fed
XIX
XP
Yus@@
ason
dh@@
tre@@
wa@@
之三
从头到@@
包里
印花@@
司马@@
壮丽
女皇
安插
工程部
必修
惊异
捏
炮轰
炼厂
皮毛
穿刺
舒缓
蝗虫
车速
金森
阿达@@
雷斯·@@
2001-2010年
731
CP.16
Hill
Moh@@
berto
pH
交汇
伙计们
修养
创新@@
合算
复性
失窃
小企业
小鸡
巴西@@
帖子
幸福感
快活
戏剧@@
折合
推车
敷
易卜拉欣
根于
油藏
焊缝
生成@@
盔甲
确是
第986
系外
辩护权
醫@@
领主
领有
200年
642
atic
pp.
丝绸之路
之主
交易法
享乐
八年
匹林
周遭
坟
基督@@
外交@@
对子
尼尔·@@
开裂
所欲@@
押金
放假
本地化
烛光
热水器
熟虑
管用
缝隙
让位
赎回
零钱
零食
髋@@
IF
Mahmoud
Not@@
Royal
ander
chi
ters
久性
侵扰
勾勒
华侨
地平
复盖
小块
尼克斯
悖
承办商
承诺@@
挖出
排练
救生@@
歌星
瓦拉
白领
罐体
耳边
聪明人
膜炎
航天@@
苏格拉底
觅食
阻拦
鞭打
14％
330万
JS@@
a.
ban@@
cor@@
下部
世紀
二十八
人流
使受
全日
到过
小岛
应作
开张
性化
画画
百分率
监制
相关@@
看不到
祖传
纲@@
细长
给药
肤@@
苗条
覆核
非得
风向
70.
900@@
ule
保值
全息
华北
南联盟
居多
岔@@
拆分
拔出
斧@@
新生@@
暴君
生物质
用车
第58/316
裂痕
邸
銀@@
隔热
马斯@@
1889年
71.
Canal
European
Mass@@
一路上
亮光
分心
副书记
家长@@
屎
德拉·@@
扛
找他
推卸
救生艇
数化
新鲜@@
暴风
案头
氨基
汞化
涉事
瓶装
申索
离心
转告
远的
酿造
长满
A/C.2/62/L.@@
Coll@@
ouse
会试
凌虐
取笑
向这
呜@@
基体
塞浦路斯人
导引
小康
希伯来语
掏@@
教友
歌颂
满满
牢骚
皮瓣
芭蕾舞
莫名其妙
藏有
里斯@@
风波
麦金@@
﹞
８
2011-2013年
4:00
615
9/
DR
HC@@
仪表@@
加冕
大额
太阳光
室温
很有可能
您的
放眼
放矢
杏仁
柏林@@
特克
相结合
研磨
胜利者
药片
被子
费尔德
辈@@
遇有
邦联
阿斯塔纳
雷霆
风情
鼓手
＿＿@@
6.4.@@
688
A/C.2/@@
Liv@@
REDD
ling
不久后
倒台
倚
分水岭
单元格
喀
圣所
墓碑
寺@@
径流
戈尔@@
掉落
明尼苏达州
气相
淋巴结
立体@@
等他
自问
艺品
艾森@@
茂密
趴@@
辽宁
连环
飞向
Jon@@
Men@@
Ou@@
aev
tain@@
与会国
为妻
入息
全垒打
共和@@
刺客
名單
增加@@
姚@@
巴特勒
年内
建房
慢跑
成矿
拨号
挑衅性
摆布
河南省
活鸡
熬
班长
瑞尔
萝卜
调查官
轻柔
选购
醋@@
非会员国
饿了
首部
马哈@@
A/53/2@@
Lou@@
Sing@@
Tex@@
Wadi
abi
不稳
不被
养殖业
吓得
塔拉@@
安委
很差
挥发
来的人
沙尘暴
洲人
煞@@
禄@@
网络化
茜@@
荆棘
讳
路途
辗@@
辩证
非利士人
鲤@@
E/CN.4/1997
Hos@@
arg@@
hy@@
mb@@
东西方
动画片
可视化
唆使
圃
富士
开脱
抵押@@
本该
松树
标识符
树丛
植物园
气概
湍流
火警
犀牛
电化学
福布斯
秤
苏尔
莲花
还用
逮@@
重复性
预兆
魔戒
28亿
595
A/C.2/59/L.@@
Exc@@
GE
esa
一九九七年
后遗症
喂食
对调
感染性
星系@@
楷模
毕
涡
烹@@
窜@@
缺省
胃癌
西班牙@@
郑
隆起
雪地
音乐厅
高薪
2016-2017年
22％
300亿
45-@@
757
Adam
Apple
nd@@
丸@@
体字
倚靠
假肢
加了
十四日
听器
康斯坦@@
康涅狄@@
抗衡
授权书
新城
朦胧
死囚
治安官
波特兰
生词
相容性
示范法
离奇
离异
第RC-@@
箴
羊肉
蛋白酶
院里
驻华
634
723
Cel@@
Society
elli
lav
专款
中文版
之事
净水
厢
可让
埠
大猩猩
巴解
开个
心境
承建商
本市
棕榈
橋
水线
流经
热力
睁开
私利
绑架者
藉此
达州
销售商
1/4
13-@@
Cost@@
Sav@@
Tou@@
不可否认
为所
何以
全神贯注
凯伦
制性
勉@@
升空
友爱
古尔@@
团团
思嘉
扎尔
收藏品
既往
杰拉德
格纳
棱
毅@@
气田
满意@@
理论@@
置评
茫@@
蟑螂
调速
豫@@
财务司
赛马@@
高水平
19亿
709
805
A/C.3/67/L.@@
A/C.3/68/L.@@
Hg/@@
kov
ández
不着
仕
伸张
例会
分批
前人
十二日
卢卡
发生器
可数
史料
多加
好听
寄托
射箭
尼尔森
快感
施舍
标有
格兰
橋@@
汤姆@@
疑犯
病理学
相交
種
花纹
蠕虫
论题
越少
路要走
运动中
降幅
高精度
34/@@
577
CP.17
HO@@
Union
从容
停住
储蓄率
前列腺
史蒂夫·@@
寝
工种
差遣
弊病
弹出
截至@@
插在
搬走
教职员
更迭
水路
美满
运输机
陕@@
颠簸
颤动
2009-2011年
51/200@@
665
85.
Club
Kum@@
Organ@@
Patrick
athan
一团糟
二十九
冲破
几近
均可
夷
微机
捆
擊
斯科·@@
死刑犯
水槽
热病
理法
简况
统计员
菲利普·@@
血管@@
达拉@@
Manuel
Prog.@@
Secur@@
XVI
但却
前缀
合情合理
居住@@
广域网
恶行
换乘
摩擦@@
摩根@@
甲醛
男方
白垩@@
看在
科普
第97
这一点
这天
这话
酬劳
驶
169@@
from
ymp@@
丢在
丰满
供款
制度性
加工区
土地换
密歇根州
岩层
报的
播送
有帮助
申科
篱
莫测
西半球
西门
购单
路板
逾@@
邀约
针刺
2011-2015年
A/54/L.@@
Pic@@
UNEP/FAO/RC/COP.@@
一劳永逸
二手
克伦
別
华为
卷土重来
咒骂
哉
唤
宪制
密谋
屋内
杀菌
汝@@
游人
燥@@
瓦尼
记起
设为
跑得
首任
18％
613
750万
Moun@@
N1
iza
ld
orts
中空
俄羅斯
内联
前妻
听话
国徽
在拉
复位
岡@@
巴拉克·奥巴马
幔
廿@@
总书记
愈发
手帕
旦@@
服务社
流浪汉
渔场
爱德华·@@
着落
磨难
箔
绣
联通
自新
舞厅
远端
迦勒
首页
高架
6.5%
637
67.@@
What
取下
吕
弗罗@@
接触@@
搜捕
政制
本品
洗净
犹他州
疱疹
癌的
眨眼
短程
簧@@
米拉@@
粘性
纽芬兰
维茨
翻转
英國@@
豌豆
运出
送货
频发
2005-2007年
7000
MU@@
乐章
乳制品
互访
住进
佩德罗
冶炼
刺绣
北极熊
变相
声说
安托@@
枯萎
渔农
睫@@
积存
米洛舍维奇
系由
系統
自筹
该段
贱民
轻声
阿族人
/2003/@@
1885年
260@@
733
A2
D1
High
三十多
业务费
人本
冲刷
声势
姿@@
威斯特
帽@@
并作
床垫
建起
惧
拜多阿
提款
村镇
松懈
毕生
毛毯
温石棉
社保
福克@@
私刑
般的
节水
试题
重病
1848年
2.5亿
Gonz@@
中常
交易会
会众
古人
展会
忆
独处
痕@@
皇冠
第一百一@@
粘膜
美援署
肋@@
酿酒
隐秘
2:45
A/61/8@@
A/C.3/52
A/C.3/65/L.@@
AA@@
Victor
ior
ool
une
一夫多妻
乌兹别克斯坦的
动漫
原意
君士坦丁堡
哼
坞
城邦
客串
干酪
开动
敛@@
普雷
服贸
海鸥
灯具
肾上腺素
雅典@@
非人
风中
193@@
360万
5.5%
703
770
81.@@
CP.4
Party
you
不用说
世系
低劣
停机
其害
分出
压力@@
发薪
可控
土耳其语
字形
安德鲁·@@
德林
志向
恋童癖
房顶
报告会
教化
有人@@
第70
葫@@
访查
调处
间里
面性
食水
马库@@
鳍@@
27-@@
AD
Louis
Play@@
Sad@@
Suppl.
·伊@@
ć
五百万
前卫
圈套
埃爾@@
字数
学识
对白
射流
惨痛
有制
殷@@
珊瑚@@
病害
白喉
科克
穆萨@@
竹子
粥@@
观光@@
迫于
迭
通关
面容
2010-2012年
76.
IV/@@
ny
sson
临时工
二氧化硫
公开@@
实性
巴格@@
战犯
手柄
插头
暴涨
树皮
砷@@
简讯
螨@@
见习
记忆@@
豹@@
阿帕@@
非工作
高雄
麦斯
101.@@
1893年
5.8
Add.
E/2011/@@
不免
专著
切身
备抵
外型
多德
大麦
奉承
布利@@
心动
悠闲
患了
投寄
搁@@
方程组
最强
校服
汉堡包
法性
海鸟
留任
相聚
秉承
穗@@
精神科
自体
自行@@
莺
165@@
17％
40-@@
702
9.4
DV@@
E/CN.6/200@@
e/@@
ever
ky
tri@@
列国
办公桌
加压
卡尼
史蒂芬·@@
告人
囚徒
国教
坊@@
学得
尽最
抵抗力
斯科普里
源源不断
瞧瞧
篡@@
耸
运动鞋
进口量
錫@@
鲁迅
11％
1976
26-@@
3.0@@
648
CBS
No
ures
uz
不失为
仁川
利语
务部
取景
嗅@@
四世
坏的
室里
尼古拉·@@
弹匣
当众
恐惧症
托福
抬
捕猎
无一例外
来着
检定
泰坦
流速
海岛
爵位
牧羊人
猛地
眉头
眼看
租车
税费
纳布卢斯
老的
荆@@
行踪
要命
长级
.htm
9000
Commission
Dig@@
Invest@@
Lt@@
ni
一亿
倦@@
倾诉
后现代
呎
塑料@@
奈纳
拐杖
放回
於@@
普惠
毒瘾
求救
稻草
第41
编外
蒙大@@
车体
陨@@
预备役
高压@@
A/C.3/69/L.@@
Dist@@
Singh
Tran@@
met@@
v.@@
人口@@
伊恩·@@
佑
依存@@
其时
叛逆
基斯马尤
大利
布尔奇科
弗雷德里克·@@
排位
收视
智能@@
松鼠
格格不入
水族@@
焰@@
环氧@@
生存@@
登出
硝酸@@
練
蛤@@
试验场
遇刺
钨@@
阿兹@@
鲍
666
Barb@@
Intel
Leon@@
London
PF@@
TE
不成@@
与此有关
助教
县长
圆顶
妊@@
溯
牧区
理论家
电力@@
痴呆
膝上型
艾尔
输送@@
返乡
这次
金·@@
长在
领袖们
饺子
馆藏
INF.1
Jan
Muk@@
erd@@
lex
±
中介@@
中核
主动性
二零零零年
供方
侠@@
写完
另请
喷涂
嘲讽
威尔士州
安全处
带往
常说
庄重
快到
我家
拉拉@@
撤除
文官
流场
流浪者
特效
直面
眉毛
网膜
胡乱
英格
轻松地
院所
预算案
食品@@
饶恕
麻风病
12.7
131.@@
167@@
3G
5百万
Garc@@
Jud@@
Scott
mond
ys
上前
九时
仍将
受孕
可就
塔斯
将给
尼古丁
市郊
录像@@
录入
掺杂
改由
断面
施肥
有误
栏@@
污染者
沉淀@@
泼
洗衣@@
理赔
知会
种植者
第XVII
莫扎特
薪给
襟@@
跳出
阿迪@@
3.0
677
E/2007/@@
Vlad@@
tiv@@
vention
一举
主教@@
什蒂@@
伏尔@@
唐朝
回籍
图斯
好过
存于
序列号
惩教@@
捷运
某一@@
栩@@
欧洲@@
滩@@
现出
砰@@
突厥@@
突如其来
经济部
综援
走遍
转机
酒后
/2000/@@
73@@
AB/@@
E/CN.6/@@
FCCC/SBST@@
Hil@@
°N
之声
之大
乘法
北侧
告发
国庆@@
寨@@
尿道
带电
德森
打捞
明确性
木乃伊
民阵
气化
瑞典语
登山@@
知识型
矿产品
竭尽所能
第45/@@
第88
纽约@@
经委
继位
自给
苛@@
萨德
著有
重修
陋习
2010年代
340万
CF
My
Williams
ayo
kins
乳头
冠心病
加斯@@
原则性
君主制
回溯
大范围
宜人
容积
工薪
归宿
形貌
成就感
成比例
把持
接听
本表
标价
核威胁
死灰复燃
氯化碳
特征@@
留级
瘫
第55/2
粹@@
系列赛
绿党
脱口@@
至於
西海岸
超乎
重奏
镇区
CRP.
Nich@@
XI
use
不至
仲裁@@
判别
到期日
卡罗尔
发明者
受欢迎
名次
喷气式
城邑
大大地
安逸
实权
度计
抢掠
无谓
明令
洛德
滑行
濟
瞎
致谢
迫切性
长年
飞鸟
2000-2003年
com
in-@@
一举@@
上有
匪@@
可归
巴达@@
平流层
德涅@@
检测@@
活产
流转
燃起
猫头鹰
申报表
町@@
神户
管署
纹身
联萨
辐射源
韩国人
697
Ach@@
Rail@@
net@@
ë@@
区域@@
医管局
升迁
吁@@
图谱
埃拉·@@
战死
扁平
手艺
批货
抹去
景气
毛主义
毫升
浩劫
知之@@
砾@@
稻田
综上所述
肛@@
莫迪
萨那
调味
这段
首发
29/@@
4-5
632
820
Cath@@
vi
不尽
不支持
乱七八糟
凡尔@@
创始@@
务农
北省
半自动
原版
困在
地下@@
天空中
夭折
女孩们
希尔顿
年制
拍打
撮
斯特里@@
某物
电阻@@
精打@@
索赔号
计票
远在
遐@@
阿森
1888年
ape
ont@@
ower
rep@@
二零零二年
人脸
供应品
具体化
动静
卡莱@@
哟
因我
差异性
平方
忍不住
恭喜
检查官
榴@@
澎@@
爹
牙刷
疟
盾@@
第2.@@
第II
肾病
背井离乡
褪色
陆港
顶替
高分辨率
Kell@@
交响曲
列斯
号称
同龄
娅@@
学过
当事@@
惬意
敬佩
治疗性
法科
波兰人
理化
着色
移开
缪
老妇
耐药性
诺斯@@
货币@@
餐会
驾照
38/@@
420万
50年
Gri@@
Mol@@
上行
不因
两极分化
为政
二千@@
仿照
力士
加省
劳累
北边
开发@@
心室
戰役
揣@@
政客们
教职
敬拜
日复一日
显示屏
服药
来之不易
枪托
沫
神星
联盟@@
蒋
邪教
银幕
闭幕式
阿拉斯
骄@@
１９９@@
2004/05年度
ATP
Arch@@
August@@
C-130
Christian
F4
LE
MP3
amp
kg
stit@@
一氧化碳
不提
令状
分送
券@@
南桑威奇
国际上
大举
安保@@
提尔
显赫
普雷维拉卡
椎间盘
泣
活性剂
漂白
煎熬
碳纤维
粗心
结存
结节
群山
莱昂@@
谷类
贸易量
钢丝
镇痛
需用
马里亚@@
136.@@
2.2%
Coo@@
Sun
Taylor
acional
co@@
iss
ords
rol
sm@@
二者
升入
咪@@
拼音
日圆
智能化
有声
期望值
治病
淹
生性
站上
籍地
聂@@
聚集一堂
获救
董事@@
观者
计及
食肉
高声
644
679
Cu@@
Expl@@
Haw@@
ó
˙
亟须
兴高采烈
删掉
叫着
同盟军
吝啬
基拉@@
多付
少年@@
尼古@@
庞
拉迪
收藏家
有时限
林匹@@
榴弹炮
洗涤@@
现阶段
睛
罗杰@@
莫大
葱@@
西卡
要人
调阅
车位
车内
近的
降下
隔年
颇具
高炉
2－@@
Au@@
Nah@@
乞@@
其说
固醇
国为
埔
外借
女座
崎
建造@@
心率
怀旧
打给
抽水
施瓦@@
无色
机关枪
歪@@
电磁波
碳化物
第80
诊室
谓@@
蹈@@
轰
马里兰
驳
高跟鞋
5千
782
CB@@
Fat@@
GC.11
REP/@@
So@@
class7'
red@@
zo
一性
主干
产于
传道
体形
侦破
农庄
刺激性
四百@@
地球@@
城外
大树
大雪
子句
密苏里州
帕里
强者
恶梦
探求
握着
断开
斯雷布雷尼察
无处
暖气
松开
核弹
樂
止痛@@
照明弹
版图
王妃
瞻
磷酸盐
祠
第78
管束
薯@@
蜂窝
记者们
轰击
道上
锤子
长效
隐匿
骂@@
麗魚
2005-2009年
73.
LD
Son@@
cm
与世隔绝
中英文
供热
内应
出纳
喧嚣
塑像
头角
导性
幻影
战斗@@
水溶性
浇水
焕@@
第76
莱斯特
财宝
防疫
院舍
集聚
1,200
1.25
5/SR.@@
732
940
A.1
INC.@@
Jenn@@
Xbox
aria
he
math@@
un.org
不理
不见@@
丧气
五金
假发
党制
创性
前部
劳伦@@
即对
嬉@@
山岳
序幕
托勒密
控器
无可争议
旧有
有何
服务商
歉
污蔑
治外法权
竖起
第48/162
资金流
走的
通航
那日
領@@
鹫
Life
Media
River
any
今早
供作
全天候
后座
哈龙
天安门
夹杂
对齐
差值
援助者
本季
机中
枪声
決@@
游轮
火热
炊@@
炙@@
登基
福州
第46/182
缅因州
老年@@
获得性
让给
赤裸裸
转来
10:30
35-@@
804
A/C.1/66/L.@@
Nass@@
一无所@@
万军
代用品
倘@@
内装
刺耳
反贪污
奥会
山庄
师父
干涸
度假村
弄错
恤@@
惠给金
惩
招来
散落
滋养
爱戴
用功
离弃
脚跟
起算
院制
隔阂
非技术
驾驶者
618
712
FBI
N-@@
aye
东风
互连
写信给
冯
加里@@
和平区
哎呀
意欲
抗病
斯多夫
斯诺@@
海王星
结束@@
网吧
羔羊
萨斯喀彻@@
赐福
起首
跳进
酿成
闭合
雅思
雷蒙德
雷诺@@
100多万
16％
A/C.2/63/L.@@
ABB
air@@
一无所有
下挫
不只
东斯
中式
低利率
体液
倍数
切入点
北卡罗来纳
吉娜
城市@@
太长
子民
孢
宪报
尼察
开挖
快于
抵押品
排泄@@
摔角
服装@@
某处
桑迪
泽尔
流形
着眼@@
短波
第2758
筹备@@
管处
纳瓦
茨堡
萨科@@
讲习
许可@@
路易斯安那州
这道
酒厂
't
1884年
6.7
675
802
ION
Jim@@
Stephen
Syst@@
Wi@@
产区
呻吟
嘱咐
培训者
复兴@@
寄居
小河
微处理器
愿为
成倍
承载力
拉德@@
损失@@
敬重
文版
斯宾@@
斯登
时区
梅隆
比亚@@
江南
玫瑰@@
端点
第34/401
绍
翡翠
解运
读音
赫拉特
通婚
622
624
Anth@@
Simon
Sir
oda
三世
上会
互动性
交界处
出勤
制订者
劳役
去的
应运而生
意志@@
战列舰
球星
症候群
米切尔
绕道
芭芭拉
莱斯@@
蜕@@
要的
言说
讲道
資@@
連@@
鸡尾酒
50-@@
58/2@@
60.@@
Bill@@
Cra@@
GT@@
sec@@
一氧化@@
丁基
亚太区
仍会
俄勒冈州
冤情
加盖
半天
卫冕
庆贺
很早
扰@@
撤职
更小
朽
杀人犯
栏中
沼气
泽斯
玲@@
疗养院
穿得
第58/269
纵观
缤纷
老天
肯特
舅
虚幻
调换
谛
踏入
阿拉巴马州
America
CST/@@
CU@@
Pé@@
一八@@
丈@@
井下
会社
低位
功绩
哇@@
商户
四肢
复制件
安乐死
尔族
崎岖
心理@@
执政@@
拉近
榆@@
水塘
烧掉
燕子
直系
硬拷贝
第16@@
筹码
精制
统一@@
钠@@
铸件
除草剂
非成员国
龈
11,@@
1998/@@
83.
Kaz@@
Lew@@
eration
不容许
不相@@
专委
人权者
兰花
冲击波
出力
劲儿
夥@@
奥托
妖怪
密封@@
小作品
崩盘
嶺
席尔瓦
异教徒
拦住
插值
氦
消化道
渐进@@
游戏@@
爪哇
罗维
美拉@@
艺术节
辨明
运至
预览
1871年
A/C.2/61/L.@@
A/C.3/64/L.@@
Eli@@
Ern@@
H5N1
Mic@@
S/2013/@@
Vo@@
ario
dal
index@@
一块儿
丧命
乙酸
云彩
亚行
军部
冲压
刀片
双管齐下
反攻
可要求
同仁
吞吐量
四舍五入
孪@@
小巴
怠
拉菲@@
毒理学
煽动性
物主
病历
皆是
简表
谢克尔
车载
软性
迫在
阶段性
597
CCPR@@
Kom@@
Ll@@
eno
int/@@
ograph@@
下颌
专利@@
乙酰
乳酪
亚拉@@
众国
作废
倍感
农业@@
冶@@
卫报
去处
埃里克·@@
大半
安理@@
屆
巴拉迪
巴比@@
常人
广播局
得票率
德國
快照
懦@@
控制下
本田
案人
泳池
海因@@
海路
现代性
病毒性
眷
瞄@@
管炎
胆怯
花花@@
赛特
里程@@
靖@@
预发
27年
725
90.
A/HR@@
Fam@@
Vista
XII
rad
·迪@@
ž@@
下垂
久化
利者
占有率
即由
唠叨
国力
地拉那
多见
屁@@
山脊
应允
徐
微波炉
无事
朗德
杰弗@@
汽车站
沼泽地
瓦·@@
策略性
航站楼
详列
谊@@
长老会
阿尔巴尼亚族
须按
黄土
Fac@@
Man
Mov@@
Spr@@
UNEP/FAO/RC/CR@@
UR/@@
WA
law
men
低洼
作坊
兴奋@@
同于
哈德
垮@@
大哥
怎么回事
惶
戳
掀@@
斯·卡@@
朝鲜人
本地人
沉寂
瞬时
纳姆
辑@@
阿卜杜勒@@
韦尔@@
馈赠
鲁滨逊
123.@@
751
84@@
E/2009/@@
II/WP.
Li
RC
ts@@
业率
为人知
了么
二十五日
公安@@
况@@
加德@@
变卖
同源
吓坏
塔楼
害于
寶@@
戈德
承担@@
无望
未免
業@@
正则
水晶@@
测度
燔祭
特兰@@
盛情
自然而然
衣裳
赫德
镁@@
1966
PN@@
Pav@@
·莫@@
án@@
万年
上月
不得因
专攻
但如
免去
关贸
史学家
均属
头颅
姗@@
导数
弗洛伊德
怪人
戒律
护航
教育学
普及@@
普遍地
桐@@
桶@@
气道
牲口
纳维
聚在一起
脉动
袖子
证券化
身受
较晚
锦赛
马尼@@
麻黄@@
1892年
5.9
901
A/C.5/54/L.@@
Aj@@
Georg@@
Ins@@
Russ@@
USG
edo
一小时
充其量
劫掠
卡拉季
原体
塞尔吉@@
壕
奥拉@@
布于
帮手
当即
投身于
抗氧化剂
湯@@
满贯
满载
演讲人
火烧
物证
瑜@@
相加
睿智
神明
租住
讲稿
躯@@
还击
驴子
--@@
104.@@
2.10
370万
:00－@@
Bill
Science
ashi
can
leg@@
lif@@
产法
入场@@
刀剑
分销商
加到
参谋部
可使用
圆圈
坐标@@
壳体
外溢
学堂
学府
居住于
彰@@
排泄
放上
文森
最短
格子
格州
气藏
汰@@
港湾
甲壳@@
申购
结出
给以
肥力
莫·@@
行时
術
走运
７
628
82.
Grand
HSP/G@@
Ho@@
Jack@@
Kit@@
Shin
一概
下山
与时俱进
丝带
免疫力
出击
卡斯特
哈比@@
定做
宝库
布什@@
平面@@
当某
恩里克·@@
护卫舰
探针
政權
易卜拉欣@@
普通话
潮水
激化
离线
穷苦
索赔者
脚印
自卫队
航母
莱克
谈过
道别
郁闷
锐减
雹
食盐
﹑
830
980
A/CN.9/WG.III
CAD
RAM
Vid@@
Walter
书包
传真机
侬
全名
卒中
叁@@
取舍
可见@@
天文@@
得上
德河
德省
撒旦
校对
沼@@
波德
活度
淬@@
特朗
琐碎
由此@@
硝酸盐
粉色
贴切
进化论
遂@@
风琴
风趣
高铁
614
617
IK@@
R/@@
Wa@@
ind
tra@@
主因
主观@@
侥幸
危地
小球
怠@@
拆开
残疾@@
河床
炉灶
甲苯
秆
续设
自语
记帐
2007-2011年
787
Bri@@
Tol@@
en-@@
oui
rol@@
tif@@
一空
丑恶
你说
分配@@
区段
卡宾@@
基伍省
多发
定了
气和
洞里
涉外
而至
胸腔
藝術
表象
规划者
请愿者
邑
陵墓
1894年
2.11
621
9.5
MB@@
Off@@
Sof@@
bar
yle
为高
休眠
低层
低沉
务求
即被
发证
含蓄
坡度
基人
排入
旁遮普@@
显性
更能
有违
本题
橱柜
母子
河州
白内障
程表
糕
维尔纽斯
蓄电池
铜矿
155@@
380万
635
785
iana
rist@@
via
ín@@
㈨
不加区别
噬@@
坏蛋
坝@@
天然@@
影星
德育
投影@@
拉各斯
接线@@
时装@@
月饼
有酬
木偶
沃尔夫@@
涯
渥@@
湖边
演讲@@
竭
粗俗
肛门
讨人@@
财务@@
货单
贮器
赫兹
运行时
驱离
1996/@@
753
775
Cs
Esc@@
Francisco
Lav@@
M.2
SNA
Time
asa
vers@@
中海
人情
凿
前辈
听不到
周全
国防@@
外务省
對@@
屈辱
得多
徙@@
戛@@
摘取
术前
水渠
洛朗@@
特岛
福斯特
第49/2@@
篮板
精油
统统
维那
联几
课时
躺下
造出
采摘
重地
阪@@
附图
韧@@
香港人
马术
1/2
115@@
639
653
744
920
GNU
Jones
Nasiriyah
Sum@@
eli
elo
ø@@
ā@@
不充分
不懂
主帅
二○○四年
二十日
击沉
十溴二
南边
发电量
另一
可信@@
圣火
女星
子群
尽速
引以为@@
快餐@@
户头
拉到
搬出
曲率
正月
法兰克
活生生
溶解@@
秒@@
節@@
精液
约占
纪念封
義
花招
莱顿
阿伊@@
韓國
'>
/CP.@@
10.3
2000万
683
<span
Francis
Hussein
LH
Red
asi
class='@@
ija
inn@@
一段
上流
主阿
也未
制式
发送@@
塞雷卡
差劲
引证
彬
斯河
早在
木匠
权属
柑橘
油炸
游民
爱德华@@
狡@@
珠儿
生锈
直译
祈祷@@
租赁@@
移位
竿
第25号
类推
粉红
解放党
诗集
跳板
退火
邵@@
钟楼
阿肯色州
陸@@
集体地
饼@@
1.2%
1.6%
Star@@
car@@
保险箱
协议书
取的
哈桑·@@
坤
官职
对冲
尼西@@
悔改
愕
最差
桑德斯
涤@@
溃
独占
狭@@
站起来
第30@@
管理所
膀@@
花式
药方
表面@@
西门子
诺曼底
蹒跚
陈腐
隐约
/CRP.1
3－@@
43/@@
652
ART
Cru@@
HK@@
rad@@
买了
交到
先是
入量
其人
内河
叶绿@@
国家@@
国策
夹层
奥罗@@
妈的
干扰@@
徵收
快艇
念书
拙劣
斯威@@
淤泥
滚筒
绝对@@
脉搏
避风@@
额定
08@@
1.1.1
4月份
Deut@@
E/CN.17/@@
Vit@@
arah
box
ince
win
不分@@
买的
从此以后
哈瓦@@
四千
大修
字型
学习班
德克萨斯
慷慨地
打在
新秀
旅游部
既成
淌
特长
矗立
约柜
落败
蓉
藩@@
调情
金正@@
阿尤@@
雨天
09@@
31/@@
662
IU@@
ob
丫@@
反倒
反革命
句法
各派
呵呵
地籍
天平
奢@@
年平均
异国
抓起
提防
核桃
海洋@@
点点
特邀
环保@@
竭@@
笔直
羚
赫勒@@
阿罗@@
韧
//www.un.org/@@
647
65/2@@
9点
Abd
Alb@@
Rich@@
Wall@@
ayr
del@@
sl@@
保育@@
初创
功劳
哈萨克
喃@@
墨西哥人
威廉姆斯
存活率
州人
戳@@
换来
摇动
撒哈拉人
改革法
无味
本月
松动
正中
死掉
渔获量
电泳
福利法
精巧
询价
踪影
酐
310万
84.
AK-47
Kap@@
Ko@@
Ly@@
Point
不为人知
为好
刷牙
可资
学着
扬声器
投诉@@
摇头
摘下
斯图尔特
无边
权证
磐石
突击队
胸口
艾伦·@@
裘@@
货架
质谱
赚到
门廊
阿片剂
1万亿
25:@@
612
689
765
Committee
SN
不经意
从下
侵
公转
冰河
动车
勋@@
图集
就此而言
布里奇
意大@@
显明
有生@@
满月
熵
瓜分
第VIII
米格
表露
观察哨
过道
这场
邮联
长方形
闲逛
高密度
13：@@
2.7%
657
BD@@
CRP.5
kn@@
oro
ria
uba
ular
不论@@
个儿
介绍所
凡人
助攻
十八日
华南
受惠于
向右
哥特式
士官
少年人
彷@@
恐怖@@
成对
探雷
支护
木马
氯酮
爱尔兰人
理发
病痛
第6.@@
绝缘@@
统领
耶斯
萨默@@
触觉
讲求
述说
选任
醋酸
随访
雄伟
2011/2@@
29-@@
40,000
676
E/2002/@@
GM
Hon@@
LG
MHz
·艾@@
不以
中点
可亲
咖啡店
头皮
好用
威严
所有的
故宫
朋
法方
波利@@
眼部
碳水化合物
箴@@
聚丙烯
英明
起先
跳下
迂@@
递归
齒@@
11.2
2：@@
A/AC.25@@
Gha@@
MM
lad@@
上议院
之作
乞求
买单
出奇
力矩
動畫
卡特里@@
吵闹
唾液
巴尼亚@@
心不在@@
愛
打压
接战
斯诺
方向盘
方舟
烛@@
焚化
离岛
经营权
绽放
耐磨
舷
贱@@
针头
鳄
000多万
12万
2008/2@@
745
Fried@@
Gab@@
Nam@@
alo
不计
久了
亚洲@@
何必
内设
博尔
卡斯蒂@@
口水
同月
推进@@
摩洛
斋
施法
汤米
沃森
狱政
胡克
西斯·@@
解释@@
賴@@
走入
遗传性
重犯
雍@@
高技术
魔王
/2005/@@
050
430万
681
696
728
COP
MIN@@
PR
S/201@@
Virg@@
her@@
iff@@
一刀切
书签
代名词
修理@@
全氟辛基
勿@@
区内
区长
南卡罗@@
口罩
合议庭
咖啡厅
團@@
大餐
如无
寥寥无几
尔省
尽其所能
巴布@@
拥堵
政府@@
数达
最美
未变
水务
活得
牛群
称颂
第34/@@
联普
肽@@
蘇格蘭
认购
诸项
运货
透射
马尼托@@
體育@@
672
ASG
CERD/C@@
Jim
Sheikh
事变
五百@@
休斯敦
取走
吐温
向左
境内外
多金属
天王星
巡查
所付
浮出
為@@
珂赛特
現@@
疏松
疟@@
笨重
纸箱
耳光
萦@@
角处
还清
雷德@@
鳏@@
1199
72.
808
King@@
Max@@
ONUB
aba
bas@@
burg
一小@@
三千@@
先期
刚从
到自
北大
参演
变现
名望
呐@@
头骨
委托书
守恒
拣@@
指使
数字@@
犊
珍藏
琢磨
生了
疼@@
眩晕
联名
荒地
西湖
诚心
迎击
选派
逗号
金像@@
阿纳
1886年
CAT@@
CEDAW@@
Force
Found@@
News
OC
à
万能
产自
传遍
兮
击倒
制作者
匪徒
卸货
啼@@
嗦
回了
埋怨
基斯
塔里
学人
小鬼
帶@@
强项
无国界
李明@@
梅尔·@@
点球
硫化
联络@@
萧
议事@@
说了
超音速
身患
还债
里加
1880年
57/2@@
Math@@
anne
isi
克里斯托弗·@@
分布图
动者
包租
发展商
口吻
吉达
噜
回原
安全科
家长们
尚无
工业用
想见
招聘@@
推荐@@
数天
流层
淀@@
满分
瓦纳
磨削
程度上
缴税
翠
茫然
要向
语族
诵@@
阿里亚
首脑级
麻雀
803
B2
Busin@@
Eric
Sem@@
WE@@
sk
struc@@
一员
不合作
乳癌
保管人
反恐@@
呐
哈里·@@
妒忌
将同
层出不穷
工作台
已对
帕尔
开诚布公
心碎
无法无天
智库
有助益
植物油
武帝
注射器
竭诚
粮食署
肴
衍
证法
遏
长辈
阿尔瓦@@
高强度
/2009/@@
0.05
1,000万
850万
Add@@
Game
Sam
ference
人工@@
内部@@
分散化
列强
加长
十点
卖主
叛国
古德
地利
备战
大和
大萧条
妆
审校
小数
形图
打好
拖鞋
无能力
昆士@@
机载
来人
灭火器
煤灰
空域
篷
精确性
细菌@@
缝合
自杀率
豚@@
1861年
2百万
619
759
800多
999
A/C.3/61/L.@@
A/CN.9
Add.8
SR
ange
arat
ensis
imp@@
两千
乳酸
代上
位制
供应科
单价
发牌
埃利@@
希腊文
年来
怎么了
总的@@
数种
烙印
照旧
玻璃杯
瑞郎
皮下
缭@@
腓特@@
若在
茁@@
被人
读数
财年
院中
2.4%
Chris
Chur@@
Donald
Pad
ST/SGB/@@
一丝@@
为一
伊万
俸
光大
叙级
听任
塔吉@@
太低
守护者
寓意
平等@@
异端
惨败
抄袭
掉到
摆设
最大值
本年
桂林
歪
滑板
班加罗尔
番茄@@
空间@@
等舱
粘在
绚丽
考证
覆辙
计程车
读过
运入
醒了
锂@@
防控
颚
.html
63/2@@
685
827
CAC/COSP/@@
EM
Khane
Rodri@@
Rodríguez
Script
Space
Super@@
不设
主办国
乌斯·@@
体和
偏心
全景
出乎
创作者
单行本
后盾
唯物
園@@
就餐
床边
扒@@
斯马@@
杜鲁@@
枪口
相比较
真挚
窘迫
签字人
系列@@
網球
要不然
跑来
运来
避孕@@
霍夫曼
饭后
0％
1百万
664
7.7
Alfre@@
Dim@@
Young
hd@@
na@@
ote
ros
修订稿
偏执
催泪
先导
单兵
发球
合格@@
喜庆
园子
基尔库克
外事
婴孩
对不对
开水
归国
思想@@
惭@@
想说
房部
才行
披头@@
无不
明·@@
服务所
未向
格式化
渗流
爵@@
独居
甚者
用油
艰
这般
青蒿素
首场
鸿
/1999
2002-2006年
33亿
Alan
Gom@@
Isl@@
QU@@
Yam@@
ender
uz@@
二元
从来@@
作对
光绪
占星@@
卵石
地走
奇数
安纳@@
完成率
年龄@@
护堤
渗透率
研究部
磺酰氟
禧@@
观察国
试用期
财政司
败给
账务
赛后
预缴
#^@@
756
871
Aq@@
Bil@@
MISC.1
WP.1
rat
és
中情局
二十一日
作成
依其
假象
兄弟们
共达
内膜
只能
园丁
家务@@
常客
掠夺@@
攀
来文方
梅里@@
梵
毒者
烘烤
王子@@
生存权
相对来说
第七十五
继承者
聚乙烯
重庆市
钓鱼@@
钻机
阿尔弗雷@@
风潮
鱿鱼
麦肯@@
32-@@
34年
Adobe@@
C.1
Eg@@
MRI
Marie
chez
way@@
专题@@
伸进
冕@@
凄凉
刻板
发现@@
哺@@
商标@@
在手
多级
夹具
报考
放着
数亿
杜洛埃
极点
歧义
气力
特务
甘肃
私募
穿著
老院
聚变
脂质
藍@@
血红
质数
項@@
Boy@@
Bul@@
Rol@@
SAICM/@@
ading
king
不伦瑞克
不让
专人
但到
内行
反作用
史密@@
吉祥
土匪
大致上
大都市
家电
尤文
差饷
常规@@
悄然
扫地
护理@@
损及
搞好
数据表
斯坦人
明珠
朱丽@@
杂乱
東
查韦斯
橡木
正规@@
波束
泽西岛
洛特
温斯
满足感
熄@@
猎杀
痛恨
皆知
责任区
輯
27:@@
668
Arth@@
CP.3
ono
亚穆苏克罗
到手
勾画
区级
千方百计
博斯
厄姆
取性
在心
嫌@@
学园
小熊
少有
巴斯克
忠心
掩体
某位
生者
直率
窑@@
缆车
要花
试办
诧@@
误导性
谍@@
达沃斯
酒会
銀行
雷亚尔
驶向
748
A/C.3/59/L.@@
Agu@@
CV@@
Day
E/C.12@@
Lat@@
Project
RD
Stanley
Star
UF@@
WG
White
____@@
arch@@
ides
own@@
sa@@
一连
下士
丙烯酸
些年
代谢@@
伊尔@@
入境点
凯尔特人
利比@@
叛逃
坂@@
外婆
家庭@@
宿费
尝尝
布吕@@
弗格森
当之无愧
当月
得胜
感应@@
戈斯
成行
打成
根部
滚石
灾情
睁
竿@@
续期
编订
翼龙
花边
苏门答@@
蔼@@
装出
访者
说得
边疆
通晓
量计
食管
高收入
2.6%
699
721
ume
似地
促发
军火@@
利时
堤坝
大权
宽频
導@@
屯
往日
抗御
招供
普什@@
有好
未缴
机舱
查禁
氏体
索菲亚
罗格
美籍
腹腔
舰只
葵涌
谬@@
货箱
转眼
运站
飞涨
马伊
髓
高调
33-@@
60-@@
722
735
Dh@@
Europ@@
Mike
PE
Road
hk
km
ody
po@@
ren@@
一动
争论@@
二○○五年
入职
减员
凯斯
卡萨布兰卡
厅长
尼科夫
希拉克
打中
找人
操心
文革
断了
早晚
暧昧
毒液
满是
潦@@
疗养
相见
硫化@@
禾
蔗糖
街角
讽@@
诗篇
违章
钾@@
黯@@
@@
00-@@
2022年
80多
CD-@@
García
Kle@@
Ric@@
change
sy@@
ã@@
一步
不屈不@@
习惯性
会展
俘获
克利
全城
動會
吉尼斯
吉普车
委婉
安特卫普
库存量
延展
戈亚
推倒
搂@@
无息
明尼@@
晃动
朝圣者
气象站
深思熟虑
牡蛎
玛莉
生根
电子书
皮亚
组和
终结@@
肿块
胫@@
读出
越战
通商
65％
752
Gabri@@
MO
Sach@@
Stand@@
eni
iman
※
三十六
不放
五十万
亚丁湾
伦敦@@
依此
克-@@
军械
前头
千亿
合谋
吱@@
回击
塞维@@
奥贝@@
女婿
嬉戏
审查处
对岸
幼苗
恶棍
救世主
新元
旭@@
更趋
月报
模糊@@
泛指
洽@@
消沉
瓷砖
用两
硬质
积水
第39@@
艾莉@@
虑@@
该系列
谎话
透支
降水量
马来亚
高清
齐兹
2.8%
810
CFSP
Christoph@@
E/2004/@@
Edu@@
Gall@@
H1@@
Tav@@
ación
eme
ott
不给予
优先级
体长
信号@@
六溴环
其数
吉卜赛人
嗜
回事
巴伊@@
巴士@@
巴西人
帧@@
径直
投标者
歌唱@@
毛虫
突起
第90
简单化
管区
絲@@
線@@
维德
罪状
萨洛@@
蒋介石
蔑
裁判官
4.10
66/2@@
COP.1
CRPD
Co
aro
uck
uli
上用
专门性
修整
值钱
关系网
冲击@@
副教授
加进
唱着
如若
将它
带状
态性
所及
扫描@@
案发
父权
生有
神阿
篇@@
续性
英法
远足
重量级
非营利性
麦克唐纳
1.3%
154@@
2012-2015年
GC.13
XXV
anov
丢脸
二醇
从这个
位点
冰洋
划时代
史提@@
吸收@@
塔特
多巴@@
太少
奥德@@
存亡
安康
宋代
客场
尼奥斯
拉皮@@
接合
条约法
樟@@
汝
波涛
泥石流
测试@@
滚滚
灰心
瞭@@
萨马@@
补丁
装作
诫@@
诺威
阿夫@@
革命军
/2001/@@
007
656
East
FCCC/CP/200@@
L.6
iOS
业务处
互助会
交易量
发展史
基达尔
天主@@
就班
工龄
搅拌@@
撒克@@
步兵师
派克
熔融
白昼
硝酸
空话
窗体
第26@@
第59/250
老练
脑力
自古以来
草场
莫尔@@
违纪
钻头
闲聊
阴沉
陀螺
623
A/68/2@@
Hold@@
Iss@@
Laur@@
syst@@
专才
乾隆
二级
全身心
受够
哈伯
哈梅@@
好得多
就为
工期
弗斯
想做
托尼·@@
接收机
教父
敲打
斐
新月@@
晾@@
权柄
气馁
澄@@
烤箱
焦虑@@
琉球
生境@@
科洛@@
稠
第一百零一
纤
组群
苏伊士
蚓
血管病
行为法
行星@@
诊疗
躲开
轻轨
逼人
避难者
钢琴家
馏@@
麦当娜
1533
790
DI@@
web@@
一致@@
低速
佛陀
侯爵
因受
巡逻@@
工作区
斯省
杂种
械
检测器
法警
灵长@@
疲力竭
科技局
笑着
第751
筋疲力尽
缩略语
耳环
耶稣@@
職業
股骨
賈@@
酪@@
陈列@@
電視
饱满
鼹鼠
2021年
667
736
AZ@@
ISA
Kra@@
WT@@
ais
一动不动
世界时
兑@@
养家糊口
匠@@
卖家
县政府
司令官
埃拉
失措
射门
小巧
希伯伦
忧心@@
想必
昭和
極@@
檐
王牌
田纳西州
病史
登陆@@
眼界
社长
离合器
苏尔特
莱斯·@@
蒂亚
资格@@
运算@@
镜片
題@@
饭碗
黄酮
1.7%
138@@
1870年
an-@@
aut@@
her
下肢
亦然
佩林
公司@@
击剑
吵醒
坚挺
尼采
帮佣
律政司
手杖
核磁
汽水
海产
用他
白兰地
继电器
计费
购得
越南人
默哀
1882年
2.3%
20000
7.8
Bis@@
Brian
C/
CCW/GG@@
UK@@
XIII
iner
viron@@
yo
之物
交汇处
传感
俄军
哈米@@
啸@@
喝彩
四点
声乐
姻@@
察觉到
小巷
布兰妮
弗利@@
急着
恙
悼@@
无虑
枢@@
梅耶
歌舞
武器库
氯仿
汤玛@@
涌出
父母们
独具
瓦萨
痢疾
离校
绷带
老鹰
背弃
胎盘
腕
藓
装订
连锁店
重述
2018
24年
2A
460万
693
716
Andr@@
C1
Green
Jorge
Nar@@
atha
○年
一帆风顺
上院
不完善
争相
伙食
体化
保证书
傲@@
养老@@
兼具
前排
区外
叫道
妹们
威信
尘世
岔
巫婆
披上
最後
未婚@@
极易
枷锁
沃·@@
特徵
珍宝
脐@@
脸红
茸
辽宁@@
进到
阅读器
防暴
首创
麻布
黑名单
21亿
34-@@
654
773
A/54/2@@
All
Corp.
Rou@@
ete
iko
iti
主导@@
以撒
保留区
冤
分析仪
利昂
北京@@
口令
四百
妞
尊崇
山路
挂上
敲击
斯理
新款
殷切
着实
第17/@@
绝妙
罗密欧
自言@@
跳蚤
0.3
875
A/CN.9/WG.V@@
Black
League
RPG
eu@@
iah
itch
中国队
主播
乙肝
以利沙
使用户
农工
利尔
制片@@
務
区别于
喙@@
嘟@@
声名@@
处事
夏娃
宝马
尚书
希金
库珀
成年@@
新斯科舍
来给
目表
破烂
第89
管理学
胶卷
胶水
贝卢斯科尼
轧制
长岛
难说
Bud@@
KNPC
Litt@@
Pel@@
ester
io@@
war
不为@@
不可取
不见得
产权法
先驱@@
克厉@@
函文
切斯
发还
咎
圆盘
姑娘们
字符@@
底片
昨@@
更斯
渊博
滑雪@@
眶
矛头
立方体
脚步声
舒适@@
虹
解法
跆拳道
软管
锌@@
限内
霹雳
11.1
626
627
7/
Helen
Michel
SF
UNA@@
​
世世代代
之年
亚诺
伶@@
制造@@
加布里@@
动式
協會
和气
塔甘@@
大能
宽限期
康复@@
弥撒
摇头丸
斯拉沃尼亚
无烟
普洛@@
最重
有薪
服务生
横贯
民进党
特写
瓦莱@@
甜食
皮卡
盛事
自本
至第
莫斯塔尔
跟从
车窗
追问
首批
高丽
129.@@
2002/03年
500多
686
99年
C.2
Wolf@@
ines
ther
·波@@
七十年代
丢下
写照
冠军杯
分到
加勒比@@
康乃@@
忒@@
怯
排版
整夜
更衣室
替他
杏
来源地
校车
毕业@@
献策
瓜拉尼
申述
缩影
缺乏@@
耗竭
萨达姆·@@
贴现
赫斯特
迟了
遣队
铀-235
长袍
阿兰·@@
限时
1.4%
1863年
674
874
Hist@@
Out@@
Samawah
Services
产下
俺
办到
区区
十七日
协进会
卑微
后缀
哈利法
垫子
威利
尚需
就业@@
尼尼@@
干草
年年
弘
徒们
执行第
拉迪@@
接踵@@
波兹@@
演技
睑
碎屑
移动式
筹得
罗宾逊
而成
联动
荧光@@
谐振
趾
进步党
逐项
選
阅览
马来人
1972
629
A/53
DJ
DSP
E/CN.4/1996
Et@@
Max
ibah
pha
Á@@
乌有
人发
以身@@
住的
侨汇
俄国人
冒险@@
协调厅
双人
只字@@
埃塞俄@@
大陆@@
学制
情妇
摈弃
敕令
旅遊
水电费
深爱
爱尔@@
生出
绊
罗恩
能做
证交所
赏识
1891年
779
807
Java@@
L.7
Management
War
mo
rat@@
roc@@
ín
一维
作用力
僻
升华
协调处
可视
同为
场白
大块
如以
就可以
挣脱
椰子
民居
沃特
湿性
狭长
甚或
电弧
皮诺@@
相通
省钱
硼
祝您
第79
第二百@@
纤维化
组织性
绕行
肋
脸庞
襄@@
课后
逃逸
钟表
鳞
0.6%
1860年
1881年
2006/2@@
774
Ep@@
Proc@@
XIV
iano
ute
一致地
不会
不凡
不及格
仍须
免予
再出口
写进
包办
匕@@
化学物
半小时
卡斯尔
取悦
嘻哈
圆环
大名
夺目
女囚
寒风
悔恨
打斗
新加坡@@
未完成
林顿
格曼
横行
汶川
畸变
砍刀
经济舱
结尾处
编为
耻
联邦@@
苯乙烯
茧
螃蟹
训练员
逮捕@@
阿亚@@
骷@@
黛
002
440万
695
A/C.2/55/L.@@
By@@
Journal
WFP/@@
cha
一片
以法莲
佛朗@@
公告@@
剂@@
匙@@
变身
哈希姆
异乎寻常
戏曲
批发商
斤@@
时30
欺骗性
沪
测出
濟@@
爱滋
特朗@@
甜心
症结
穆里@@
综艺
罗杰斯
肯尼
背书
膳
般@@
薄荷
试管
负数
赘@@
踪@@
阿里斯蒂德
限制区
面罩
CCD
Les@@
Squ@@
Stewart
Tas@@
Wilson
act
eer
一去不@@
上下班
不折不扣
交锋
伤寒
作假
俯冲
儿童@@
再发生
几十万
分为@@
博得
唐纳德·特朗普
崽
工作周
异性恋
批评@@
抖动
拉力
拭
接受性
断断续续
无止境
普朗克
未婚妻
核威慑
此剧
汕@@
流言
湖南省
犀@@
空置
第35/@@
绅
网络@@
芦
莱茵河
蒜@@
行道
转嫁
酰
锈钢
长春
鼻孔
......@@
2009-2012年
724
INFCIR@@
eka
iba
jo
事事
以图
党委
减值
分拨
南侧
哈萨@@
喘息
宫内
帕特里克
张胆
拜伦
按着
捐出
方面@@
时序
明尼苏@@
校验
正像
派员
浮雕
淘气
混血
游泳@@
渺小
爱与
笃
色拉
获胜者
蛛
警钟
访问@@
踏板
那种
饱和@@
15－@@
890
A/55/2@@
CRC@@
E-2C
E/CN.4/Sub.2
illing
不协调
中人
主题@@
丽斯
了事
任凭
但未
做错
党魁
到任
刺痛
吾@@
咨询人
国家法
坐上
堆肥
堪萨斯州
塔纳@@
多用
按摩@@
接送
朝鲜@@
正义@@
毫不@@
涕
牵制
病者
蒙德·@@
言不@@
订票
调高
谱线
输家
通气
钟爱
降息
音器
11A.@@
15,@@
2016-2017
41-@@
960
A/55/L.@@
Elizab@@
row
七点
不可忽视
不得向
书名
佩奇
凰@@
出缺率
劳工@@
十九日
华文
发言@@
哈利法@@
四面@@
回程
图样
士·@@
布莱
异形
想像力
成熟度
接种率
文信
杀伤@@
查德
母性
海马
状物
硫磺
站到
红旗
经第
脂肪@@
蝇@@
评审@@
透明化
開賽
阑@@
震中
105.@@
12,@@
12.2
Centre
Power@@
Pres@@
Rut@@
b.
urn@@
中華@@
优素
佼@@
侮辱性
便雅悯
兵员
哗
国后
复函
安打
对下
小便
扫帚
持者
斯坦利
最优化
松森
海量
滑落
片断
生日礼物
禮
离家出走
穆加@@
约克@@
腹产
荒芜
请与
贫苦
邦德
钮@@
问起
電子
鞑靼@@
额制
骚
1876年
28年
INF@@
Ti@@
el-@@
不忠
什维克
仲裁人
储备@@
刻有
十六日
危地马拉@@
坦克@@
天分
寸@@
就好
悚然
斗篷
更难
最低@@
束手无@@
档次
油罐
沼
波导
消防队
热浪
科技界
第IX
素描
绒毛
肺病
蒂尔
诉讼中
那部
香山
638
AK
E/2003/@@
Log@@
Sev@@
alla
es/@@
hr@@
ste@@
··@@
上当
上船
丽塔
举目@@
亚岛
休憩
克尔@@
列中
列夫
十一日
培根
增资
多元@@
多数派
天津市
安慰@@
弥
执掌
拉迪奇
映像
未被
毛细管
消融
热那@@
维修@@
聚落
自于
走来走去
车费
转业
阴蒂
阿尔特
险恶
颌骨
----@@
717
95@@
Capital
roj@@
万万
亨德森
发行人
可做
坏处
小腿
已到
归属感
性者
拟就
捡起
撰稿人
星空
有条
本加@@
杜里
某类
查表
检查点
殺@@
流网
浅析
涛@@
照搬
理发师
登记证
直言不讳
航海@@
贡献者
门窗
闭幕词
防污
1998-2000年
33年
4.0
673
903
Chin@@
Dur@@
Miguel
XVII
ross
仍由
佩服
全自动
参考书
同构
哈尔格萨
年少
挑出
捉摸
柄@@
残存
每种
民航局
玩忽职守
用钱
第13@@
纵使
线下
绯@@
耶和
臆@@
裁剪
要职
解调器
谨记
过人
这块
通加
邻接
重合
野牛
防毒
集邮局
零配件
.3
1860
1993-@@
698
86.
LS
imi
pa
中医药
光明@@
共通
力拓
去找
反动
后即
喜马拉雅@@
因地制宜
埃斯特@@
宣传册
恰巧
斧头
无保留
村民们
此书
法索
注于
爱尔兰@@
环路
画上
私事
自选
蚯@@
血清@@
见见
解释道
语区
调来
追讨
量身
降落伞
驶过
默多克
９
000年
390万
6.8
8.6
A/C.5/56/L.@@
Abdel
Africa
Boo@@
British
FM
MD
ould
一般@@
一阵子
不言自明
中段
人民@@
俄亥俄
出世
出货
前夫
卡罗
反派
只须
壮志
峭壁
希刺@@
意即
手电筒
投篮
放权
早产
歇尔
汉克
沃特@@
海关法
滑铁卢
演戏
男子汉
硫酸盐
粟@@
約翰·@@
而今
虚拟化
说教
赫尔姆斯@@
身分证
静默
鞠躬
33/@@
CCW@@
E3
Hamm@@
Harry
NP
UT@@
]@@
ember
lev@@
mus@@
oft
orn
rique
uck@@
ui
万历
上旬
专卖
中心点
从政
克里斯蒂安·@@
党在
冲销
協@@
县城
哈特@@
商品化
女犯
实践者
对偶
懒散
懦弱
执意
报业
换领
探查
摩托罗拉
望而@@
桑乔
洋基
爬山
生还
过冬
1883年
2009/2@@
212-@@
655
658
C.1/6@@
IL
Jav@@
Stan@@
ال@@
不可逆
侏儒
兼有
冰激凌
出走
博彩
吉大港
向内
吧@@
园内
塔什金
幅员
得过
拉哈德
无名@@
旱季
本事
本名
棋盘
標@@
油层
波兰语
涌向
特德
瓦隆
瞌睡
石油气
神迹
终年
胡斯
自发性
蔼
蜥@@
詹妮@@
践@@
达科@@
近邻
阿尔卑斯
马尔科@@
驯服
Instit@@
Mr@@
义词
今夜
份数
伤人
作王
入帐
凳@@
利塔尼@@
前科
前茅
北卡罗@@
匣
厚重
各答
奥里@@
如说
居们
广告牌
底里
归案
憔@@
托尔
扭矩
找来
撬@@
攒@@
新意
新星
早前
本营
格林斯潘
格鲁吉@@
殴
点亮
玛格丽@@
留置
白细胞
缠身
缩性
苔
虛@@
赠与
输卵@@
里边
GB@@
了当
办商
摩尔@@
明人
星期@@
经营@@
頭
鳕@@
吝@@
镯
ven@@
嗤@@
赘
锺@@
卯
摩斯
羧@@
袱
讫
诅
雲@@
沉积@@
犁
篝@@
谦
赛人
阿姆斯特@@
马尔·@@
电磁@@
鸦
ove
​@@
嗅
土库@@
欺
翩
菇
勺@@
悲
晦@@
陽@@
刑事@@
吉卜@@
妃@@
悴
旳
枣
械@@
瞳@@
大会@@
嫉@@
栓@@
蔷@@
逻@@
靡@@
不尽@@
允
助于
埃及@@
如其@@
文件@@
根据@@
榴
潇@@
組@@
苛
鞘@@
Corp@@
Sect@@
哆@@
嚼@@
耍@@
薰@@
辐@@
１９@@
2.2.@@
养殖@@
旷
瞒@@
螯@@
踱@@
麓
協
榜@@
馑
ject
凌
北亚
巴勒@@
節
翩@@
联系@@
咏@@
唬
溯@@
磅@@
膛@@
致于
邨
釉@@
oup
击手
希腊@@
德里克·@@
歉@@
民工
茵
谣@@
阿尔卑@@
隋@@
gan@@
彻斯特
忡@@
椒
瞬
科特迪@@
肾上@@
蛀@@
貝
赦@@
佣@@
娠@@
殊@@
潢
自足
颈癌
马萨@@
PD
狠@@
调解@@
哺乳@@
帶
撰
无一@@
窜
經
负债@@
郭
佛罗@@
同样@@
拘
移徙@@
細@@
缎@@
足轻重
过境@@
ión
⑤
俏
冀
猝@@
猿@@
破坏@@
羹
舷@@
讹@@
跪
郁症
ي@@
戊
構
沪@@
豁@@
黏
γ
ر@@
宮@@
聚集@@
袜@@
護@@
重性
钓@@
Afric@@
分裂@@
同情@@
囚
收藏@@
榨
获量
記
赈@@
钮
黜
峡@@
珂
编辑@@
臼
靈@@
驴@@
μ@@
單
宵@@
ST/SG@@
奖者
娇
挫
禀@@
萍
Ahm@@
م@@
刚果@@
尔斯·@@
峻
无几
苍
豚
蹲
进党
剽@@
潭@@
环境@@
瞥@@
亚当@@
伤风
孩们
客户@@
瀚
猩猩
金山
定式
履
捂@@
格拉斯
泞
焙
维基@@
近于
拦
搀@@
摩托@@
殡@@
西西@@
轩
邹@@
隊@@
韋
媚@@
忡
江省
莓@@
Sci@@
elop@@
学术@@
惫@@
波罗@@
2008/0@@
兜
揍
新华@@
Mahm@@
Patric@@
實@@
恳@@
筏
美洲@@
苇
髅
录片
怜
托马@@
枉@@
杠@@
瑜
论性
迸@@
布卢@@
彦@@
殖民@@
咕
眺@@
蜀@@
试者
壤@@
恼@@
锢
首脑@@
与此@@
博物@@
琦
酿
霾
風
iel
兮@@
尹@@
碌@@
胳@@
□
切性
喜马拉@@
夕@@
导者
忽
选择@@
Fri@@
延地
茹
蹈
优越@@
募
罄
货人
orth
丽丝
唑@@
浚
特许@@
鬣@@
■
姻
沸
臀@@
蚂@@
行为@@
變@@
候选@@
布瓦@@
扩
狄
祷
罗德里@@
/CR@@
Rum@@
嗪
師@@
橙
董
颌
颖@@
UNE@@
它@@
帘@@
枣@@
薪金@@
赞助@@
事会
湛@@
甲状@@
皮特@@
绷
美术@@
賓
阿卜杜@@
π
交响@@
安提@@
忆@@
熔
籃@@
米尼@@
踌@@
釉
鬚@@
牒
祇
蕨@@
遮
鳗@@
一开始
亚利桑@@
侦察@@
對
獭
监管@@
衷@@
誊@@
難
DD
Wol@@
í
基会
芹@@
蜗@@
贯性
進@@
魁
婊@@
粮食@@
谟
铆@@
㈡@@
保加@@
占领@@
啄@@
書
棘
理发@@
畫@@
ï@@
僵
厄瓜@@
圣诞@@
帖@@
疚
茄
蜻@@
赎
钼@@
颐@@
E/ESCA@@
作人
冀@@
十年代
寇
癫@@
統
鯛
不经@@
兒
婚生
焙@@
翘
週@@
阿森@@
É@@
加索
慑@@
措
搐
洼@@
發
笞
范性
逢@@
邃
勘
峻@@
懷@@
間@@
鬥@@
扼@@
朽@@
理事@@
颖
啸
憾
榷
玄
琐
脾
辽
铂@@
霖
鸠@@
<@@
冠军@@
孳@@
矶@@
裡
遊@@
ο@@
埃塞@@
檐@@
立方@@
筵@@
藩
证券@@
跛@@
侵略@@
分辨@@
吏@@
痴
粤
业化
兒@@
嘎
婷
小心@@
桁@@
清晰@@
罗尔
襟
贼@@
轶@@
阿根@@
麝@@
①@@
伯尔@@
君士坦@@
報
掐@@
衝@@
视化
隶
/COP.@@
慌
搔@@
競@@
糊口
锭
俞@@
压器
标志@@
沫@@
渤@@
軟@@
铲
ield
伯利
壹@@
奕@@
寧@@
彈
感染@@
扉
约瑟@@
障碍@@
鳥@@
俏@@
個@@
剌@@
劉@@
柚@@
桓@@
燥
腈
遜
哩@@
富兰@@
莽@@
ς
特洛@@
郝@@
亚伯@@
人居@@
任者
总务@@
現
矛@@
蚕
鳃@@
ission
−@@
⑸
依赖@@
打字@@
揉
收容@@
異@@
诙@@
佩克
合同@@
圭
最小@@
窥
網
酥@@
馈@@
踝@@
辖@@
铢
鸵@@
2005/0@@
悚
漠@@
篷@@
缎
苣
蛾@@
何塞@@
妻制
岑@@
溺
漠
聚居@@
劈
恬@@
铬@@
岑
玻利@@
硒@@
糙@@
经理@@
藝@@
购买@@
通性
驅
骆@@
骇
ISB@@
╱
例法
冶
咧@@
嬷
寐@@
椭@@
榻
權@@
电脑@@
袤
道院
㈠@@
拮@@
挟
捏@@
撕
栋@@
終@@
迪斯@@
图书@@
拭@@
涟@@
渊@@
濒@@
緬@@
ux
ww@@
吱
敖@@
爱沙@@
珈
砰
秃
喃
垦@@
拂
渊
鰻
Ｏ@@
划署
动力@@
嗣@@
寮@@
居室
湮@@
們
恣@@
文森特
晖
樊@@
盥@@
盹
茸@@
規@@
诏
闰@@
項
不入
不在@@
华尔@@
啃
垦
基金@@
批发@@
染色@@
牠@@
米洛@@
芬·@@
§
产士
吁
幂@@
楠
统治@@
蓿
别无@@
嘱
坷
失了
应性
斯普@@
森堡
演者
煌
科威@@
臘@@
@
冢
啪@@
汶@@
硕
稱
縣@@
蔬@@
谤
颌@@
骏@@
＿
15/Add.@@
介绍@@
励
厩
廖
強@@
灶@@
琐@@
瓦利
立于
缉
贮
越南@@
需求@@
龋
2010@@
ivers@@
倔@@
无论@@
特派@@
苜@@
不久@@
則
掣@@
秤@@
萘@@
退休@@
POPR@@
凯瑟@@
壕@@
廓
斟@@
莅@@
蜚@@
逅
邝@@
互助@@
倭@@
君主@@
西岛
駐
鹃
拷@@
请求@@
遗传@@
优先@@
匣@@
夏威@@
悖@@
涕@@
瘸@@
螨
铂
Stre@@
亚特兰@@
耦@@
蔓@@
刁@@
哈根
庇
炖
圍@@
戎
捅
牛仔@@
缔
蜓
通行@@
邂@@
馏
rom
交所
盧
蝉@@
塔利@@
屹@@
熵@@
畫
瘀@@
^@@
司令@@
昙@@
殺
澤
皂
結
辦
尼西亚
海道
蹋
﹣
喱
殖
琅@@
错误@@
［@@
一夫@@
他州
侦
母亲@@
爷@@
猶@@
谭
亥
前所未@@
娼@@
犹太主义
疙@@
秸@@
脯
菩@@
闩
雁
僭@@
尹
惇
朔
猬
衫@@
诃@@
骰@@
麟@@
军事@@
嘧@@
如一
鲨@@
2007/0@@
→@@
嘲@@
姓@@
撮@@
炔
缓冲@@
遠@@
骏
④
冉
始终@@
总统@@
桐
流离失@@
疮@@
稚@@
話
人节
戟
格鲁@@
絮
纫@@
肯尼@@
路网
骡@@
鹭
al-Sha@@
咀
得克@@
扮
抖
瘢@@
赃@@
赦
骤
伽
特网
疵
硒
菅@@
霄
CEDA@@
echn@@
吋
存者
庶@@
惚
擒@@
格勒@@
高尔@@
呕
許@@
贻@@
陸
俭@@
嘘
拙@@
磕@@
赃
這@@
馨
Glob@@
劍@@
各样
嚣@@
淳@@
艮@@
虔@@

★
惴@@
然不同
珥@@
缸@@
倪@@
加利福@@
印件
孺
希族@@
笺
鰭@@
Kaf@@
佃@@
悄@@
楊@@
眨@@
築
芸@@
钝
鞍
奄
岐@@
浇
瑕
產
腭@@
蔓
鮑@@
鱸
厄尔@@
尼泊@@
尼达
新喀里多@@
渴@@
疆
葺
一次@@
克省
坯@@
孩
攒
斯巴@@
明书
普惠@@
曹
蹑@@
阿鲁@@
點@@
β@@
纭
莴@@
Tay@@
多边@@
没了
獨@@
窟@@
計
關
圓@@
所在@@
沛@@
葡
:00－
士顿
媳@@
祛@@
穹
能及
脓
雁@@
SP/@@
â@@
吨@@
揪@@
洛杉@@
畸@@
营利性
霓@@
@@
ê@@
养费
助金
哥伦@@
慑
氧化剂
沈
狸
隙@@
Steph@@
不觉
土地@@
漱@@
瘩
醛@@
下子
仲
动荡@@
印机
啉
嘀@@
密性
恺@@
拣
殃
炖@@
翱@@
遺@@
彝@@
舔@@
道尔
黨@@
BI
亢@@
会员@@
侣@@
們@@
平均@@
比拉
滋
漪
虚拟@@
變
A/CN.@@
俘@@
傑
共同@@
加丹@@
溥@@
琶@@
痰@@
蜀
赊@@
凹
博拉
吳@@
弗朗索@@
星人
栈@@
玺
睾@@
錄
钨
Youn@@
о@@
上海@@
圣者
姚
旁遮@@
歧
氢化
漾
生们
苞@@
褶
巾@@
粱
译汉
轉@@
辫@@
俄罗斯@@
俣
安德鲁@@
拉尼
擬@@
爸@@
猕@@
窿
通知@@
咱@@
岱@@
柑@@
瑰@@
絲
褥@@
魮
奴隶@@
寅
牧羊@@
疲力尽
綠@@
蔡
谩@@
㈩
对照@@
谘@@
輕@@
铐
锄@@
驹
ａ
ullah
伊丽莎@@
唐纳
婶
钡
长远@@
鼬
僚
導
汶
矢
蚜@@
躬@@
魅@@
Mig@@
Window@@
韶@@
Oz@@
а@@
丝网
倪
傳
剿
炫@@
舔
觑
赣@@
Hass@@
ô@@
奋
寥
屠
年人
波器
自卫@@
荟
雯
Inc@@
並
价值@@
冗@@
卒@@
啥@@
喙
实践@@
將
揭
棠
菲·@@
鄙@@
刺激@@
巩@@
戲@@
斓
方说
讼
蹊@@
辄
公正@@
塞建
斯敦
歐
献者
茵@@
荚
铛
馅
Gon@@
伦堡
侨
俐
厮@@
垣
域网
帕特里@@
度假@@
恢@@
旭
见性
马普@@
NAS@@
و@@
大气@@
姥@@
曼努@@
民航@@
管齐下
装箱
辰@@
¾
莞
藜@@
龛
不好@@
卡梅@@
叩@@
屿
榄@@
烙@@
瞄
虱
﹕
Associ@@
六溴@@
安达
寧
毡
索托
贬
辅助@@
遜@@
邋@@
销商
Chris@@
亚美@@
内瓦
將@@
彈@@
筐
紹@@
肃
萬
赫斯@@
Edw@@
WF@@
匡@@
吗@@
弗拉基@@
旋转@@
祟
記@@
雲
Ａ
凛@@
搪@@
紋@@
袒@@
詹
阎@@
FCCC@@
ICCD@@
POPS/@@
Vir@@
合器
呤
御
无线@@
旬@@
樱
漓@@
澡@@
甾@@
钼
麗
ourn@@
全面@@
漢
钽@@
鸽@@
不管@@
兀@@
厕@@
壹
姊@@
洙
滓
眩@@
編@@
豐@@
闺@@
驿@@
鮮
報@@
塞尔维@@
异于
语言@@
卡斯特@@
叭@@
基尔@@
妾
應
无愧
百科
眨
综
钵
ES-@@
ˈ@@
一谈
住脚
堰
孰
蕃@@
螈
ndez
俭
嘌@@
娼
学习@@
恪@@
挟@@
芭蕾@@
蛋白@@
发明@@
揚@@
桦@@
殊
而知
芜@@
訊
pd@@
並@@
浣@@
羅斯
艇@@
褪@@
音速
全书
嗓@@
换器
耶路撒@@
鄙
雜@@
魄@@
俩@@
喷气@@
嘲
援署
權
肱@@
萨尔瓦@@
跋@@
颞@@
声器
失败@@
想不到
樹
腆
處@@
躯
媳
尧
樓
波里
特里亚
製@@
黝@@
UNEP/CH@@
叨
哈姆@@
奥塞@@
桦
羯@@
貂@@
贝基
饷
ć@@
亥@@
巫
幔@@
照灯
環
隼
Ａ@@
嘿@@
峦
栖息@@
痤@@
职者
興@@
闵@@
阜@@
μ
叽@@
哌@@
嚎@@
戚
爭@@
盲率
芹
視@@
誌
輪@@
镣
霞@@
鯉
储蓄@@
关联@@
唧@@
弛@@
日制
耦
踉@@
铉
锑
雙
Ｂ
Č@@
放大@@
楞@@
经纪@@
腑
臃@@
芮@@
虱@@
诣
B/200@@
ب@@
从头@@
健康@@
化妆@@
咏
炯@@
裝
这样@@
靈
齊
一无@@
定居@@
梧@@
灼
焉@@
荨@@
蜃@@
谚@@
闽
騎@@
上加@@
佯@@
僚@@
僻@@
剔@@
奥尔良
宦@@
峽
普勒
桅
涎
热水@@
琴家
璀@@
瞩
紊@@
苟
蔬
诘@@
農@@
遵
ú
出人@@
慨
瘪
管制@@
臻
蹴@@
饥
Brit@@
τ@@
暑@@
舉@@
親@@
合于
路易斯安@@
逍@@
钽
鹑
半年
啪
廓@@
澜@@
蹩@@
過@@
马诺@@
保留@@
匍@@
发布@@
喽
格陵@@
正教
潛@@
说家
貂
路里
SPLO@@
gan
会议@@
分之三
分之二
救世@@
日耳@@
瓢@@
苏克@@
視
铎@@
靓@@
魇
➢
单元@@
壑
嬷@@
巴伦@@
掏
桨@@
梅德@@
祷@@
糜@@
隔离@@
鸠
麋@@
.gov@@
兰经
搓
普通@@
核查@@
绰@@
镖
为数@@
嘱@@
譬@@
兩@@
冉@@
呂@@
啜@@
喹@@
夫曼
崭@@
庐@@
徑
癖@@
箍
腻@@
膦
记者@@
踞
麒@@
哈桑@@
啊@@
忒
程序@@
職@@
馨@@
E/CN.4/Sub.@@
咱
圣地@@
嫂
愿者
方向@@
槍@@
毋
琉
癣
祁@@
腼@@
賀@@
剛@@
妳@@
徑@@
搜
政策@@
相反@@
稱@@
行性
論@@
跤
å@@
啟@@
嚣
枉
荼
赛尔
鸥
哝
嘻@@
宕
慎地
應@@
懦
扎伊
拙
甥
蚤
鎮@@
²
仗@@
啰
密西西@@
居高@@
璨
蝉
鄭@@
麥
ن@@
偕@@
傍
克罗地@@
墩@@
媛
更生
殃@@
煞
癸@@
虞@@
谧
颚@@
ｉ@@
主持@@
吠
唤@@
来语
瑞拉
而然
觀@@
遢
里士@@
嗡
塔那@@
所得@@
擎@@
楣
種@@
窘
耘
蘇
蝌@@
阐@@
颁
＊@@
Pier@@
UB
ρ@@
不可分
亵
奚@@
政部
晷
曦
樹@@
油机
湃
牺牲@@
脐
迄
靴@@
麾@@
λ@@
壬@@
廳
撼@@
遛@@
铠@@
龚@@
娄@@
感器
旁观
楷
秧@@
突破@@
鬃@@
UNEP/FAO/@@
姊
巴塞罗@@
杭
瑪
瑶@@
系统@@
罗门
诀
阵子
驼
嘘@@
塞雷@@
庚@@
心勃勃
桎@@
牲
狩@@
猩@@
逝@@
叼
婶@@
畿@@
莊@@
ety
兢
安哥@@
熄
蒜
蝠
骋
Brow@@
Geor@@
件人
出租@@
務@@
噻@@
壶@@
多克
多地
嫂@@
幌
摩洛@@
时性
札
獸@@
胞胎
Wind@@
佑@@
彗@@
氣
疤
约法
迈克@@
阉@@
鱂
央
婢@@
復@@
忻@@
成熟@@
捣
棺
槿@@
眸
瞅@@
舆@@
說@@
邯@@
ë
咋@@
梏
榛@@
淀
羁
膺
蜗
蝗@@
谙
镉@@
鳳@@
3:00－@@
卿@@
奇科
崖@@
恸
污染@@
注射@@
淮
邢@@
镶
@@
γ@@
〞
居留@@
搁
棺@@
毛里@@
荷尔@@
萃@@
蕉@@
Americ@@
×@@
р@@
戶@@
捻
淹@@
蚪
蟋@@
Aug@@
gle
俄勒@@
寥@@
柿@@
證
192@@
2C
〖
哒
堰@@
夭@@
惺@@
承包@@
无关@@
氨基@@
稽
空局
蓓@@
Ö@@
δ
壤
幽
收益@@
甄@@
茬
貴@@
過
阡@@
Anton@@
刽@@
听闻
呱@@
夭
敛
比克
研讨@@
簡@@
绷@@
荐@@
蝎
镳
鹊
？@@
A/CO@@
人听闻
俨@@
叨@@
必不可@@
戎@@
擅
日起
獾
綜@@
耆@@
鄂
問@@
愉
护者
牠
祢
科索@@
约旦@@
羰@@
腱@@
软件@@
预测@@
马萨诸@@
鹌@@
ل@@
不及@@
侮
娟
岬
巍@@
谥@@
‧@@
咳@@
塾
核试
汐@@
茅
褛
醚@@
æ@@
⑹
全球@@
反对@@
娩@@
完成@@
寂@@
屬@@
序列@@
庸置疑
海岸@@
肯塔@@
褴@@
谄@@
sein
嘟
摹
擢@@
榕@@
翟@@
耿
透明@@
遁@@
開
Ｏ
加油@@
无上
朕@@
来文@@
獵@@
琢
绢
質@@
钧
Willi@@
咫@@
引渡@@
憩
揍@@
臘
菇@@
００@@
F/200@@
〗
养院
分布@@
毓@@
濑@@
芪
蔻
蘸@@
酣@@
驮@@
骸
妒
楞
涓@@
眶@@
祠@@
缕@@
脲
鳥
龋@@
ikh
厘
国者
多米尼@@
崧
晦
曳@@
犯罪@@
腥@@
荟@@
蛊@@
諸
钶@@
镭@@
駐@@
zab@@
啬@@
妒@@
完整@@
愉@@
濱@@
百慕@@
索菲@@
苞
鏡
乔纳@@
兵们
国民@@
滔
窍
罂@@
腓
萼@@
蟀
躬
钎@@
UNCTA@@
www@@
幾@@
熠@@
琛
睽@@
钥@@
鞣@@
鮮@@
弩@@
疣
缜@@
虔
视察@@
阿卜耶@@
陡
OzL.Pro@@
匝@@
弈@@
枫
榮@@
氰
脫@@
谋杀@@
際@@
鹃@@
ork
坤@@
娛@@
嫦@@
归根@@
恕
撩@@
擂
枞@@
氡@@
留物
碉@@
碼
蒿
蛹
糠@@
蕃
褥
评估@@
質
Micros@@
itter
ñ
北市
叁
墟
失踪@@
幣
璋
篪
萼
蟲
蟾
Ｔ@@
六氯@@
毘@@
沓
沙姆@@
澄
特勒
狭
称性
能性
荆
驱逐@@
偎
厦@@
恃@@
示范@@
糯@@
肥胖@@
蕨
軌@@
س@@
侃
参谋@@
惦@@
缇@@
臼@@
莽
专家@@
噩@@
多种@@
寅@@
战队
捎@@
洼
湘
滇@@
苇@@
裔@@
觎
隅
麸@@
POPS/POPR@@
λ
威尔士@@
寄生@@
槌
犹豫@@
眯@@
舊@@
蜢
蟒@@
證@@
讪
E/C@@
е@@
伫@@
加勒@@
勝@@
廠
琶
籍国
菁
钵@@
阿塞@@
馈
馒@@
鳟@@
�@@
ι@@
人解
啼
嗝
布隆@@
所作@@
拧
擒
攘
普里
歹
當
羡
考察@@
萌
領
驯
怖
沁@@
绅@@
苏里@@
袍@@
裝@@
Ｃ@@
筐@@
隧@@
A/C.3/@@
Inv@@
Manag@@
Station
冲锋@@
制冷@@
惡@@
拌
摺
棕
潟@@
獲
盂
秉
紅
羌@@
荚@@
菁@@
鳕
CAC/CO@@
凯尔@@
峨@@
巴塞@@
平线
彤
总体@@
橫@@
灘
自动@@
芮
觊@@
迩
ε@@
夯@@
廣
氩@@
瓊@@
缰@@
蹭
铵@@
鱗@@
ｂ
不幸@@
周知
哺
測@@
疸
绸
鲱@@
鹛
د@@
健身@@
封闭@@
恐惧@@
掳
桔
糠
葉
衙@@
褐
觅@@
酥
鑫
鞠
饵@@
ə@@
俑
優@@
卫者
嗒
垠
存储@@
弭
惘
扛@@
枭
缚@@
考古@@
诛@@
進
鲈@@
DL@@
制度@@
参赛@@
斯加
桡@@
毡@@
沦
獲@@
粕
紋
褪
費
辆@@
逮
锹
Ｈ@@
吟
愣@@
痒@@
缀@@
缛@@
莱曼
處
鼾
Ž@@
中继@@
夢@@
彪@@
沮@@
瘙@@
耙@@
荞@@
谚
钯
锆
阮
Micha@@
之为
孜
小伙@@
慷慨@@
痘@@
痫@@
磊
製
龜
A/HRC/WG.@@
ν@@
利伯@@
卢旺@@
困难@@
复制@@
巴人
楷@@
科罗@@
菲特
見@@
铐@@
陇@@
㈢@@
吮@@
妨
孟
條
沁
浙
缚
萨卡
蚱@@
鬥
麼
vir@@
•@@
呛
基里@@
岚
巴伐@@
很久@@
有者
梧
比利亚
深圳@@
苑@@
荀@@
荃@@
计值
躇
鈴@@
住宅@@
土库曼@@
布琼@@
惧@@
淌@@
萨拉姆
輪
乌兹别克@@
孽
成就@@
摧
瑶
聲@@
蚌@@
过滤@@
限性
顷@@
aul
н@@
♦
丙烯@@
人类@@
军事区
匐
售货@@
奕
怎么@@
極
薰
見
靛@@
骸@@
ع@@
◆
乞
俑@@
冥
制定@@
委托@@
孚@@
巅
暮
氙@@
法特
粟
腺素
蔑@@
認@@
迄@@
颊@@
颱@@
č
册子
坎大@@
当于
擂@@
氡
疣@@
白兰@@
维埃
迴@@
领导@@
馅@@
啻
寮
届@@
拉脱@@
汲@@
珑
疽@@
祀
虏@@
蟒
谔
鸥@@
Insp@@
摺@@
杞@@
狀@@
腦
錦@@
镛
飙

丞@@
亚伯拉@@
交道
太子@@
敝
森特
演唱@@
烛
玻
绚@@
螳@@
谕@@
Sup@@
不决
习生
佬@@
儆@@
兀
唠@@
噁@@
徹@@
渭@@
皙
诟@@
诩
身份@@
鹏@@
￡
A/AC.10@@
不移
丽莎@@
刹
咭
垣@@
定书
尼诺
敘@@
沂@@
涎@@
涩@@
簧
蔗@@
調
鹦@@
嫡@@
惕@@
枢
溫
疲
百科@@
竺@@
蟆
交互@@
帜
拈@@
攘@@
蒲
踮@@
轭@@
轿@@
邑@@
里亚人

NF.@@
〜
发电@@
哎@@
啡@@
土机
大马@@
模特@@
疝
箔@@
編
绮@@
膳@@
钒
阿让
鹊@@
亚的斯亚贝@@
庵
毂
流浪@@
监护@@
磊@@
?@@
ights
Ⅱ
俸@@
唆@@
地区@@
地面@@
弃物
房屋@@
撵@@
格蘭
甙
邊
锻
96/@@
ices
切尔诺@@
呜
洽
爱德@@
該@@
護
镣@@
鞑@@
利可图
参与@@
有益@@
润滑@@
灿@@
炯
相较@@
詩@@
謀@@
邓
釜@@
零年
饲
＿@@
C/CO@@
─@@
叮
哮@@
唐纳德·@@
坍@@
尼罗@@
尽其@@
所未@@
炫
莪@@
鄧@@
Develop@@
喳
坂
妍
玛格@@
避难@@
东方@@
孫@@
市政@@
戀@@
撷@@
痔@@
瘫@@
茴@@
谛@@
險
预防@@
飲@@
OzL.@@
哽@@
夢
榔@@
正常@@
泾@@
湍@@
牲@@
理学家
約翰@@
自给@@
贝鲁@@
馮@@
tian
位素
兑换@@
崇
戍
搓@@
无休@@
桉@@
模拟@@
歲
渎@@
砜
砧@@
祐
辘
rahim
σ@@
么的
匾
哈希@@
唧
寶
年轻@@
徇@@
播放@@
敏感@@
標
璜
矽@@
祯
阿塞拜@@
Ｎ@@
倩@@
傷@@
加尼
炬
燈@@
營
畸
胁
酌
07年
东道@@
丞
交汇@@
呱
图瓦@@
官僚@@
嶼
狙@@
籃
结核@@
蓖@@
螂
資
辘@@
迅
陋@@
陽
隶@@
š
י@@
中生
侯赛@@
寰@@
峇@@
廈
彪
悸
捐赠@@
枸@@
梢@@
睽
科威特@@
舉
表达@@
錦
離@@
零零@@
頻@@
黔@@
ł@@
亢
加于
娥@@
弋
愚
死刑@@
烩
羽毛@@
設
躇@@
輸
隼@@
勳@@
晏@@
準@@
粹
耽@@
胥@@
腮
跄
載
镐
阿肯@@
靼
魅
保守@@
合唱@@
幺@@
拗
昧@@
蛤
蹦
身于
钒@@
ح@@
啃@@
垛
奠
戌
梅托@@
潺@@
犀
璃@@
祐@@
纽斯
芭
鳌@@
咔@@
富尔
悼
林达@@
毛细@@
波利斯
無
膀
豺@@
貨@@
酗@@
CN.@@
上万
代代
传染@@
侃@@
庶
態
摁@@
決
浏览@@
生日@@
禹@@
蚌
袄
逞@@
隋
SQ@@
π@@
加达
啾
妾@@
录音@@
泣@@
灿
焕
瘟
萨摩@@
蟲@@
装甲@@
诛
隧
鸫
乒@@
劍
呕@@
姥
开普@@
数以@@
橄@@
沐@@
约翰内@@
终点@@
跷@@
其反
喳@@
忐@@
昵
昼@@
渺
準
獸
笠@@
诘
鷹@@
ａ@@
升降@@
嫔
性恋者
恳
汹@@
眯
箕@@
篡
贿
锆@@
不关心
傣@@
實
摹@@
泰晤@@
浑
浙@@
禀
绰
讳@@
运人
进攻@@
鼾@@
不齐
块儿
拇@@
氙
粽@@
脲@@
苄@@
雉
鱷@@

ague
ı@@
ぃ@@
凱
刍
华德
压缩@@
国务@@
客观@@
效地
斯洛伐@@
桓
牦@@
维加斯
臀
莺@@
跷
钞@@
飙@@
马萨
受雇@@
殷
特立@@
禮@@
芥
谏
霎@@
κ@@
剿@@
动力源
敝@@
琅
肼
魨
鳅
ht
利雅@@
召集@@
啄
啤
喀什
幂
強
托人
武器@@
沽@@
淑
添加@@
滇
箍@@
绢@@
評@@
跋
‰
佤@@
几内@@
弊@@
弛
立陶@@
訊@@
赝@@
加泰罗@@
址@@
嬗@@
寰
尔科
战争@@
斯塔尔
显示@@
槲@@
致命@@
花岗@@
貢@@
辍
JI@@
MIS@@
Moham@@
Phone
不知所@@
异构@@
惜@@
樵@@
烽@@
生人
矶
科托@@
艦@@
骶@@
Ｓ@@
乒乓@@
兵队
唁
喀里多@@
国性
執@@
奥塞梯
慶@@
拚@@
捶@@
欽@@
淤
舜@@
蜈@@
觐
铯@@
颐
鸮
@@
ｃ
Roy@@
娱
孱@@
斯雷@@
法权
波多@@
烘
矜@@
膊@@
莞@@
莱坞
衛
贊@@
达鲁@@
锗
骼@@

POPS@@
ー@@
堀@@
庐
泗@@
渍@@
舍尔德
诺伊
輛
阿尔及@@
鼬@@
龚
＋@@
ω
安非他@@
徨
拯@@
斯洛文@@
昴@@
癫
笞@@
精神@@
耙
腈@@
著作@@
趴
蹬@@
酵
鲷
RC-@@
之以
务省
妩@@
尉@@
意见@@
旨@@
旬
毯@@
沙伊@@
盏@@
盼@@
莱茵@@
Ş@@
с@@
伎
吭
岖@@
戾
汹
漓
蕊@@
赂@@
靜@@
骚@@
鸢@@
鹈@@
剁@@
卟@@
咀@@
安东尼@@
層
瓦努@@
碾
立性
节性
谬
貓
錄@@
锄
麽@@
ß@@
叛
布达@@
本杰@@
標賽
段时间
瞪
蘸
蝠@@
謀
贝多@@
镓
ε
т@@
亘@@
兩
樣
潺
煦
畢@@
瞠@@
签字@@
蓋
蚀性
路易斯@@
錢@@
锶
镕@@
颅
Lif@@
º
③@@
修正@@
尼加拉@@
怦@@
月会
欖@@
狒@@
瘀
直截@@
睛@@
蚝@@
返回@@
道而@@
;@@
夥
崔
砥@@
絕@@
说明@@
蹭@@
邱
锣
骑士@@
ğ@@
θ
②
⑺
大洋@@
煅@@
獾@@
皂白
腌
膈@@
辩护@@
铯
σ
▪
伽利@@
关键@@
利润@@
捩@@
日俱增
歷
淳
營@@
爵士@@
狒
维持@@
謝
谅@@
谱法
阱
陰@@
不用@@
不足为@@
创造@@
南克
委内@@
尼亚族
岡
应聘@@
慵@@
燧@@
爹@@
皎@@
蓟
邀@@
钡@@
饷@@
］@@
isco
⑥
丫
哈马舍尔德
坳@@
堑
天安@@
布宜诺斯艾@@
憲@@
涣@@
監@@
眾@@
篱@@
蓮@@
調@@
讣@@
踝
金刚@@
马其@@
鹬
前列@@
囔
憋@@
拎
撬
槃
汾@@
痣
痹
睿
罕默@@
蚣
運動@@
青春@@
鳃
Ⅰ
坩@@
揚
撇
栉@@
王星
瑾
癞@@
眺
祢@@
第十@@
聆@@
肇事@@
蝾@@
识字@@
恃
普森
樽
璧
積@@
那州
郸
飛
龐@@
冽
叟
布卡@@
掣
朦@@
漉
狎@@
興
跺@@
AK-@@
动不动
卡因
有限@@
熨
窒@@
纳税@@
蝮@@
蹶@@
輕
遁
鳗
克什@@
唷
埃尔多@@
多伦@@
婷@@
巳
帑
幺
当性
挛@@
沛
炽
牙买@@
犷
琰
知情@@
筏@@
藜
讧
醌
霄@@
arch
ā
卤
噬
娓@@
搂
槐
渔获物
疝@@
祟@@
箫
职业@@
聞
腦@@
非利@@
鮠
Ｅ@@
2007/08@@
CM/@@
lez
φ
ו@@
吭@@
呢@@
埚
大·@@
悯
憋
擬
攥@@
榄
猖@@
禹
酊@@
预算@@
）@@
Ｉ@@
6B
婉
寫
梓@@
瘟@@
相似@@
绎@@
蚜
袅@@
重来
陌@@
ｎ@@
全力@@
噼@@
安乐@@
寬@@
岐
嵩@@
摒@@
救护@@
有增无@@
橱@@
檔
盤@@
矸@@
胭@@
醺
ubli@@
ω@@
‎@@
住民
滿@@
瓮@@
葆
设局
赭@@
铋
需品
鰭

л@@
◎
咧
嚎
幌@@
戍@@
汛
渝
漳@@
玟
盔@@
綱
羟
醺@@
钴@@
霭
ν
倉@@
剌
受援@@
吸烟@@
咋
嗎
填埋@@
憩@@
戀
戶
挞
斯潘
潍@@
睿@@
缺率
複@@
领事@@
2016-@@
ş@@
啰@@
扈
挝@@
筲@@
紐
蕉
遽
閃@@
驗
в@@
心脏@@
怅
恢
提款@@
杂货@@
然间
照明@@
现率
璇
秽@@
簽@@
蕈@@
訥@@
进化@@
酩@@
铍
唔@@
天津@@
椿
沒
砼
胄
脖@@
茧@@
诧
诿
颗@@
℃@@
佔@@
内障
噱@@
外线
宙
布干@@
心病
橘
欧统@@
汕
狈
琌@@
辐
钧@@
骁@@
NPC
à@@
ة
卡扎@@
希亚
徕
本·拉@@
樽@@
櫻@@
沒@@
碼@@
蓟@@
限制@@
黎巴嫩@@
htt@@
ن
‛@@
④@@
▲
乌干@@
剃
合法@@
奇心
扒
昊
有效@@
漉@@
皈@@
盤
芷@@
苹
迳@@
鋼@@
鏢@@
髌@@
齒
＞
{\@@
δ@@
≤
吮
彼得堡
忑@@
捻@@
携带@@
據
濑
疱
肆@@
葆@@
跛
钜@@
铈
阿布哈@@
顷
偕
凛
峨
懿
摧@@
杖@@
榭@@
活率
狈@@
白血@@
薛
谑
貓@@
鄉@@
锲@@
順@@
髻
鹉@@
鹕
⑻
惆@@
柑
梅纳
疥@@
秩@@
绽
耷@@
脯@@
許
证会
颧@@
鳌
ｅ@@
ebook
η@@
⁡
唉@@
嘻
埼@@
孰@@
挽
杞
格拉斯@@
毙@@
海关@@
獅@@
祺
秸
绽@@
苏黎@@
蛹@@
谘
辕@@
麦隆
2008/09@@
TD/B@@
ä
加迪@@
啁@@
塞内@@
嫌疑@@
敕@@
格森
泰坦@@
涧
湎@@
秩
給
自明
药性
诺曼@@
阄
雍
髂@@
play@@
勞
嗒@@
坍
暨@@
楂
沥
熱
瘁
訇
跖@@
边缘@@
进步@@
钍
霆@@
鮋
ī@@
叽
地化
嶙@@
巡洋@@
殴@@
班加@@
睑@@
睾
積
職
荪@@
迴
闩@@
隘@@
一来
二烯
劾@@
批准@@
捍@@
根州
檀
洱@@
燎@@
理所@@
胥
芭芭@@
藍
蹬
遨@@
郵@@
�
ت@@
侗@@
唆
喇
拎@@
瞒
蛞@@
辫
к@@
☉
倌
嘶
密尔顿
寓
徉
徜@@
忖
晰@@
杳@@
沽
瑛
疹@@
皓@@
讓
调器
軌
陋
＜
地人
姨
婢
惺
槌@@
槐@@
珈@@
皓
索马里@@
马达@@
鲭@@
麦迪@@
04年
د
作曲@@
保证@@
克斯坦
凝聚@@
卦@@
地质@@
圻
巍
掺
攝@@
笔记@@
绫@@
舜
藝
蛆@@
親
轼
連
錫
阙@@
防火@@
隱@@
韭@@
髁@@
ه@@
の@@
圍
峋
开诚布@@
弩
恺
拄
掮@@
桀@@
構@@
炔@@
生生
甬@@
自相@@
衔@@
西雅@@
谀@@
贲@@
赫勒
趙@@
輝
鏡@@
鑫@@
钚@@
顯@@
鱔
龜@@
伯利@@
傅
刨
喬
夕法@@
扦@@
替代@@
有率
正确@@
牍
皖@@
笙
聞@@
藥@@
锵
颠
C+@@
±@@
一惊
丁二烯
五角@@
匐@@
成千@@
桢
猶
荼@@
铤@@
铱@@
锉@@
随者
S/PRST@@
э@@
代之
入口@@
塔尼亚
從@@
憨@@
汉堡@@
犸
聲
腭
觐@@
都拉斯
镌@@
镭
閣
際
鲟@@
鹭@@
Ｃ
è
備
咚
妞@@
席尔@@
惠国
柩
直升@@
砝@@
砺
磡
绶@@
詞
赅
轻松@@
铌@@

ج@@
侬@@
咙@@
堅@@
如果@@
妲
憾@@
抗力
杜古
榮
檔@@
炊
皑@@
胛@@
萸
蒽@@
谏@@
鐘@@
陣@@
鹳@@
ｔ@@
ś@@
乓
垢@@
墨西@@
巿@@
特殊@@
瘘@@
瞰
绑架@@
绥
缄@@
胰
胺类
萱
蝓
觉到
譯@@
饺
鲑
PS/@@
ited
∞
举报@@
傢@@
冢@@
匿
嵴
所欲
晟
烁@@
璧@@
电筒
Ｂ@@
GG@@
а
侄
吲@@
喏
噎@@
安大略@@
從
搽@@
殆
氪@@
注意@@
瞳
磋
籁
菱
試@@
貿@@
锗@@
隐私@@
√
便利@@
勝
啧@@
嚓
国籍@@
基伍@@
塞浦路@@
懑
援会
柚
消耗@@
痂
皿
睦@@
瞅
瞿@@
該
越来@@
輸@@
辄@@
连续@@
馥@@
驚@@
Rodr@@
ɪ@@
ό@@
亵@@
侣
偉@@
噸
增值@@
弼
敦士登
渝@@
熹
琦@@
盹@@
米格@@
縮@@
缥@@
飒@@
鲶@@
ː@@
★@@
佔
儀
呀@@
多州
娄
峽@@
机关@@
西州
這
雏
韬
響@@
鯽
＃
則@@
加拿@@
勢
塞州
恩岛
珐@@
萍@@
蜱@@
釜
鋸@@
锶@@
集团@@
離
style
亂
国内@@
崽@@
惭
易卜拉@@
榔
殒@@
氘@@
淆@@
澈
璐
糜
舀@@
褓
诠@@
阜
鬃
鲤
龈@@
﹙
UNEP/FA@@
η
七八@@
倘
克里姆@@
呗
娴
彌@@
掂@@
掰@@
換
榉
沓@@
渭
烬
痫
磐
竭尽@@
纠
绺
蒙特塞拉@@
還
頂@@
î@@
ی@@
佝@@
哒@@
噜@@
场主
夙@@
姣@@
嵩
懿@@
描
泮
濱
炳
珂@@
璃
畔@@
礦@@
祇@@
绦@@
苯丙@@
襁@@
襄
讓@@
鍾@@
钍@@
镊@@
﹚
ｏ@@
Jor@@
冼@@
名昭@@
奢侈@@
戟@@
戮
歼
泯@@
矗
篓
维多@@
莪
蔚
遠
鞠@@
魁北@@
∙
囿@@
垩
壓@@
妲@@
密苏里@@
库存@@
暇@@
淞@@
瀑@@
狀
禺
肓
臨@@
荻@@
莫桑@@
財@@
鱨

NPT@@
Ω
㈣@@
亘
养家@@
剛
噗@@
搖@@
擞
昼
瀨@@
璐@@
痍
矾@@
羯
营化
踹@@
驗@@
髻@@
Ｍ
1/213
ū@@
佰@@
倡
创办@@
土著@@
寫@@
小儿@@
徙
怦
態@@
或少
撂@@
痿
祗
谈会
館@@
鹽@@
@@
oration
đ@@
乌兰@@
佗
发生@@
吆@@
政司
桁
歡@@
泸@@
涓
淅@@
炜
秧
笠
紙
缦
蟾@@
觀
见惯
谗@@
賈
載@@
還@@
額@@
驮
鳖
ف@@
丕@@
临时@@
传真@@
叱@@
叻@@
折不@@
敞
标识@@
铍@@
镂@@
魔术@@
鲈
Ｇ@@
ר@@
之急
刈@@
卞@@
厥@@
墟@@
嫣@@
曲棍@@
淖
異
畴
礎@@
肄@@
践
酉
镑@@
難@@
〉
偎@@
喵@@
畴@@
稼@@
铿@@
饯
麵@@
黍
龌@@
@@
Ｄ@@
raph@@
Ø
刘易@@
婴@@
弗吉@@
机化
栀@@
楔
様
汛@@
淇
潔@@
皑
碲@@
蕭@@
辕
阈@@
險@@
靳@@
佚
侮@@
厝
塚@@
姗
捲@@
搡
梓
氩
沱
渥
碴
礎
筆@@
莆@@
覺@@
響
颶@@
鱈
＇@@
Ｐ@@
ı
咎@@
埗
天花@@
守门@@
忏@@
斯里兰@@
曙@@
樸@@
淄@@
澍@@
爱好@@
痼@@
筱@@
箕
續@@
聂
胍
萘
蔻@@
裳
農
鸳@@
Ｆ@@
Ｗ@@
印第@@
嗖@@
堑@@
惰
慨@@
揩@@
曼哈@@
汰
畿
眾
睬
矾
臺
薮@@
蛰@@
衅
衷
豬@@
铣
霹@@
鰓@@
Δ@@
ί@@
и
ン@@
伺
俘
冈萨@@
同工@@
呃@@
咖
啟
嘛@@
噶
塔尼@@
大理@@
彤@@
微波@@
玫@@
碁
艾哈@@
苻@@
蘿@@
隽@@
鵙
Ｄ
□@@
亚利@@
伦比
克力
动画@@
可靠@@
吉尔吉@@
咦
咿@@
哧
埠@@
忱
恆@@
愣
氚
滂@@
災@@
犰@@
缈
缩略@@
膨
賢
遽@@
隨@@
驹@@
龊
@@
LGB@@
丕
前例
創
培拉
始至终
弑@@
愫
朕
檢@@
硝
蜊
褂
贾德
锇
E/ICE@@
ė
ش@@
俪
关节@@
写信@@
劵
壽@@
大吃@@
棠@@
沖@@
湛
瀚@@
燊
瞟
竣
纂@@
胧@@
赈
轉
长老@@
阙
雯@@
頜@@
鱷
側@@
崴
廿
張
懵@@
氖
浃@@
海洛@@
瑕@@
綫
翌@@
蓦@@
覺
议书
輔@@
钹
铌
阡
鳖@@
鶴@@
Ç@@
ð@@
俐@@
卯@@
呛@@
坞@@
復
恩德@@
旳@@
杓@@
浒@@
湄@@
災
盜@@
祿@@
竞技@@
蘑@@
誤
诮
遏@@
鐘
飯@@
﻿
ript
ü
ī
下而上
事实@@
卅
堇@@
妓@@
屿@@
巴马州
揶@@
旌@@
晷@@
暄
朊
梵蒂@@
歹@@
汲
況
洗手@@
淇@@
織@@
羲
芸
蒴@@
轿
钜
閒
雉@@
2006/07@@
Suppl@@
上帝@@
刍@@
啡
審@@
庾@@
拿破@@
簸@@
绞
臧@@
蒺@@
蜱
讬
谒@@
買@@
預@@
顽
鯊

￡@@
Mohamm@@
ń@@
Δ
俠
光器
凯克
匈
娱@@
曉@@
来纳
桑尼亚
棣@@
榆
煲
犸@@
狰@@
睦
缮@@
脈
虫剂
詞@@
譯
豐
鋒@@
Colle@@
UNEP/C@@
喹
岬@@
揄
撞击@@
晉@@
曰@@
枚@@
榕
稷
胤
識
酉@@
阿方@@
━@@
不列@@
为患
于事
偃@@
叻
垄
恪
揣
携式
摄像@@
曜@@
栎@@
止境
狞
緣
繼@@
萜@@
葩
谟@@
閉
隘
ｄ@@
EA-@@
伊朗@@
吡
咨委
圣多@@
巳@@
幹@@
斡@@
普朗@@
灾难@@
特洛尔科
翎
蛔@@
郴@@
隅@@
鳟
ｉ
θ@@
ρ
υ@@
倏@@
堕
媛@@
嫉
宛
彥
惇@@
拽@@
敖
期性
溉@@
煲@@
獅
莹@@
西门@@
鍊
铈@@
锕@@
镖@@
靓
鰕@@
Ｐ
5年度
Ⅲ
丹利
哔@@
坳
天候
张正义
归根结@@
揪
曆
沂
煌@@
犊@@
玷@@
範
範@@
绍尔
膊
藥
蛆
蝰
袁
諸@@
镗@@
@@
⁄
⑦
冗
垄@@
堇
塔尼亚@@
希米
幡@@
撼
擘
沼泽@@
涮@@
炬@@
熠
电离@@
男子@@
療
监视@@
矽
硂@@
純@@
蛱@@
蠵@@
袂
覽@@
颓
ｂ@@
ά@@
ق@@
〈@@
佥@@
垒打
奂
小儿麻@@
排除@@
渚
甭@@
疚@@
監
茂德
蒡
蛺@@
行之@@
谴
辱性
郝
酊
雹@@
鸯
鹳
﹒
ｒ@@
Ñ@@
ك@@
†
佻
债权@@
力所@@
匾@@
哚
壘@@
安特@@
方法@@
施密@@
晶体@@
歡
歸@@
殓
汩@@
獠@@
瘸
硖@@
磐@@
磡@@
窖@@
競
紙@@
紹
羡@@
莨@@
萨兰@@
蓉@@
补充@@
訴@@
评人
辙@@
運動會@@
钊
鰍
鲫@@
鸚@@
麂@@
ⅹ
⑽
┱
伊斯坦@@
俳@@
冰激@@
劑
囗
囹@@
塊
就读@@
巯@@
廟
有钱@@
流离@@
淺@@
药剂@@
蚤@@
蛺
襲@@
诀@@
蹉@@
週
金沙@@
階@@
上型
不伦@@
呻@@
墅@@
娑
巴马@@
廢@@
濒
犒@@
獨
苎@@
請@@
踵
邢
镅
马达加@@
髋
鼩@@
ammad
⑼
出发@@
利物@@
婿
帛
必行
氚@@
源源@@
燮
獄
甥@@
疱@@
磯@@
禁毒@@
篆@@
纰@@
蜇
诰
谍
镧@@
鬓@@
鹫@@
Ｍ@@
ｓ@@
CERD@@
ō@@
ز@@
决定@@
勳
喵
圄
基斯马@@
忿
狳
用期
磋@@
示威@@
秆@@
苓
鄱@@
銅
铊
陲
鷹
麸
︰@@
一生@@
倩
决于
啶@@
岱
帚@@
幟
挎@@
有条@@
椿@@
槛
离乡
續
翡@@
萎
训所
讶@@
趸
铋@@
須@@
颞
FCCC/SBI@@
ê
Α@@
事们
俺@@
偵@@
力于
吞吐@@
咚@@
壓
己烷
榻@@
療@@
砧
腥
試
讹
跄@@
蹼
輔
金字@@
韭
鮭
ｐ@@
ý
ぐ
亚湾
偉
化验@@
家宝
岷@@
棣
殡
比性
混凝@@
漕@@
笋@@
緯
脈@@
芷
蘋@@
蛀
褫@@
賢@@
賴
赣
酋@@
酋长@@
铟
霍普@@
鯨@@
黠
search
Đ@@
伶
名古@@
咝@@
咭@@
圣多明@@
娘们
征性
摞
来源@@
濡@@
烙
玮
疵@@
筵
糅@@
羔@@
肇
至终
芫@@
蕙@@
蝗
袅
裱@@
識@@
遑@@
鮟@@
鲣@@
ζ
ա@@
ה@@
卡内@@
吉尔吉斯@@
向于
帛@@
悄
掐
擘@@
浚@@
碇@@
笙@@
菸
蛭@@
褚@@
西伯@@
铱
頁@@
頸@@
飕@@
鲑@@
Ü@@
́@@
א@@
ב@@
不言@@
乌兹@@
叵@@
憎@@
拗@@
拴
揆
欽
渺@@
灘@@
疤@@
缇
舀
舊
茬@@
螫@@
蠡
裘
補@@
詩
请愿@@
邏@@
阈
頁
鸬@@
@@
＠@@
⋅
傍@@
寐
怅@@
斯大@@
斯蒂德
沃尼亚
滅@@
科尔多@@
续续
羚@@
臊
菈
菖@@
趸@@
饕@@
º@@
ē@@
Ⅱ@@
☆
偻@@
匡
南桑@@
博会
吩
吸入@@
哔
啕
大港
掖@@
沏@@
猷@@
瑁
祗@@
继承@@
蝽
蹿@@
鳚
∈
卅@@
囤@@
嬴@@
庵@@
投标@@
搔
氘
瓮
生率
確@@
稔
筝@@
終
莘@@
誠
辦@@
锑@@
驿
鹬@@
ｄ
Journ@@
κ
▲@@
咩
壑@@
孑@@
悯@@
抿
掴
撅@@
斷@@
柞@@
琌
祿
福建@@
竺
羸@@
翎@@
習
芍@@
蒿@@
蛭
裱
貴
锭@@
阖@@
﹖
Ｘ
ö
τ
у@@
≥
佚@@
價@@
嚴@@
土耳其@@
复燃
徹
捅@@
槭
橇
氖@@
玫
痹症
竞争@@
綠
練@@
绉@@
维他@@
羿
舶@@
芝加@@
蛟@@
蛰
話@@
蹙@@
钰@@
阅读@@
顏@@
鲔@@
鹟

ă@@
ː
叼@@
呦
挚
斛
柬@@
炙
玖@@
纶@@
缰
胯@@
膦@@
自来@@
鄞@@
銀
鞅
颱
饨
鲀
鲛
ι
備@@
喔@@
悸@@
懋
攸@@
灸
玳@@
痞@@
眈@@
祀@@
窈@@
給@@
聿@@
肟
胫
蠕
貞@@
钇@@
雞
顧@@
骄
骅
鸪
＆@@
С@@
ש@@
伉@@
免权
南极@@
咲
嘹@@
囗@@
圣地亚@@
媾@@
布兰卡
攫@@
曜
滿
糙
荤@@
蓮
蔣@@
蚴
解剖@@
谴@@
養@@
鮈
鲎
鲟
麒
Φ
丁堡
余力
噴@@
墨西哥@@
巽@@
建局
忤@@
拢@@
摩纳@@
擀@@
昇@@
殓@@
淬
玮@@
痔
緒
羌
萜
誕@@
钕
铰
镧
闰
隕@@
驅@@
UNCT@@
class2@@
―@@
伱
合伙@@
圓
夯
威奇
婀@@
尻@@
岘@@
峭
弈
录影@@
憶@@
擴@@
楂@@
瀛@@
瘴@@
眈
苣@@
蜉@@
蝦
訓@@
谤@@
軸
邬@@
钇
阿富汗@@
鰺
Σ
מ@@
债务@@
入式
南南@@
呎@@
咆@@
噤@@
寞
愎
掬
最大@@
杵@@
检组
椋@@
楝@@
樓@@
汨@@
潴@@
烊
爲@@
癜
筷
胝@@
艮
芩
訴
辜@@
銅@@
铧
雞@@
餅
鬈@@
鯨
鹚
鹧@@
Ｔ
ｌ@@
FCC@@
ə
乍
孵
尘暴
屍@@
峇
巿
庆市
梆@@
汾
滾@@
盎
盜
耽
腔镜
臭氧@@
蝰@@
跟鞋
跺
輝@@
邨@@
铷
鯉@@
Ć
佈
傷
加班@@
孺@@
枭@@
涝@@
瓯@@
眸@@
窕
胼@@
藕@@
谙@@
鋒
鴨@@
class3@@
õ@@
⊙
ス@@
中之@@
儀@@
出入@@
卜拉@@
哥尔@@
娑@@
密克罗@@
密歇@@
岚@@
巡回@@
巴托
库克@@
恻@@
憎
挎
擔@@
敗
斯亚贝@@
斷
晾
机器@@
樣@@
檗@@
瀑
烽
煙@@
自主@@
蕈
藓@@
蚱
豢@@
贰@@
跚@@
較
辜
铮
销员
除此@@
馄@@
鵝@@
roid
ψ
供货@@
噎
屎@@
影响@@
撵
枷
棵@@
沱@@
治安@@
濮@@
璞@@
砚
簌@@
繆@@
舆
芩@@
荽
莊
萨马·本·拉@@
薮
蘖
蜓@@
讦
軟
逍遥@@
鑑@@
钗
铟@@
餮
Å
έ@@
億
复活@@
娴@@
峪@@
愕@@
昕
棂
榭
氏度
砲
碲
稗@@
細
繪@@
脍@@
腳@@
莒@@
訥
逵
針@@
餘@@
鱇
ｅ
class1@@
Τ@@
ל@@
נ@@
体法
俄亥俄@@
勐@@
嗑@@
噗
埸
壬
娲
徳@@
怆
惰@@
憶
扎特
採@@
晌
晤@@
枇@@
柠@@
殼@@
焗@@
燎
猁
猞@@
米歇@@
絡
胬@@
衮
裏
馊@@
黃
м@@
≈
ル@@
一团@@
丶
再接再@@
嗖
奘
尋@@
層@@
承载@@
捱@@
據@@
擢
栾@@
榫@@
槃@@
泷@@
浏@@
漱
畲@@
癜@@
糸@@
胛
苄
苋
螟
譚@@
跡
蹒@@
迢@@
铨
順
颏@@
飒
飕
馋@@
鵝
鸮@@
@@
@@
ESCA@@
ï
ー
上而下
偌@@
勢@@
唛
唬@@
嗯@@
垛@@
基州
奢
婪@@
恙@@
懋@@
抡@@
拉圭
揽@@
柿
沧
皖
縱@@
缬@@
而言之
胴@@
跤@@
轄@@
铁站
阱@@
韬@@
鬓
﹡
191@@
Amer@@
Lond@@
§@@
ř@@
ɑ@@
أ@@
不失@@
内陆@@
吉普@@
問
宥
幹
憲
戮@@
杜洛@@
栎
澈@@
澎
烨
箝@@
簌
籁@@
粼
粼@@
纣@@
腋
艾滋@@
衢@@
規
诃
诲@@
谆
贰
酞@@
锏
锝@@
鵡
麵
11月@@
class4@@
É
्@@
俠@@
兖@@
噩
壅@@
妍@@
專
尓
掀
換@@
撃
暴风@@
浜
測
湯
爭
猥@@
猷
璞
礴
稚
穆罕默@@
膈
膠@@
芜
莠@@
虏
蝦@@
讀@@
轟@@
锃@@
闆
闵
陣
韶
鸸@@
鹜
鹪@@
＄
Ｎ
ã
ò
ò@@
ô
İ@@
い@@
イ@@
兹堡
击者
堅
塔什@@
幢@@
灸@@
燈
畝
穦
糖尿@@
致上
薨
蝙蝠@@
谒
蹼@@
酪
醫
銮@@
鑽@@
钣@@
镓@@
隍@@
階
颍@@
馥
鲽
鳐
@@
CIR@@
ر
ラ@@
匮@@
呋@@
坚定@@
怔
恋者
扉@@
挞@@
捲
溝@@
滁@@
滴滴@@
滾
环己烷
珏
琏
祚
笈
纂
裨@@
讲习@@
貢
赞成@@
輯@@
轟
頻
￭
03年
の
决权
嗝@@
容性
嶺@@
形形色@@
捺@@
晌@@
求是
犄@@
盂@@
磕
臻@@
討@@
認
谆@@
踱
辎@@
鱥
鳴@@
鹮
@@
﹔
Ｓ
ة@@
ص@@
〝
吉祥@@
尾处
承租@@
杈
橇@@
濠@@
独角@@
皋
砒@@
稅
糯
维也@@
蝽@@
蟠@@
請
诡
诰@@
邁
鋼
錯@@
铒
隽
髮@@
鹋
@@
Ｖ@@
ｈ@@
д@@
э
∗
不大@@
呸
咻
嗬
圩@@
埂
塚
夫球
媽@@
孤儿@@
帷
斌@@
林宫
格林纳丁@@
氓@@
油厂
涮
炀@@
热内@@
焓
畦
睹@@
笈@@
篾
绛@@
谵@@
鑲@@
飾@@
鯡
鲇@@
鴻@@
鸫@@
鼩
½
Γ
€
◇
何塞
儲@@
啉@@
啷
喱@@
塔赫
忌惮
怂@@
愆@@
慶
抠@@
旖@@
殇
泓
濠
瀛
焯@@
礙
科摩@@
窠@@
筠
缢
耆
胪@@
腎@@
舢@@
衪
負@@
邸@@
郸@@
铮@@
镎
镎@@
頂
骰
鰻@@
鸨
麓@@
iriyah
µ@@
¹
Å@@
ʊ@@
خ@@
ي
ン
亩@@
亳@@
偽@@
匯@@
受灾@@
呷
嫔@@
尓@@
尔本
峪
工人@@
幫
擤@@
斯科尼
无核@@
槭@@
淘
獻
瞟@@
織
繩@@
腩
藕
觞
謬@@
谳
跎
蹟
輻@@
辍@@
达累斯@@
遊
錢
阋@@
阑
鰨
､
⑾
书亚
华盛顿@@
婺@@
嵊@@
悚@@
昱
沐
牟
狞@@
獒
畑@@
祺@@
篑
粱@@
绉
聽@@
腴
获物
菈@@
蚬@@
蜒@@
邺@@
钕@@
铢@@
镅@@
雳@@
韓
須
餘
骜@@
@@
﹗
ｍ@@
ｕ@@
.or@@
Ø@@
‵@@
℉
ア@@
吝
咂@@
喆
噙
妁
婭@@
孽@@
宙@@
怏@@
扳
批判@@
杵
桉
椽@@
殚@@
比勒@@
毗
涸
瘪@@
癣@@
秽
笏
筝
緣@@
罄@@
胧
苋@@
蓑@@
薏@@
藐@@
蚓@@
蠊
覽
評
诂
賀
迢
迪生
閉@@
霆
飯
鮨
鯰@@
鰈
Σ@@
ד@@
剖
功于
叩
咲@@
因州
婕@@
婦
峁@@
幡
拷
断力
滦@@
潇
灵敏@@
玑
荻
蕙
蚝
译器
賣@@
迪士@@
釋@@
鏈@@
银河@@
陕
驸@@
髅@@
鳝@@
鴨
Ｋ@@
class5@@
³
φ@@
О@@
侈@@
執
宥@@
弑
抠
拉图
汴@@
焖@@
珉
琢@@
瑾@@
睚@@
碞@@
祈
稼
緊@@
膺@@
舐
蒼@@
蠹
豇@@
醮
项式
£
û@@
П@@
仃
咩@@
妨@@
学金
摇滚@@
昊@@
杷
桠
楣@@
槁
法罗@@
涟
珞
礦
置之不@@
莠
菸@@
譽
铷@@
靜
鬍@@
鳳
З@@
⑿
リ@@
㈤@@
優
冈州
咛
哥大
喧
娣
孛
宕@@
戕@@
抯
昵@@
曦@@
桧@@
橹
籠@@
芎
芎@@
蜇@@
蝣
螅
裡@@
買
贊
較@@
迈阿@@
鍊@@
鑑
飚@@
騰@@
鲷@@
鳝
鸲
黩@@
FCCC/C@@
class6@@
ɛ@@
ύ@@
⋯
啲
墬@@
崂@@
弱性
戋@@
戲
昨
晤
桿@@
沆@@
泓@@
浜@@
涪@@
瑛@@
瓢
相成
祁
稿人
篦@@
籼@@
綜
舛
藿@@
襲
讬@@
貞
踹
鍵
锉
镱
阿斯塔@@
骐
鸵
鹩
@@

2004/0@@
≡
一如@@
俟
劾
厝@@
原则@@
厩@@
啻@@
壯@@
屐
嵘
弼@@
戌@@
捶
槳
橡
歳
游乐@@
潼@@
狹@@
祯@@
篙@@
絕
纖@@
羧
習@@
艉@@
艏
裆
譜
趟@@
酝@@
髂
鯪
鸾
麼@@
黝
/COP
1996-@@
Ó@@
б@@
ل
⑧
キ@@
偵
僱@@
内罗@@
哉@@
啮
壇
壞
小平
幄
建築@@
忸@@
思议
愠@@
懸@@
挹@@
摩加迪@@
敕
旎
朊@@
渦@@
焓@@
祜@@
純
胤@@
脖
腸@@
菏@@
萤
螯
貨
酞
铑
願@@
颉
髮
鯛@@
鹂
麻风@@
龄化
ط@@
∑
㹴
伦坡
伯明@@
俟@@
全氟@@
劃@@
唛@@
増@@
婦@@
客气@@
巩
栃@@
棲@@
榫
淼
濯
瀣@@
痹@@
础
维夫
缙@@
蓼@@
虢@@
蠟@@
襞
覃@@
谑@@
辖市
酣
銷
铕
锝
陌
顛@@
饪@@
骡
鯊@@
@@
ş
А@@
я
र@@
⊕
よ@@
仟
俞
卻
孀@@
峭@@
幽默@@
戡@@
搀
樟
汩
減@@
濃@@
珩@@
甑@@
痣@@
箩@@
肛
荏@@
莳@@
菪
蔫
蝮
说服@@
豉
醣@@
閒@@
骥
鳐@@
齋@@

Rodrí@@
υ
г@@
佘@@
佰
係@@
公交@@
凄
啜
嗔@@
好地
寥寥@@
峙
徕@@
拖拉@@
掂
杜夫
棲
欺骗@@
沌
濬
炜@@
焘
猾@@
痢
笹@@
聒@@
胳
芪@@
菟@@
蒐@@
蛸
衝
诶
谥
錐@@
钌
钏@@
铳
锺
陪审@@
霖@@
顛
鱗
鹀
@@
2001-2010@@
YouT@@
п@@
丐@@
元前
坨
壽
夔
寬
对一
岀@@
惩罚@@
托勒@@
护卫@@
斯德哥尔@@
晏
榉@@
樊
涤
渥太@@
潞@@
牡
百老@@
皋@@
砚@@
离家@@
稜@@
翳
荪
衆
补性
袄@@
讥
诣@@
酋
鈍@@
鈎@@
钰
阇@@
马耳@@
鯙
黍@@
@@
@@
＆
HSP/@@
也不@@
加泰@@
勁@@
匝
叢@@
嗥@@
嗳
姘@@
屍
彀@@
掖
提供@@
撷
曷@@
楝
沅@@
泮@@
渲@@
漁@@
熹@@
独裁@@
獴
癔@@
祚@@
缄
缮
蛉
蠓@@
轫
配器
铑@@
铼
锹@@
顾性
騎
骶
黴@@
齡
龇@@
@@
å
Μ@@
ϕ
Б@@
й
△
仄
以色列@@
哝@@
在我@@
屆@@
嶋@@
怙@@
悭@@
氐@@
沮
濂
热窝
燒@@
珮@@
笺@@
篤@@
羲@@
联社
舐@@
茏
莘
蓣
蔭@@
谀
豬
賭@@
醬
銮
铼@@
镐@@
镰
Ｕ@@
Ä@@
ß
ʰ
م
‬
≠
⑴@@
〃
ッ@@
ㄓ@@
两国@@
僖@@
卻@@
唏@@
啾@@
埗@@
壩
复杂@@
奪@@
实事@@
对冲@@
底特@@
廚@@
徳
德黑@@
怩
抯@@
捋@@
攥
槿
橛@@
毀
燔@@
琨
璶@@
田纳@@
盅
祉@@
績
纷
肱
菅
蘆@@
虻
誕
談@@
譜@@
赡@@
適@@
那不@@
铊@@
飾
骛@@
高峰@@
魟
鶴
@@
行
eph
ç
ě@@
ा@@
亚穆@@
傢
其量
嗪@@
姣
媽
峥@@
帚
捂
杓
檎
沏
潸@@
瘋@@
相辅@@
碩@@
科生
粳@@
纨@@
绮
膠
舫
虬@@
蟻@@
複
觸
觸@@
谲
軸@@
迩@@
醣
铠
锒@@
镊
飑@@
馋
骠@@
鮃
鲎@@
鲵
@@
｡
lor
­
ō
Α
ら
仟@@
体地
俚@@
傧@@
兵师
前所述
參
吸血@@
咤
噢@@
墉
威士兰
彥@@
掸
擇
椴@@
毛里求@@
氹@@
涯@@
涼@@
淵@@
煜
祸首
篆
翊@@
臨
艏@@
茗@@
藿
蘑
蜆@@
衙
诨
躅
迺@@
鄰@@
重机
鉤@@
闫@@
陳
雅温@@
雖@@
鲆
龛@@
¯
æ
ì@@
ب
カ@@
么样
亂@@
併
俎@@
俯
反倾销@@
坨@@
壞@@
夏令@@
婕
嵋
惚@@
掰
搡@@
摈@@
晟@@
枳@@
格拉尔
樸
欖
歲@@
氓
漩@@
燔
牆
獭@@
珲@@
硐@@
穩@@
简单@@
芍
蓼
蘋
虻@@
蚺
蜿@@
裾
诳@@
赀@@
遛
铨@@
闭幕@@
防腐@@
馐
骊@@
鲢@@
鸢
@@
Í@@
˚
Π@@
⟩
マ@@
亚那
伱@@
俱乐@@
克·奥巴马
努美@@
卉@@
博茨@@
嗦@@
嘁@@
嘭
堺@@
宦
廠@@
恸@@
愆
戋
揮@@
攝
断断@@
普遍@@
樞@@
津巴布@@
溥
潛
潟
琮
病率
痞
瞰@@
科罗拉@@
竣@@
纳布卢@@
缨
脫
自愿@@
萩@@
蓓
蜒
諜
诌
財
酐@@
镂
镯@@
霏
靥
顯
鮰
鹞@@

ｗ@@
H5@@
Stew@@
ο
К@@
ク@@
タ@@
ミ@@
ㄆ@@
䲁
与世@@
佟@@
偻
击队
初始@@
利沙
制订@@
厮
嵇@@
悌
捎
晔
晖@@
暴者
曝
枷@@
櫻
泯
淵
湎
片机
特式
犍@@
璜@@
瓿
瞑@@
磯
笆@@
篙
籴@@
绶
舂@@
艉
苒
荃
蛎@@
蠹@@
誠@@
讴@@
鈴
鎖
鎖@@
钬
铙@@
陂@@
霾@@
饬
鱸@@
鸾@@
鹑@@
齡@@
@@

Ｌ@@
cil
Ö
ň@@
ɡ@@
⒄
ス
刁
哟@@
哦@@
四川@@
尋
岿@@
庖
恋童@@
接种@@
攸
沙咀
渎
漠化
濁@@
瀨
烁
睫
砹@@
硂
禦
筆
罅@@
罟@@
肼@@
臥@@
茔
蜷
裆@@
訪@@
谌@@
跗@@
踯@@
辋
釆@@
锎@@
閣@@
霧
頒@@
額
養
鱧
黉@@
黔
龃@@
ð
χ@@
в
ه
フ@@
併@@
凰
出乎@@
呂
哈佛@@
嗟@@
嗷
嗷@@
噤
壺@@
娈@@
嬴
帳@@
彝
怔@@
恆
揆@@
撲@@
擇@@
昴
极管
格莱德
楸
淙
湟@@
滅
爰@@
璶
疊@@
痨
硷
笵
綿@@
耄@@
裳@@
談
趔@@
醯@@
钐
镝
镦@@
霓
霧@@
靛
顏
飨@@
鮡
Λ
Ω@@
ע@@
る@@
ネ@@
众所@@
伦萨
佃
停机@@
其妙
咎于
喑@@
嗲
囧
圃@@
圣卢@@
实施@@
嶂
嶋
掇
楊
氟烃
汊
烩@@
爐
牝@@
玆
珅
石坑
秋节
荠@@
衅@@
譽@@
責
足于
鄢
銘
铳@@
鞣
鲉
鹘
＃@@
Ｆ
£@@
ė@@
ŋ
χ
М@@
ּ@@
ג@@
न@@
↔
な@@
偈
埕
奚
娆
彀
捺
攫
斟
檫@@
洩
淦
濯@@
燒
狨
瑄
砲@@
砵@@
秕
稷@@
聽
脒
芘
菀
萱@@
蛐@@
衲
託
郯@@
阪
髑@@
鬚
鹽

@@
＄@@
®
В@@
‛
↑
∕@@
∠
❑
シ@@
仄@@
傾@@
凋
媪
媾
岀
彎@@
懵
扈@@
撅
擎
桢@@
梆
椰
殭@@
淙@@
滓@@
潤@@
砜@@
禪@@
稃
粵@@
繼
绀
荠
蔺@@
衩
褂@@
諜@@
趄
軒@@
逡@@
醍@@
針
闾
飨
鱲@@
鸶

@@
￥
¨@@
ē
Ο
إ@@
⑨
侪@@
側
僮
垅@@
屹
愀@@
搽
擁@@
昇
榧@@
檄@@
毀@@
瓒
磺
穌@@
簪
缨@@
聩
胍@@
膘
臾
艋@@
蚩@@
蟻
裟
褔@@
讀
讫@@
銷@@
锇@@
镫
霏@@
霭@@
顎@@
願
駕@@
騷@@
鴞
龉
@@
ž
ɒ@@
⊿@@
倖@@
僅
億@@
孛@@
弋@@
悻@@
捱
昱@@
桡
殁
沭@@
洱
涸@@
潔
珐
瓊
甙@@
産@@
矍@@
穦@@
篓@@
篠@@
缟@@
缢@@
羹@@
苓@@
茗
萄@@
豌@@
酢@@
醜@@
鍵@@
颏
鲡
鼐
@@
Ｒ@@
ｇ@@
Ð@@
ę@@
Κ@@
ṣ@@
‡
デ@@
倉
價
剁
匯
垩@@
塊@@
婿@@
宸
嶼@@
幫@@
忑
悌@@
挈@@
揩
斛@@
昀
椽
氪
泾
潤
瀧@@
煙
玖
甄
睐
碛
祆@@
禺@@
稅@@
穀@@
糗@@
緋@@
縮
纔
苴
茯@@
荤
蛊
謙
谪
貿
輋@@
辯@@
辻@@
酗
隍
駒@@
骛
鮭@@
鲶
鸩@@
﹒@@
Ε@@
ת
া@@
্@@
်@@
俨
偈@@
傭@@
咝
哆
哌
嘅
坜
奘@@
妪
宸@@
峙@@
巽
帼
拋@@
掃@@
撃@@
槎
樵
殁@@
毘
溝
焗
煜@@
碇
羔
肮@@
菀@@
菪@@
薙@@
螢@@
褓@@
豉@@
赁@@
踟@@
釋
鉛@@
鏈
锔
镫@@
閩@@
隻
雒@@
饬@@
骺
鮋@@
鲕@@
鲽@@

ą@@
ʃ@@
Λ@@
н
غ@@
․
ⅰ
∧
ジ@@
ロ@@
亟@@
佟
冊
剜@@
夠
巅@@
恬
摁
昶
棄@@
洮@@
淖@@
炕
煨
煸@@
畦@@
筿@@
綾@@
绀@@
腸
芡@@
衢
袈@@
訓
詠@@
誘@@
谶@@
赓@@
軒
遙@@
鄢@@
醌@@
钸
铄
闳
颔@@
骈@@
髯
鱂@@
鸚

Ｊ@@
â
ý@@
Г@@
г
ь@@
ל
ی
乂@@
傘@@
傩@@
傭
債@@
劭
唢@@
啧
堃
堯@@
夾@@
孖@@
懷
旃@@
昶@@
晰
曩@@
椹
殼
毎@@
涿@@
濕@@
珞@@
癸
眦
瞭
矜
確
祕@@
禍
稣@@
竽
紗@@
纜@@
绎
翊
蚧
蜻
螟@@
褒
講@@
貫
賞
蹤
遞
铿
锟
镬
闾@@
陇
隱
隸
颍
騰
鲃
鲫
鲯@@
鲱
鼱
齣
@@
Ｅ
ţ@@
ή@@
ξ
е
Ⅳ
佈@@
侖
侪
倭
傘
僅@@
吖@@
咣@@
嗓
埕@@
壘
壯
嫦
孫
寵@@
惡
懈
旻
朦
桧
楹
歸
沅
洩@@
浒
涧@@
淨@@
猬@@
璟
甬
畑
痉@@
痳@@
瘿@@
砭
稔@@
穌
窩@@
笵@@
紳@@
絨@@
繩
绌@@
肟@@
腑@@
茉
薹@@
蝴@@
螈@@
裴
課@@
貘
賊
蹇@@
辭@@
邺
鐮@@
锫@@
駝@@
髁
鰍@@
鲭
鸻
鹩@@
麝
理
Ｉ
Ｙ@@
ｏ
ù
œ@@
ि@@
⑵@@
◆@@
ぷ@@
ル
㎡
俣@@
傈@@
凪
匮
呣
哞
喋
嘈
圳
墅
墜@@
娟@@
審
嵯@@
帙
庖@@
廟@@
徭@@
忖@@
抰@@
敵@@
昙
晞
曙
椤
楹@@
橼@@
櫃
毽@@
漾@@
獄@@
獻@@
珪
疥
皿@@
穀
穑
粲
粲@@
絡@@
縩
纥
绫
聰@@
莖
谯@@
購
赳
赳@@
蹋@@
轲
辗
鄯@@
錐
锔@@
镗
頰@@
颶
鳔



ｃ@@
ｓ
÷
ż@@
ח@@
כ@@
⁄@@
☆@@
㈥@@
乜@@
侈
剔
噘@@
堀
嫘@@
峤
恚
扼
柘@@
梶@@
榛
檗
洙@@
淅
渚@@
溧@@
潼
灏@@
焖
猩
疸@@
眔@@
缁@@
腳
萦
譚
讚@@
诤@@
貉
跖
邕
钋@@
钌@@
钐@@
阗
髭
魟@@
鱒
鲂
ｘ
𬬻
þ@@
ł
ū
Β
И@@
Н@@
آ@@
ា@@
ṭ@@
ⅲ
た@@
る
仃@@
凇
吖
唁@@
啕@@
嗥
嫡
嫣
忪
慷@@
拇
拯
捌@@
擁
桫@@
楯@@
歆
歙@@
氫@@
泌
淚
湍
潢@@
煥
珉@@
睢@@
碛@@
碩
磬
笏@@
簡
糗
繪
绦
翕@@
聰
蒯@@
薔@@
螣@@
裥
訂
讪@@
谪@@
購@@
郦@@
醴@@
鎊
铕@@
铛@@
铪
靼@@
韃@@
驭@@
鲛@@
鷗
鹨
﹐@@
ｙ
ŋ@@
Р@@
ы@@
ր@@
ָ@@
ק@@
ا
←
⒁
ウ@@
ト@@
倔
僳@@
呷@@
哐@@
啭
嗄@@
嗨@@
噘
嚓@@
囔@@
囧@@
囫@@
坷@@
奬
婭
嵴@@
嶦
怼
挲
敗@@
暧
椭
樑
櫚@@
沌@@
泱@@
漸@@
灏
睇
砺@@
綱@@
膽
苫@@
謎@@
貫@@
蹙
躄@@
辇
銳@@
鏖@@
铆
铉@@
阕
隨
驷@@
骜
鴉@@
鹦
黒@@
黯
鼹
鼹@@

不
年
﹞@@
Ｘ@@
ì
ˌ@@
Θ@@
Т@@
т
ч@@
ა@@
♥
そ@@
は@@
ィ@@
テ@@
ニ@@
伎@@
佢
俾
刈
卐@@
咁@@
圩
夠@@
娣@@
崗@@
嵐@@
帥@@
廳@@
拮
捋
採
晁@@
曉
枋@@
栢@@
桤@@
榎@@
檬@@
滦
玺@@
珩
琛@@
瓯
皲@@
硏@@
碜
箸
築@@
籤
纛
缫@@
膽@@
莜@@
蓊@@
蜑@@
謎
貘@@
赉@@
蹿
轾
邵
邹
郗@@
鎌@@
钋
钺
锫
阉
韻
頜
餅@@
髭@@
髯@@
鲼
鳚@@
鳢@@
鶲
ª
Ú@@
ø
ɪ
Β@@
р
ت
ک@@
∀
⒀
♭
さ@@
エ@@
ト
ノ@@
バ@@
ㄓ
ㄧ@@
俪@@
冇
咿
喪@@
嗳@@
嗽@@
噌
塾@@
峦@@
廈@@
慾@@
抟@@
揿@@
柝@@
柢
氐
洵
漿
爿
牦
狩
獵
瑠@@
痱@@
睪@@
砀@@
磴
稹
窨@@
紡@@
翟
耋
肅@@
胂
舺
菂
虺@@
蚋
蚋@@
蚧@@
螅@@
蠅@@
裏@@
诓@@
貧@@
責@@
賣
赀
蹟@@
遼@@
郢@@
鐸
钊@@
锎
镝@@
闺
頸
颔
飚
饒@@
骆
骺@@
髹@@
鮫
鯔
鰕
鶯
鹞
黜@@

@@
@@
@@

ă
ξ@@
म@@
្@@
│
サ@@
ド@@
佞@@
佢@@
刎
咤@@
喽@@
嘀
埴@@
幷
幾
彌
忾
恂
悅@@
懼@@
抰
揖
揖@@
棟@@
椋
樨
櫛@@
氛
泅@@
淄
淞
溘@@
澹@@
狨@@
産
痂@@
硷@@
碴@@
纾
绔@@
绗@@
胄@@
芾@@
蚴@@
蚵@@
誤@@
迸
違@@
遷
遷@@
邈
錯
铤
锨
镞
镱@@
鞅@@
馔
驕@@
鴻
鵙@@
鶇
鹎
鹱
鹼
麴@@
@@
@@
@@
Ó
ˉ
Τ
َ@@
क@@
∇
∘
♯
み@@
ら@@
ㄇ@@
ㄒ@@
仡@@
侑@@
俚
勰
厭@@
墳@@
妤
尻
峥
帥
弁@@
惘@@
愍@@
憍@@
戕
扪
抻@@
挛
撙@@
柩@@
檸@@
氲
漳
澧@@
濾@@
炕@@
燠@@
牾
珙@@
璘
璟@@
疊
皎
睨
簪@@
粽
缦@@
臬
芨@@
茁
荞
莅
蛉@@
螂@@
謙@@
貉@@
貪@@
逻
闊@@
@@


﹝@@
ｖ@@
Φ@@
ϵ
ч
ן
ת@@
ᆼ
រ@@
ḥ@@
←@@
∈@@
か@@
し@@
倜@@
剜
劉
吋@@
吩@@
嗑
嘭@@
囿
垭
塵@@
壺
媞@@
峒@@
崁@@
嵋@@
幣@@
弭@@
彧
悻
惮@@
損@@
旮@@
旻@@
棗
楦
欄
泔@@
滙@@
濮
煨@@
琬
瑚@@
瑰
瓤
畢
瘠
瘿
盡
盡@@
禿@@
聶
苾@@
萁
蒽
藐
蚺@@
蛲@@
蠓
賊@@
贽
蹊
邕@@
钆
钪
镕
頌
顎
颀@@
饺@@
馍
驭
骞
髡@@
鸯@@
鼯@@
鼷@@
@@
@@

ｋ@@
ｎ
Ł@@
ő@@
ǎ@@
ʻ@@
з@@
к
ո@@
ס@@
་@@
⑤@@
⑩
⟨
っ@@
ダ@@
モ@@
丶@@
俬
倨@@
叡
叡@@
叭
吒
啐@@
嗫@@
婁@@
嬅
崛@@
廪@@
徏
怏
恽@@
憂@@
抒
拚
敎@@
敘
歆@@
毓
猡
玎
瑈
疖@@
睇@@
睢
礙@@
箨
箩
纡@@
耒@@
腘@@
腫
膘@@
舾@@
苡
蔗
蛴@@
蠅
蠡@@
袢
襪
託@@
诹@@
轳
遑
郅
郧@@
醐@@
錶
顼
颉@@
颢
餍@@
骥@@
骧
鮗
鲹
鳉
鳢
鵬
鵰
鸱@@
鹟@@
麹@@
齋
@@
¨
ʷ@@
й@@
ַ@@
י
स@@
€@@
™
⒂
ぃ
ネ
僑@@
囤
圜
垭@@
専@@
岫@@
崙@@
徇
悅
憨
揮
敵
昕@@
杲
楓@@
槳@@
樋@@
橥
氤@@
泠@@
泫@@
涔@@
滢
漸
犍
狯
猝
瓴
疳
盅@@
矣@@
祜
秣@@
粑
糅
紗
緒@@
缈@@
胱
腧@@
舶
荇
荔
菝@@
蕭
薨@@
薹
褊@@
逹@@
邳@@
鄚@@
鉉
韪
頌@@
預
颦@@
饯@@
饴
鮨@@
鱿
鲉@@
鳅@@
鷲
鸷@@
鿫
이@@
立
￥@@
Ć@@
Ś@@
ư@@
ɔ@@
Γ@@
Θ
У@@
ж@@
ш@@
ְ@@
פ@@
ন@@
ম@@
て@@
ア
丟@@
傥
僮@@
叟@@
呓@@
啖
啷@@
嗤
嘣
噔
坜@@
塢
塵
宓@@
彙
徊@@
忱@@
怛@@
恁@@
恻
抡
撾@@
晉
柠
栱
楸@@
槻@@
泗
湄
滘@@
漯@@
牯@@
獐@@
璿
眞
础@@
窠
簸
籠
绛
罘@@
翦@@
腆@@
茛
薑@@
薜@@
螫
衆@@
褲
訪
诠
诤
遺
郴
鋸
钫@@
铥
铽
锿@@
隹
靳
韻@@
馁
魑@@
鱲
鲆@@
鲲@@
鳩
鴿@@
鷲@@


Þ@@
ˋ
Ψ
ζ@@
А
ה
ِ@@
ٱ
त@@
ा
ṇ@@
ℓ
↓
⑷@@
◇@@
〜@@
ま@@
レ@@
䲗
侶
値
儲
凫
凫@@
嘯
墒
姝
孬@@
崴@@
帼@@
忻
惮
戽@@
掛@@
擔
擤
擲@@
旯
杈@@
桀
棄
棟
椁
椐
檢
檫
檳@@
毂@@
浔@@
烹
焯
燮@@
爺@@
狙
獺
獺@@
瑠
璋@@
畠@@
瘠@@
眔
瞋@@
碣@@
竒@@
笤@@
糸
緬
縱
繞@@
罷@@
胨
腫@@
芡
荥@@
荸@@
蓿@@
蛄
蜕
蝕
蝸@@
衹
課
诅@@
诬
贻
踵@@
轫@@
辇@@
邾@@
醪
銘@@
钹@@
铡@@
闇@@
阖
隈@@
隕
雳
靂@@
颛@@
骋@@
髦@@
鬆@@
鬟
鮈@@
鲲
鴉
鸨@@
鸰
鹡@@
@@

@@
@@

﹣@@
Ｕ
｜
¼
¾@@
Æ@@
Š
͡@@
Ⅴ
∪
♠
に@@
コ@@
ブ@@
俎
偃
凼@@
劬@@
勸@@
卉
哞@@
哮
喰@@
嗉@@
嗔
嚴
奬@@
奭
娓
寛@@
崗
幷@@
搶@@
暧@@
暸@@
柽@@
桿
檬
氫
溟
濂@@
獒@@
玥
硖
磧
稜
窸@@
筴@@
粿
綏@@
緝@@
肪@@
臉@@
臟
臧
苁@@
莆
菓@@
蔫@@
蚬
蜣@@
蜴@@
診@@
谶
豸
賦@@
赁
踊@@
蹰@@
轄
逋@@
遙
適
鎏@@
钎
锵@@
锷
锾
驚
鳩@@
@@

@@
@@
@@
Д@@
ь
я@@
ض@@
ṛ@@
Ⅲ@@
∃
⒊
●@@
あ@@
グ@@
チ@@
ド
メ@@
儋@@
劑@@
呤@@
呲@@
咔
屉@@
屌
崁
幟@@
廢
忤
惋
惕
愍
搪
暢@@
暹
曆@@
棂@@
椴
橢@@
殇@@
沣
沵
涔
滘
澍
濛
濤
濬@@
牺@@
猾
玟@@
玷
瑭
癬@@
皙@@
窣
筁@@
綦@@
繇
罔
耘@@
舨
茛@@
茭@@
葜
蕞@@
蘚
蛐
蠖
誰@@
誼@@
豁
豔
豔@@
販@@
赓
蹤@@
轶
逖@@
逞
遞@@
邳
銜
鑽
锕
镏@@
閘
駝
駿@@
鬱@@
鯔@@
鯧
鯷
鯿
鰾@@
鱘
鵰@@
鹘@@
黢@@
黧@@
鼢@@
鿔


@@
@@
"@@
Î@@
ų
ʊ
ʷ
Ο@@
Л@@
ե@@
ն
ן@@
ئ@@
ث@@
র@@
မ@@
ာ@@
ე@@
რ@@
∂
≥@@
⊆
⋯@@
♣
く@@
ぱ@@
ん@@
ガ@@
セ@@
パ@@
ㄧ
偽
儡@@
刪@@
剀@@
剎@@
剐
匆
咁
咐@@
圳@@
埤@@
塬
嫖
庑
庠@@
撲
柊@@
栲@@
汊@@
沤@@
泠
淝@@
淦@@
減
煉@@
燦@@
犭@@
痢@@
痲@@
瘩@@
盪
稞
窣@@
箬@@
緊
纫
绾
肫
肴@@
脷
荊@@
荜@@
薙
蟬@@
蟮@@
衞@@
衮@@
訂@@
跹
迥
逖
遢@@
郇@@
鎚
鎧@@
钤@@
铩@@
镒
镥
雜
飓@@
骅@@
髒
髡
魮@@
鯡@@
鱈@@
鲠@@
鹛@@
@@
@@


@@
力
Ｇ
Ｑ
𫛭
ő
ʃ
ʒ@@
ʰ@@
о
ц@@
ի@@
ז@@
ט@@
و
န@@
ក@@
√@@
≈@@
⑶@@
⒉
┮@@
ず@@
も@@
オ@@
ㄆ
䓬
佥
侑
侗
儘@@
冴@@
劭@@
勵
咄
咗
哂@@
哋
嚅
囵
堯
姹@@
嬌@@
嬰@@
尕@@
峒
崧@@
廪
彊
徘@@
怖@@
怙
怵@@
戾@@
抦
拄@@
摞@@
撸@@
擾
晩@@
暸
枋
柰@@
桠@@
洹
淚@@
淨
淼@@
濛@@
煩
爛
爰
爺
牽@@
珲
琏@@
瑗
璇@@
疖
痪@@
瘰@@
皺@@
砹
砻@@
磴@@
祉
箫@@
綃@@
缙
罟
聶@@
膚@@
舯
芑
蔔
蟥
蟬
蠍@@
觇@@
訶@@
詢
謊@@
诿@@
貼@@
跶
迤
邝
郃@@
鄒@@
醯
鍋@@
鎬
钷@@
锿
閔@@
閱@@
阓
阛@@
陂
頃
顧
鳎
鵟
鹄
龔@@

@@
Ｗ
ʿ@@
ώ@@
س
پ@@
ი
ᵻ@@
Ⅰ@@
Ⅵ
↦
き@@
こ@@
だ@@
ク
㎡@@
仞
佞
儂
卍@@
咻@@
唳
嘞
噻
埭@@
奪
孓
峯
徬@@
抉@@
抿@@
掴@@
暐
杷@@
棻
榧
橫
欤
氅
洮
湧@@
滹@@
澀@@
瑩
璁@@
疃@@
痨@@
盱@@
眞@@
瞋
矗@@
砣
碓@@
碚
磚@@
穰@@
笷@@
筘
绺@@
肮
腙
芾
葶@@
蝘@@
蠲@@
蠶@@
褔
説
诂@@
谧@@
負
貼
赟
跆@@
躍@@
遒@@
遲@@
郵
醪@@
鍋
钫
钷
铒@@
锢@@
阆@@
陰
隸@@
駛
駭@@
騙@@
鲂@@
鹂@@
麂
국@@
대@@
한@@
@@
Ｈ
Ｙ
½@@
ù@@
ň
ή
С
ִ@@
ֹ@@
ר
ज@@
ह@@
တ@@
‖
∥
◊
せ@@
ュ@@
ㄈ@@
亳
仝@@
傀@@
傣
僑
僕
冇@@
凍@@
凪@@
叢
吳
呑@@
哚@@
唾
啓@@
喚
嗄
嗬@@
圹
垃
塬@@
増
妫@@
嵐
庑@@
廸@@
怂
恣
悫@@
悴@@
懼
抣
拋
挢
捌
搐@@
摂
柒
栒@@
榊@@
槁@@
橐@@
櫃@@
殛@@
氛@@
汐
溼@@
瀕@@
煊
煦@@
狓
猗@@
珪@@
瓠@@
痧
癬
皈
盪@@
碓
秭@@
稣
穎
笄@@
糨@@
纣
缒
缭
翱
脔
艘@@
茕@@
藁@@
蚶
袒
褡@@
訟
詛@@
詳@@
誌@@
誰
諧@@
诽@@
谗
赝
轸@@
辂
迂
逶@@
遴@@
邛@@
邰@@
醮@@
鍬@@
钯@@
钿
镥@@
镬@@
閱
闆@@
阯
霁@@
韌@@
饕
饽
馴@@
鬱
魴@@
鯻
鰂@@
鱇@@
鱿@@
鲢
鲣
鲹@@
鵑@@
鵬@@
鷺@@
鸲@@
@@
@@
@@
＼
ｙ@@
¤
ʒ
ʲ@@
ˇ
Ι@@
х@@
յ@@
ֶ@@
צ@@
ى
ّ@@
ल@@
া
า@@
ი@@
〈
⑸@@
►
り
ん
ァ@@
プ@@
倻
僖
刋@@
呔
呯
呸@@
啫@@
嗲@@
囯
圏
坭@@
堊@@
塗@@
墬
妝@@
崙
彎
恹
恹@@
慾
憧@@
抟
挝
撩
撾
擺@@
昉
枰@@
梿
様@@
檩@@
渤
湜
溏@@
漿@@
澹
燦
燭
猭@@
琊
琍
瑀
瑤
甭
痉
瞌@@
窮@@
笕@@
篾@@
糧@@
絢@@
絹@@
綫@@
緻
縻
繡
纥@@
绾@@
缱@@
罰@@
脅
膑
臉
臟@@
舎
舛@@
芴@@
荏
蔷
虢
蟎@@
蟠
衪@@
衲@@
誼
諏@@
讚
诋@@
谩
赂
赡
赧
辺
逵@@
酢
醜
釣@@
鈉
鉛
銼@@
钅@@
钆@@
阇
陟@@
隈
隻@@
顆
顫@@
髑
鬆
鬬@@
鱊
鲔
鲦@@
鵑
鷺
齦@@
龢
@@


行@@
Ｋ
ｆ@@
𫖮
¬@@
¿@@
Χ@@
Х@@
Э@@
ю@@
द@@
ी
দ@@
்
င@@
ု@@
ḍ@@
ḥ
ệ@@
ἀ@@
₂
∨
ビ@@
ャ@@
ヴ@@
亍
佯
俦
凍
叱
呓
唰@@
啲@@
嘅@@
嘣@@
嚈@@
圹@@
圻@@
埤
埸@@
墀
墒@@
妊
孀
寛
岌
岫
峴@@
崆@@
巖
徊
慘@@
憤@@
戆@@
戦@@
抎@@
捩
掾
斡
暝
椟@@
楯
檄
殉
浬
淸@@
渌@@
滂
漩
漪@@
烨@@
珏@@
瑄@@
甯@@
疭
疴
痈@@
矫
磬@@
稗
窪@@
窮
筠@@
筷@@
糞@@
絞@@
絨
綁@@
繫
纛@@
纨
缒@@
罹
苴@@
茚@@
荀
虮@@
蚶@@
蝣@@
螽@@
蠋@@
謠
謨
诨@@
贖@@
趺@@
辚@@
迳
逹
遯@@
郜@@
郢
鋁
钏
铪@@
镙@@
閘@@
閥
阎
阗@@
陛
霰
飲
饽@@
騷
骠
魣@@
魷
鯧@@
鱉
鲇
鲮@@
鲳@@
鳙@@
鶯@@
黒
鼯
龅@@
@@



@@
@@

@@
不@@
﹑@@
ｋ
ｔ
