<pad>
<eos>
<unk>
the
,
of
.
and
to
in
a
for
on
that
is
)
(
with
as
by
be
it
/
was
"
at
are
's
its
from
this
:
or
an
;
i
have
not
united
has
their
which
all
international
you
nations
will
also
had
he
development
were
been
committee
rights
other
states
we
his
would
they
should
human
countries
but
-
women
national
one
report
such
can
more
new
there
under
security
general
support
work
government
information
council
including
state
into
may
1
out
these
people
resolution
law
made
programme
some
if
no
system
implementation
between
through
?
who
time
economic
those
world
group
when
special
social
two
so
activities
any
assembly
about
against
per
well
2
up
than
convention
only
country
my
first
commission
children
her
during
our
could
meeting
your
article
do
she
session
use
them
number
cooperation
$
parties
'
management
measures
over
services
regional
3
public
most
office
years
action
resources
what
conference
process
working
financial
many
efforts
organizations
said
draft
after
cent
secretary-general
need
right
order
health
must
education
take
party
provide
further
members
issues
b
assistance
member
while
year
mr.
organization
ensure
within
political
't
republic
being
review
4
like
me
level
make
developing
global
provided
5
both
areas
part
protection
however
where
policy
training
10
staff
persons
since
us
important
period
before
legal
paragraph
see
programmes
c
high
now
held
how
used
following
community
6
three
him
particular
shall
among
each
relevant
president
same
very
service
trade
access
peace
china
adopted
decision
plan
court
e
based
related
taken
technical
situation
continue
7
data
role
set
way
effective
without
secretariat
because
mission
local
december
established
regard
progress
good
board
agenda
life
area
violence
million
recommendations
15
control
reports
then
12
place
respect
field
s
budget
cases
project
case
present
8
view
just
d
representative
civil
did
gender
child
30
even
groups
society
june
second
11
fund
framework
increase
africa
act
developed
sustainable
day
end
institutions
water
region
technology
possible
2005
2008
basis
9
20
accordance
force
change
police
policies
still
operations
necessary
nuclear
needs
military
full
capacity
2006
given
proposed
population
include
justice
current
14
family
department
2009
environment
available
different
upon
un@@
2010
issue
july
!
research
criminal
several
2007
-@@
13
total
2004
specific
--
sector
various
appropriate
meetings
future
african
noted
european
agreement
major
continued
much
considered
address
re@@
consideration
small
humanitarian
account
therefore
governments
18
particularly
weapons
food
men
another
provisions
addition
last
required
promote
additional
own
16
concerned
union
2011
levels
help
item
does
&#91;
participation
foreign
poverty
business
increased
great
know
man
discrimination
projects
september
requirements
note
2003
status
ii
school
south
delegation
2000
result
central
importance
approach
systems
&#93;
coordination
go
treaty
monitoring
rules
october
according
authorities
2012
means
every
conditions
private
2002
affairs
get
impact
march
17
main
study
key
document
november
towards
strategy
%
whether
section
conflict
results
19
bodies
market
long
land
able
space
executive
submitted
agencies
attention
21
representatives
best
31
comprehensive
administrative
especially
better
domestic
o
application
energy
2001
25
due
received
above
establishment
joint
growth
crime
agreed
four
down
common
often
january
power
reporting
example
declaration
improve
centre
found
context
least
goals
principles
april
environmental
back
disarmament
risk
prevention
production
standards
care
question
don
might
protocol
third
next
indigenous
become
give
22
concern
person
called
age
taking
costs
provision
cultural
advisory
statement
1999
legislation
armed
terms
form
problems
forces
24
bank
analysis
response
planning
recent
existing
mandate
rate
five
quality
included
annex
23
consider
early
line
large
requested
building
fully
personnel
request
come
2013
ministry
regarding
peacekeeping
together
k@@
took
rapporteur
concerning
put
war
although
treatment
responsibility
investment
thus
expressed
challenges
strengthen
fact
significant
assessment
reported
procedures
practices
around
in@@
resolutions
performance
contained
already
provides
subject
n@@
mechanisms
develop
rule
days
employment
equality
company
free
administration
practice
funds
1998
amount
strengthening
implement
america
problem
light
point
chinese
here
less
democratic
de
no.
permanent
providing
authority
requests
reform
labour
too
using
today
yet
adoption
relating
paper
lack
26
team
experts
city
having
august
until
off
strategic
body
victims
others
past
position
list
annual
table
february
27
basic
think
addressed
certain
cost
east
effect
young
mechanism
28
unit
forms
making
g@@
focus
decisions
peoples
promotion
home
contributions
trafficking
undp
again
e@@
value
s@@
am
property
reduction
economy
dialogue
decided
always
needed
little
want
climate
f
organized
equipment
few
meet
actions
regular
interest
official
initiatives
code
sexual
obligations
matter
arms
commitment
independent
establish
air
non-@@
d@@
division
led
entitled
workers
living
evaluation
funding
knowledge
objective
individual
internal
responsible
panel
university
financing
notes
29
natural
o@@
never
procedure
p@@
experience
model
serious
communication
laws
israel
once
clear
prevent
safety
let
forum
arab
date
palestinian
greater
t
supported
american
t@@
open
m@@
expected
course
plans
operational
currently
missions
i@@
minister
partners
m
girls
higher
limited
b@@
far
letter
para
potential
say
old
rural
terrorism
income
changes
50
territory
operation
involved
nature
recommended
documents
crisis
priority
y@@
consultations
previous
promoting
exchange
months
communities
design
integrated
later
medical
please
violations
author
achieve
principle
non-governmental
an@@
carried
find
opportunities
strategies
matters
guidelines
questions
offices
acts
cannot
committed
statements
media
network
asia
iii
hiv
why
60
director
house
call
'm
6@@
agreements
a@@
six
iraq
equal
understanding
students
final
overall
recommendation
discussion
language
implemented
former
products
death
play
approved
officials
biennium
done
implementing
agency
c@@
strong
er
steps
europe
increasing
room
forward
capital
7@@
refugees
facilities
conduct
name
affected
g
initiative
l@@
essential
tribunal
regulations
method
whole
look
're
40
enhance
objectives
stated
resource
ms.
headquarters
aimed
benefits
hours
japan
issued
material
industry
communications
below
purpose
1997
behalf
'@@
presented
effects
money
aids
articles
primary
2014
north
rather
opportunity
evidence
al@@
millennium
times
processes
remains
z@@
going
methods
instruments
known
transfer
facilitate
freedom
protect
informed
ensuring
posts
structure
8@@
f@@
love
prepared
expert
individuals
away
close
conducted
low
reference
pay
construction
reduce
adequate
lead
return
hand
real
remain
h@@
functions
proposal
aspects
proposals
arrangements
poor
despite
direct
officers
pursuant
de@@
head
left
chairman
culture
assist
russian
throughout
york
bring
face
5@@
positive
concerns
english
similar
transport
active
infrastructure
introduced
term
delegations
awareness
k
allow
drug
ways
relations
partnership
families
task
exercise
scientific
disabilities
schools
p
itself
recognized
constitution
l
wish
companies
follow-up
sea
n
r@@
universal
rates
along
negotiations
side
crimes
undertaken
participants
materials
difficult
professional
1996
across
regions
show
west
range
.@@
commissioner
governance
hong
judicial
movement
ar@@
w@@
standard
manner
contribute
fundamental
live
share
kingdom
source
identified
informal
summit
integration
views
activity
covenant
science
contribution
road
'll
combat
ability
post
recommends
preparation
came
goods
keep
text
series
things
studies
9@@
create
u
y
connection
kong
dated
institute
type
multilateral
association
v@@
enforcement
outside
legislative
critical
statistics
includes
improving
claims
detention
elements
u@@
believe
leave
torture
improved
events
institutional
federal
outcome
youth
points
items
al
achieved
aid
centres
traditional
words
referred
j@@
es
ad
india
trust
asked
travel
goal
red
contract
effort
themselves
estimated
kind
commitments
effectively
co@@
compliance
hope
calls
federation
either
physical
ate
job
housing
parts
ro@@
indicated
benefit
israeli
got
intergovernmental
single
*
unicef
emergency
fourth
brought
history
ongoing
soon
entities
sources
supply
di@@
met
require
island
urban
1995
applied
canada
average
revised
half
whose
geneva
seen
oil
sudan
though
personal
middle
57
guidance
charter
investigation
factors
35
finance
week
debt
h
maintenance
v
assets
sessions
core
associated
educational
capacity-building
discussions
demand
substantive
civilian
directly
elections
vote
ch@@
relationship
son
leaders
signed
prior
build
65
ing
distribution
completed
100
55
began
indicators
almost
ed
complete
something
participate
dis@@
station
balance
59
sectors
furthermore
external
technologies
enable
purposes
became
welcomed
really
deal
claim
58
cause
interests
continues
effectiveness
scope
price
takes
1994
unctad
circumstances
citizens
district
en@@
ground
stakeholders
procurement
abuse
elimination
delivery
mind
62
r
officer
collaboration
korea
lower
went
target
created
designed
religious
chief
efficiency
success
western
female
32
am@@
french
submit
61
stability
situations
apply
stage
supporting
discussed
successful
paragraphs
commercial
start
paid
art
france
loss
king
remained
proceedings
billion
64
high-level
developments
units
identify
step
election
addressing
beyond
initial
thought
hold
voluntary
53
chapter
event
recently
function
positions
priorities
likely
peaceful
relation
provisional
senior
markets
receive
industrial
encourage
advice
makes
52
woman
er@@
54
finally
class
practical
audit
vulnerable
33
mother
test
achieving
long-term
reached
growing
63
transition
consensus
ever
18@@
month
creation
comments
34
compensation
iv
enough
al-@@
45
fifth
x
56
net
compared
moreover
night
ti@@
recovery
base
36
've
courts
majority
carry
unep
...
conclusion
secretary
longer
generally
inter
responsibilities
says
germany
on@@
establishing
extent
2@@
3@@
continuing
pacific
alia
challenge
ers
agricultural
raised
territories
4@@
works
unhcr
66
leadership
god
disaster
ra@@
si@@
a.
phase
short
reason
visit
reasons
periodic
is@@
maintain
applications
survey
threat
as@@
economies
solution
cover
mo@@
encouraged
hard
opinion
2015
requires
big
father
move
caused
drugs
appeal
serve
competition
book
summary
terrorist
site
skills
adopt
insurance
1993
39
turn
late
internet
mass
treaties
independence
chair
mainly
agriculture
trial
beginning
at@@
near
border
optional
afghanistan
48
37
debate
clearly
sent
consultation
destruction
migration
parents
heart
congo
doing
es@@
detailed
suggested
written
focused
described
operating
partnerships
launched
seek
northern
ated
fight
covered
leading
australia
judges
concept
product
army
run
feel
century
lives
tax
types
ethnic
tell
earth
se@@
ma@@
round
accountability
improvement
specialized
occupied
electronic
expenditure
read
seven
published
ha@@
actors
top
38
tools
governing
wide
offer
regime
51
reach
iran
displaced
nothing
learning
islamic
defence
temporary
export
ri@@
it@@
conventions
complex
modern
fire
southern
settlement
el@@
avoid
prices
bilateral
aim
usually
welcomes
67
conferences
obligation
bo@@
thing
cuba
concluded
follows
41
scale
aircraft
b.
latin
sound
mexico
minimum
try
caribbean
chemical
content
presence
resulting
plenary
jurisdiction
appreciation
ts
relief
reflected
film
illegal
host
monitor
ac@@
damage
workshop
racial
en
decade
im@@
credit
violation
added
achievement
instead
reduced
th@@
word
invited
prison
49
followed
applicable
sufficient
shown
pressure
instrument
approximately
1@@
42
car
measure
produced
negative
syrian
press
collection
submission
forest
lost
criteria
el
illicit
owing
gave
44
47
started
sex
over@@
useful
approaches
gas
mentioned
true
68
consistent
game
ab@@
sometimes
bureau
won
heard
ic@@
enhanced
or@@
transparency
le@@
safe
duty
accounts
beijing
efficient
sanctions
closely
planned
contact
involving
approval
placed
10@@
exploitation
corruption
marriage
islands
unfpa
ago
registration
con@@
records
payment
entry
46
program
elected
recognition
british
record
implications
ag@@
statistical
foundation
formal
oversight
shows
forced
43
to@@
parliament
indeed
nor
70
welcome
white
told
lot
asian
e-@@
cash
observations
alternative
allowed
guide
component
democracy
causes
uses
te@@
eight
intended
ad@@
increasingly
actual
rest
conflicts
consequences
ministers
risks
campaign
ating
computer
attacks
brazil
enterprises
languages
definition
constitutional
platform
defined
concrete
friends
understand
stressed
capacities
respective
accounting
enhancing
ting
encourages
pakistan
shared
timely
rise
ation
st@@
idea
coming
failure
ngos
reflect
size
follow
sure
played
reducing
determine
fair
prime
saw
extended
membership
waste
determined
donors
preparatory
deployment
eastern
advance
original
rehabilitation
conclusions
sense
difficulties
acting
80
budgetary
decision-making
introduction
entire
subregional
heads
town
workshops
prepare
himself
vienna
regulation
mean
remaining
raise
absence
green
la
unido
solutions
electoral
participated
immediately
street
born
77
marine
lebanon
immediate
1990
un
zone
ho@@
punishment
options
highest
ten
be@@
&
earlier
places
banks
accepted
news
express
values
possibility
fall
actively
highly
opening
released
sub@@
separate
civilians
recruitment
discuss
stop
music
involvement
non-proliferation
ic
influence
17@@
mine
river
built
broad
recalling
z
lord
closed
strengthened
worked
disease
ap@@
enterprise
noting
1992
refugee
thank
combating
emerging
urgent
reviewed
front
pe@@
me@@
behind
appointed
direction
mutual
represented
specifically
fields
announced
representation
degree
consumption
no@@
car@@
ted
secondary
resulted
setting
release
theory
su@@
structures
lo@@
estimates
daily
located
assessments
contains
respond
c.
observer
1.@@
cities
expression
looking
sh@@
urges
engaged
ates
networks
contracts
expertise
produce
15@@
processing
li@@
software
category
charge
accordingly
deep
somalia
hoc
bill
website
inclusion
mr
attack
origin
occupation
egypt
'd
creating
standing
center
learned
floor
wife
college
components
largest
morning
tool
targets
percentage
man@@
documentation
organizational
deputy
committees
urged
ask
killed
black
figure
traffic
outer
girl
everyone
respectively
1991
emphasized
op@@
undertake
crucial
spirit
opened
kosovo
guarantee
alone
teams
so@@
offences
sharing
departments
self-@@
ge@@
holding
users
fuel
judge
investigations
coordinated
go@@
collective
whom
perspective
ready
teaching
faced
he@@
69
90
contributed
observed
le
mandates
reforms
offered
threats
turkey
affect
actually
dealing
courses
findings
weeks
minorities
quite
considering
eu
learn
significantly
emphasis
radio
listed
mar@@
entered
identification
giving
donor
te
database
easy
widely
requirement
decides
subsequent
italy
numbers
recorded
employees
honour
version
assess
vi@@
customs
factor
details
vehicles
bad
ta@@
ar
s-@@
scheme
television
16@@
peacebuilding
province
failed
0@@
unless
inter@@
web
ohchr
cut
highlighted
responses
comes
do@@
75
didn
assistant
grounds
sixth
trends
bi@@
diversity
seems
v.
speaking
surface
kuwait
games
diseases
eyes
existence
felt
imposed
par@@
condition
inspection
rapid
teachers
migrants
completion
lessons
sites
element
german
13@@
selected
w
indonesia
religion
yes
spain
prosecutor
participating
background
trying
interim
x@@
writing
bl@@
congress
candidates
lines
registered
flow
2.@@
em@@
previously
formed
da
pre@@
populations
sought
indicate
simple
online
secure
ratification
stock
ne@@
t-@@
advanced
enjoy
ly
fish
chamber
except
welfare
experiences
tasks
ireland
wall
thematic
po@@
supreme
speak
older
prosecution
eliminate
anything
jobs
numerous
funded
nation
outcomes
categories
ministerial
reconciliation
spoke
summer
vi
subsequently
internationally
cop
engage
gross
examination
aware
granted
namely
interested
outstanding
cycle
integrity
rwanda
nearly
dollars
ni@@
served
everything
etc
amendment
topic
stay
sales
observers
freedoms
14@@
biological
pro@@
facility
limit
substantial
bar@@
instance
ship
inside
complaints
recognize
reproductive
appointment
visits
diplomatic
strength
heavy
zealand
presentation
considerable
cooperate
search
character
consultative
ul@@
disability
ine
exist
add.1
constitute
facing
per@@
theme
palestine
coordinator
settlements
stations
begin
agree
strongly
worldwide
mental
supports
generation
john
alleged
sp@@
preventing
moment
re-@@
species
otherwise
powers
accept
proper
interpretation
examples
tourism
expansion
switzerland
talk
returned
vital
changed
percent
appeals
gu@@
birth
looked
master
qu@@
season
om@@
troops
linked
unable
reintegration
ds
availability
minority
et
inclusive
liberia
confidence
simply
institution
recognizing
emissions
sierra
engagement
identity
ia
authorized
differences
globalization
nine
someone
regulatory
obtain
expenditures
primarily
consent
appear
allegations
combined
seeking
link
extend
characteristics
hands
payments
ter
enter
restrictions
netherlands
race
showed
gaza
plant
principal
la@@
confirmed
maintained
obtained
investments
ous
blood
hear
engineering
trend
nationality
county
targeted
q@@
organs
japanese
decrease
london
village
containing
coverage
inform
amendments
ve@@
inter-agency
amounts
ec@@
norms
quickly
considers
multiple
determination
joined
dispute
statute
maximum
empowerment
choice
attended
hospital
racism
names
add
j
losses
sale
p.m.
league
d.
norway
died
pointed
minutes
ant
eradication
mortality
adaptation
argentina
decide
vision
mis@@
draw
delay
concluding
pension
carrying
ideas
technological
ownership
+
location
=
um
advantage
popular
mu@@
victim
aims
ones
leone
latter
subprogramme
rich
stand
nevertheless
corporate
ol@@
speed
object
verification
flows
transitional
occurred
normal
selection
story
becoming
spanish
tu@@
passed
chemicals
door
updated
unemployment
perhaps
subsidiary
friend
cold
believed
sa@@
dissemination
buildings
th
sign
wanted
variety
paras
commissions
unique
sun
patients
relatively
darfur
protected
award
sports
difference
ps
firm
sentence
co
drafting
changing
option
page
russia
branch
amended
features
partner
vehicle
functioning
internally
supplies
tried
disasters
helped
park
extension
books
frameworks
image
mainstreaming
delivered
ambassador
preliminary
publication
investigate
il@@
3.@@
gap
territorial
happy
male
ations
boys
entity
sustained
paris
du@@
formulation
res
boy
transit
getting
enabling
u.s.
sovereignty
initiated
migrant
britain
endorsed
join
kept
designated
mon@@
encouraging
accused
satellite
coordinating
receiving
ber@@
unodc
cl@@
proportion
spread
meaning
iaea
career
leaving
stress
gives
train
transnational
appears
ilo
oh
ma
penalty
ru@@
ou@@
ba@@
pilot
map
gold
72
ratified
soldiers
ukraine
offence
sustainability
latest
bu@@
voice
sets
trading
truth
reconstruction
figures
transportation
structural
maintaining
ko@@
video
preparing
duties
advancement
prisoners
we@@
digital
managers
represent
governmental
increases
moved
competent
answer
allocation
hi@@
cyprus
realization
y-@@
track
saying
church
contain
expanded
publications
systematic
attempt
protecting
geographical
specified
innovation
productive
incidents
colombia
seem
refer
counter-terrorism
declared
73
testing
raising
turned
pre-@@
reservations
ak@@
fear
ex@@
comply
200
sweden
represents
user
mobile
00
ling
extensive
machine
expenses
neither
achievements
keeping
ch
co-@@
improvements
teacher
reasonable
lebanese
impacts
innovative
reviews
severe
judiciary
believes
thereby
clean
haiti
largely
message
sides
starting
performed
larger
stable
nigeria
managed
student
forests
fighting
buy
running
manage
fine
arising
controls
prohibition
facilitating
moving
gi@@
transactions
equitable
regularly
ah
pending
airport
arrest
exports
fi@@
ocean
star
estimate
yugoslavia
port
ict
e.g.
academic
substances
conservation
box
bearing
presidential
ke@@
lu@@
pursue
71
a-@@
burundi
fulfil
card
launch
76
assessed
scheduled
drawn
ended
recognizes
volume
send
bosnia
reserve
ans
resolve
satisfaction
favour
mi@@
georgia
unesco
hoped
sanitation
via
hour
advocacy
'ivoire
resident
probably
charges
mines
arrested
ethiopia
affecting
contributing
thousands
ms
fell
transparent
liability
links
anti-@@
programming
perform
conventional
grant
trained
des
reality
spent
d-@@
morocco
weight
extremely
cross
attached
identifying
chairperson
title
ver@@
associations
update
74
easily
monetary
reading
côte
forth
binding
choose
allocated
seminar
ci@@
goes
als
pa@@
speakers
temperature
pollution
worth
models
expand
extreme
named
library
abroad
thanks
fiscal
notice
disputes
os
letters
roles
intelligence
bringing
coordinate
thailand
obstacles
monthly
savings
der
focal
directed
id@@
sections
decades
suffering
manager
solidarity
intention
studied
ten@@
hu@@
leader
historical
blue
husband
style
bit
schedule
20@@
arts
asset
78
thinking
enjoyment
kenya
allows
wishes
dangerous
herzegovina
file
85
preventive
explained
command
us@@
club
appeared
for@@
constraints
experienced
id
looks
offers
jointly
covering
fao
recalled
yourself
remote
dead
san
remember
beautiful
distributed
currency
break
oios
out@@
locations
les
bridge
deaths
ton
ahead
bear
cluster
storage
non@@
limits
suffered
examine
bed
opposition
azerbaijan
protocols
reiterated
logistics
married
techniques
ator
speech
se
chile
ter@@
ur@@
square
weather
composition
flight
equity
ir@@
campaigns
her@@
subcommittee
uganda
maritime
playing
hot
safeguards
jerusalem
eat
valuable
demands
6.@@
objects
completely
relative
myanmar
95
decline
cell
capabilities
doesn
explore
ban
guarantees
mining
legitimate
philippines
ded
st
employed
ta
examined
introduce
orders
societies
import
ding
length
indian
serving
sha@@
79
staffing
fl@@
disabled
humanity
intellectual
wind
ness
becomes
burden
transferred
controlled
wrong
check
assigned
expresses
ed@@
guinea
pass
iraqi
methodology
treated
malaysia
comment
facts
grave
indicates
soil
output
saudi
similarly
98
hit
81
permit
continuous
men@@
helping
ce@@
immigration
under@@
aged
reservation
counsel
ministries
programs
fast
tic
adjustment
belief
c.2
constructive
carbon
chance
focusing
e.
npt
demonstrated
anyone
household
cor@@
i.e.
periods
path
broader
proliferation
ks
can@@
authors
purchase
perpetrators
industries
reflects
dignity
watch
seriously
ism
acquisition
gaps
write
sensitive
cancer
austria
wto
save
register
fishing
q
witnesses
consequently
overcome
maternal
arbitrary
contrary
finding
enemy
papers
warning
4.@@
investors
claimed
83
500
players
acceptance
operate
arbitration
imprisonment
1,@@
topics
farmers
vocational
tri@@
gdp
mal@@
prostitution
plants
widespread
transmitted
seminars
ren@@
turkish
impunity
algeria
remedies
replace
phone
dynamic
south-south
win
none
promoted
successfully
talks
i.
anniversary
greatly
involve
0.@@
convened
allowing
conformity
football
invites
double
quarter
hotel
socio-economic
else
formation
functional
auditors
format
grow
99
rising
penal
mandated
dedicated
jordan
post-@@
drive
fixed
mostly
com@@
sky
pattern
violated
gain
movements
ca@@
vulnerability
mobilization
mark
deliver
suitable
charged
utilization
medicine
camp
coherence
picture
toward
index
82
seemed
sa
han@@
outlined
reply
lands
parliamentary
eventually
greatest
deployed
homes
salary
bangladesh
replaced
manual
doctor
assisting
frequently
tv
singapore
occur
84
ons
stocks
brother
attend
insufficient
ice
fa@@
rapidly
87
disposal
manufacturing
spring
gone
300
deeply
balanced
healthy
unity
ka
spending
oral
competitive
input
productivity
97
san@@
knew
desertification
song
br@@
wider
rape
sir
newly
color
tree
municipal
modalities
88
interventions
visited
93
intervention
equally
cedaw
ya
slow
foster
detained
reiterates
the@@
covers
har@@
86
outreach
self-determination
devices
revenue
budgets
belarus
cells
properties
gs
decree
camps
pleased
managing
ph@@
posed
recommend
oc@@
memory
residents
_
min@@
evaluate
nairobi
relevance
consumer
inventory
ldcs
ay@@
pl@@
complainant
gh@@
c.3
est
certainly
91
heat
stone
bound
reliable
bus
hearing
ba
incorporated
poland
monday
vii
powerful
agents
wood
adviser
package
interaction
relationships
sold
drawing
corresponding
s.@@
ke
missing
friday
representing
preparations
washington
telephone
patterns
barriers
unops
ring
households
jo@@
ratio
substance
ste@@
translation
overview
fisheries
faith
businesses
enforced
peru
player
acknowledged
residence
die
conducting
cup
premises
reaching
ge
supervision
mor@@
2016
liaison
ban@@
explain
az@@
doubt
finland
mountain
tion
sri
94
wished
execution
fo@@
92
é
contracting
professor
rose
houses
prohibited
phenomenon
reaffirmed
cd
weak
hall
dealt
li
dark
resumed
sal@@
tr@@
refers
asylum
subjected
stages
deliberations
a.m.
royal
heritage
.1
inadequate
huge
scientists
equivalent
eye
battle
ages
properly
composed
seventh
qualified
ra
s.
89
proved
borders
professionals
invitation
lies
ill
steel
accessible
walk
firms
bar
legally
olympic
observation
crises
calling
danger
fe@@
arrangement
complaint
unrwa
af@@
consolidated
mercury
regards
gen@@
rome
distance
universities
gains
nationals
tests
kinds
revision
incident
resistance
inflation
ist
tenth
detail
liberty
skin
harm
medium
96
degradation
competence
12@@
loans
animals
greek
ships
5.@@
significance
open-ended
customers
eritrea
destroyed
l.@@
projected
wait
mid-@@
friendly
laid
nepal
ngo
ment
stresses
croatia
a.@@
mat@@
realize
organize
assisted
unilateral
integral
re
consists
adopting
moral
exception
drew
micro@@
hair
integrate
envisaged
rejected
labor
lived
sub-@@
suggest
p-3
ties
electric
aviation
p-4
sch@@
lists
embargo
psychological
res@@
km
coastal
alliance
ga@@
cambodia
ve
transmission
solid
injury
explanation
sport
lawyers
ordinary
copy
capable
zones
interior
marked
1989
combination
railway
feet
match
ancient
commerce
whatever
wi@@
biodiversity
negotiation
feature
greece
tomorrow
producing
intolerance
segment
briefing
pu@@
era
commodity
arrived
behaviour
flexible
forums
presents
maybe
begun
undertaking
mitigation
ga
wealth
generated
genocide
chain
dollar
allowance
lay
stood
taiwan
provincial
guatemala
yesterday
winter
happened
device
withdrawal
applying
desire
reportedly
cn.4
ity
remove
serbia
adverse
finds
piece
feeling
suggestions
sing
sts
hundred
owned
czech
daughter
pi@@
window
constitutes
excellent
politics
uk
demonstrate
impossible
pan@@
flexibility
shift
smaller
frequency
tor@@
urge
sr.@@
attempts
secret
understood
grade
banking
journalists
displacement
c.5
collected
myself
financed
under-secretary-general
fees
lose
machinery
considerations
1,000
millions
separation
plays
palestinians
é@@
england
extradition
expect
well-being
wants
na@@
sk@@
wa@@
electricity
devoted
discriminatory
marketing
lasting
ai
comparison
ending
regardless
divided
c.1
belgium
recalls
anti@@
wage
generate
guaranteed
airspace
gra@@
determining
cooperative
awards
convinced
agent
dependent
customer
duration
derived
accurate
welcoming
expanding
facilitation
counter
roma
root
certificate
demobilization
mer@@
meant
venezuela
volunteers
0
nam
up@@
ven@@
carefully
afghan
shot
conclude
denmark
researchers
seeks
store
define
brief
meanwhile
ethics
correct
aspect
grants
di
costa
connected
willing
closer
ing@@
transfers
animal
frame
procedural
ammunition
registry
surveys
commended
constant
requiring
2,@@
shape
lanka
ecuador
bs
kyoto
excellency
post-conflict
david
dog
exists
mode
sorry
pain
sbi
den@@
rio
sovereign
vo@@
subjects
well-@@
organic
fill
overseas
supplement
ite
ai@@
rev.1
korean
tive
spend
ian
wh@@
rock
trans@@
tra@@
ings
denied
schemes
supplementary
acceptable
ordered
>
au@@
hunger
atmosphere
employers
parallel
hazardous
removed
belonging
cruel
shanghai
ku@@
sl@@
high-@@
consolidation
occasion
sleep
famous
violent
citizenship
ies
outputs
continent
baby
strict
presidency
angola
in-@@
2008-2009
stronger
corporation
nutrition
ran
neighbouring
mothers
removal
-based
arabia
sponsors
accident
multi-@@
dream
reviewing
detainees
brain
classification
1988
biennial
acquired
offering
ble
regarded
provinces
um@@
driving
suggests
ob@@
adequately
engine
literacy
ally
customary
commit
california
tuesday
tables
band
founded
gradually
initially
soviet
miss
explosive
cu@@
pr@@
ent
ha
der@@
ball
metal
ben@@
hence
proceed
tribunals
lie
lake
inhuman
clinical
exploration
strip
gonna
handling
renewed
remedy
trees
\
annually
injured
tolerance
australian
1st
channel
thursday
reaffirms
wednesday
depends
sell
reserves
ping
custody
on-@@
killing
coast
description
minor
gender-based
gr@@
requesting
talking
degrading
wrote
ves
cat
ked
refused
delays
witness
kazakhstan
accession
2-@@
evaluations
responded
twice
listen
dry
speaker
ker
non
gets
organizing
signature
instances
gained
sbsta
ative
mm
waiting
technique
measurement
inequality
notably
solar
portugal
filled
renewable
adult
submissions
allegedly
exposure
motion
providers
defenders
discovered
defense
fresh
landlocked
fu@@
drinking
aggression
evening
architecture
parameters
seat
concepts
originally
whereas
negotiating
adjustments
ca
harassment
glass
signing
invasion
couple
yo@@
fit
responding
habitat
ana
driven
collect
adults
formulated
assessing
revealed
facilitated
struggle
isn
vast
analytical
commodities
thousand
armenia
ju@@
drop
perfect
behavior
bel@@
conjunction
signal
capability
instructions
realized
rica
mdgs
detection
memorandum
unfortunately
relate
beings
prospects
und@@
emphasizes
broken
depend
ombudsman
anticipated
eligible
transformation
awareness-raising
depending
filed
un-habitat
euro@@
above-mentioned
normally
apart
dimensions
amounted
italian
transaction
inquiry
ultimately
av@@
distinction
entering
ters
applies
voting
ordinance
solve
dimension
academy
150
movie
vacancy
seats
proof
2nd
canadian
tanzania
reflecting
valid
air@@
2010-2011
consultants
cal@@
..
accountable
atomic
persistent
invite
suffer
alternatives
incentives
120
ninth
granting
resolved
doha
estate
malaria
accompanied
unions
closing
linkages
introducing
votes
xenophobia
awarded
ach@@
villages
deemed
judgement
obama
short-term
advances
war@@
waters
leaves
system-wide
compulsory
au
bottom
ran@@
terrorists
elderly
guiding
citizen
upper
sister
mandatory
harmful
gef
museum
wastes
ratify
guard
transmitting
uncitral
tons
underlying
28@@
na
ser@@
transmit
ger@@
headed
cur@@
difficulty
ard
route
limitations
replacement
1-@@
mediation
prove
hopes
massive
sc@@
pregnancy
contemporary
grand
repatriation
revolution
ac
involves
3-@@
restricted
loan
ghana
advantages
mention
va
block
mali
tions
gar@@
cr@@
secured
merely
juvenile
classes
sin@@
tend
2006-2007
grateful
client
senegal
mrs.
coherent
americans
notification
ty@@
balances
pregnant
putting
contrast
thy
falling
ish
signs
expectations
stars
reaction
happen
showing
heavily
harmonization
e.@@
biggest
circulated
sort
causing
typically
census
iron
hundreds
ce
eighth
roads
shares
environmentally
weapon
rain
accommodation
comprising
attributable
bro@@
mixed
sat
entirely
certification
dr.
cultures
boat
bur@@
self
layer
turning
gate
references
col@@
genuine
tan@@
inputs
mouth
wfp
.2
candidate
radiation
3,@@
literature
interactive
kill
liabilities
ley
ins
medium-term
pertaining
pal@@
cast
pursued
extrabudgetary
incorporate
bush
excessive
mobility
lawyer
crc
investigated
wear
fer@@
prisons
fraud
patient
uruguay
tunisia
1990s
da@@
7-@@
truly
so-called
constituted
ators
claimant
hospitals
decreased
exclusion
planet
dates
consumers
indicator
pages
relates
sis
afternoon
00@@
expressing
400
2017
od@@
films
clothes
saint
holy
chosen
pace
cars
necessity
appearance
ty
cards
incurred
je@@
helps
escap
themes
chad
ko
necessarily
restructuring
hosted
ses
diverse
strike
orientation
romania
ss
oecd
trials
acid
minute
drink
contractual
inter-@@
commander
count
27@@
focuses
5-@@
ze
ong
rice
tin@@
drought
meaningful
os@@
oda
accelerate
stands
assumed
rent
respected
ence
shop
ari@@
ie
lastly
slightly
hrc
hungary
}
guided
{
george
iz@@
prosecutors
contents
pool
rec@@
ster
wave
ageing
ance
measured
reaffirming
val@@
foot
ki@@
ati@@
clients
operative
genetic
syria
organ
29@@
contacts
copies
qatar
elsewhere
tes
evolution
adolescents
cre@@
permitted
quantity
sum
leads
fired
emphasize
plane
error
nice
warm
ful
macroeconomic
ff
finished
ina
ye@@
careful
arise
all@@
fruit
moon
sit
bolivia
assume
2004-2005
hill
sed
gun
coalition
del@@
images
knows
historic
observe
describe
imports
issuance
libyan
economics
pen@@
scene
ff@@
returns
sentenced
consequence
manufacture
ver
receipt
09
employee
coal
wing
sect
ali
opinions
pol@@
servants
absolute
super@@
factory
trouble
whenever
reductions
heading
&#124;
occupying
possession
unto
comparative
wages
montreal
targeting
sw@@
survival
year-old
algorithm
shelter
ir
exchanges
progressive
suspected
grown
serves
happiness
subparagraph
corr.1
paying
sur@@
curriculum
earthquake
ali@@
governor
interview
threatened
holders
multi@@
storm
repair
24@@
usd
competitiveness
murder
remarks
director-general
lan@@
attitude
handle
ale
display
ur
analyses
consistently
afraid
ped
surveillance
unlawful
ak
ys
vessels
declarations
declined
obvious
besides
fail
soft
taxes
texts
disappearance
driver
interesting
holds
mc@@
ye
2012-2013
ly@@
garden
clearance
sen@@
treat
19@@
salvador
plus
repeated
festival
quick
ang@@
ized
directors
mobilize
im
beneficiaries
miles
viii
attitudes
falls
firearms
www.@@
lin@@
health-care
counselling
fdi
stopped
yemen
exactly
ok
continuation
steering
channels
sentences
michael
nuclear-weapon-free
possibly
replies
deprived
modified
dec@@
enabled
fin@@
freely
ipsas
referendum
ol
brown
f.
dropped
tour
directorate
il
laboratory
preserve
ics
officially
prosperity
breach
propose
discharge
restoration
discipline
experiment
operated
districts
employer
delayed
zero
imf
herself
mutually
hor@@
yeah
kar@@
clarification
opposed
worst
argument
trip
o-@@
cabinet
extra
er-@@
closure
addresses
600
et@@
uzbekistan
enhancement
g-@@
eliminating
integrating
infection
elaboration
formulate
exposed
ess
generations
easier
concentration
proceeds
bra@@
work@@
#
forget
--@@
commonly
mongolia
tar@@
makers
olympics
c-@@
occasions
faces
characters
van
bio@@
measuring
grew
ne
disseminate
abuses
bal@@
false
characterized
twenty-first
automatic
electrical
hy@@
logistical
uniform
roman
eradicate
catholic
viet
fashion
mauritius
fr@@
ceasefire
referring
adding
appreciate
mainstream
portion
complement
ality
christian
unifil
colonial
profile
sight
inhabitants
stories
files
tor
surrounding
complexity
owners
contractors
telecommunications
sectoral
salaries
calendar
rely
yuan
emerged
decolonization
cameroon
05
alization
muslim
sol@@
sta@@
nicaragua
performing
strictly
7.@@
journal
cross-border
oriented
organisation
liberalization
occupational
08
offset
ill-treatment
ourselves
clarify
screen
basel
01
caught
childhood
105
one-@@
subsidies
5,000
expulsion
suppression
partly
tom
suppliers
ts@@
unknown
convening
4,@@
p-5
creative
sciences
messages
convicted
coffee
1980
ler
orally
xi
ars
tracking
6-@@
regimes
worse
credibility
suggestion
autonomous
low-@@
potentially
retirement
outline
conversion
ki
momentum
boundary
missile
ying
ner
noise
cs
ceremony
spot
1967
my@@
calculated
flag
selling
confidence-building
monuc
delegates
analyzed
associate
formally
3rd
conducive
conviction
doctors
existed
translated
windows
cam@@
approve
penalties
250
ent@@
objection
arabic
securities
000
don@@
eg@@
tea
newspaper
restore
suddenly
corporations
acute
prevented
wine
end@@
gl@@
distinct
mail
jamaica
virus
computers
viewed
ously
1986
mainland
-related
twentieth
brings
mary
reinforce
k-@@
fewer
extraordinary
occurs
sons
atlantic
ix
nuclear-weapon
promise
commonwealth
novel
milk
cy@@
decent
feedback
st.
ka@@
peter
sample
beauty
consisting
ev@@
chap
ig@@
seized
select
maternity
municipalities
07
guinea-bissau
administrator
indicating
two-@@
arm
cutting
emission
ments
cas@@
likewise
additionally
suspended
visitors
che@@
ip@@
06
recall
magazine
to-@@
110
firmly
unifem
boards
injuries
organisations
ends
pieces
insecurity
obtaining
flying
101
complementary
seeing
spare
intensive
partial
by@@
prevalence
undermine
immunity
expensive
nepad
timor-leste
tur@@
underlined
disclosure
disciplinary
°
studying
stabilization
enormous
ists
ft
pose
9.@@
facto
accomplishments
systematically
forthcoming
paul
touch
worker
results-based
weekly
monitored
pa
saving
disadvantaged
ary
liquid
severely
runs
formula
acquire
methodologies
retained
slowly
prejudice
destination
descent
intensify
cargo
dance
des@@
flowers
tropical
experimental
engaging
sick
argued
aside
ws
producers
native
presentations
highlight
dinner
instruction
impose
audience
appointments
briefings
fulfilment
forestry
m.
bay
thou
delivering
recruited
motor
mel@@
tel
wa
4-@@
codes
guy
sufficiently
tangible
ore
retain
berg
apparent
gan@@
reiterate
workplace
participatory
pri@@
sunday
bright
liberation
ash@@
offenders
passing
sm@@
sphere
handed
owner
montenegro
burkina
escape
pretty
emergencies
queen
ls
ecosystem
favourable
hol@@
bought
in-depth
perspectives
ruling
200@@
faso
cn.9
profit
jesus
describes
diagnosis
interface
of@@
equipped
okay
tested
oceans
ry
assignment
smooth
geographic
slovenia
chi@@
cuban
sam@@
catch
unlike
enrolment
frequent
tensions
imperative
load
zambia
ors
2018
tackle
willingness
maintains
8.@@
bird
libya
questionnaire
concerted
102
collaborative
ger
visible
accuracy
shi@@
metres
explicitly
deals
pe
non-discrimination
ecosystems
cap@@
attract
substantially
za
analyse
ultimate
bo
interference
ideal
printing
enjoyed
unmik
wild
shortly
confirm
comprises
farm
1987
peak
pursuit
sole
characteristic
defining
haven
indirect
plastic
crops
satisfied
returning
brand
branches
mountains
damaged
accessibility
attendance
uc@@
shipping
christmas
edge
smuggling
mil@@
typical
authorization
feasible
suit
mac@@
unamid
globally
repeatedly
greenhouse
broke
ibid
los
towns
excluded
rare
faster
ud@@
soul
guilty
horse
dra@@
durable
appropriation
2,000
divisions
subregion
installation
straight
encountered
ming
sitting
credible
deadline
slavery
hal@@
thereof
therapy
residential
settled
insolvency
drafted
ji@@
1985
1.2
establishes
p.@@
annexes
prompt
preparedness
dy
ecological
á@@
d.@@
prince
profits
exclusive
lady
degrees
feed
tradition
safeguard
definitions
un-women
ung
separated
ji
assurance
cited
james
affects
secondly
arrival
sen
prize
pursuing
compilation
e-mail
benefited
recording
establishments
servicing
fre@@
swiss
wal@@
births
eating
munitions
suspension
exercises
sponsored
adjusted
narcotic
parent
consult
considerably
continental
fee
writer
asean
initiate
wang
ay
exceptional
permits
sel@@
ing-@@
large-scale
wan@@
excess
troop-contributing
ged
ology
appoint
budgeting
finalized
tro@@
publicly
reimbursement
alized
intends
pleasure
minors
den
mechanical
rescue
silver
1982
accounted
enshrined
money-laundering
tajikistan
administered
couldn
communicate
birds
kh@@
calculation
ned
30@@
dar@@
gathered
feasibility
consolidate
hole
bulgaria
attempted
111
amend
ze@@
boss
limitation
dp
vary
possibilities
executed
fly
bol@@
simulation
fccc
que
administering
4th
103
yellow
yu@@
800
reaffirm
meat
cc@@
sharp
ford
tension
dic@@
launching
viable
sar@@
licence
fed
ges
humans
usual
incidence
valley
acted
spite
notwithstanding
asking
nu@@
dress
cross-@@
win@@
ata
poly@@
anti-personnel
exceed
broadcast
deposit
hom@@
whereby
applicant
passengers
tin
demographic
chronic
colleagues
iranian
mag@@
domain
termination
ang
foundations
pick
satisfactory
zimbabwe
du
adapt
char@@
advancing
precise
admission
11@@
8-@@
mount
envoy
jack
vice
advisers
bri@@
merits
aw@@
essentially
visiting
preservation
ize
desk
continuity
panama
ti
judgment
hel@@
sub-item
back@@
policymakers
ats
02
gratitude
fun
fostering
privacy
compromise
abortion
capita
buyer
holiday
constantly
appreciated
ns
stockholm
leg
auspices
sive
negotiated
classified
enacted
wise
prosecute
mitigate
steady
an-@@
resort
ches
row
euro
accidents
perceived
sheet
replied
therein
exclusively
thereto
130
g.
1.5
dr
eu@@
ill@@
eleventh
afford
stipulated
9,@@
promptly
cul@@
durban
bon@@
convene
troop
promotes
entrusted
workload
albania
regrets
enforce
finish
harmonized
marginalized
separately
rooms
mozambique
raw
104
contingent
gulf
remuneration
prevailing
ation@@
seas
affordable
accord
ise
clothing
si
woods
instability
captain
automatically
invest
ja
summarized
colour
revenues
100,000
timor
synergies
confident
consistency
tre@@
robust
victory
beneficial
kilometres
somali
advertising
twenty
els
asia-pacific
contractor
sahara
complicated
ham@@
infant
uncertainty
sion
environments
23@@
urgently
partially
2002-2003
designing
deprivation
lithuania
mas@@
opposite
print
chaired
ensured
taught
inner
extending
depth
gn@@
onto
1.1
readiness
fellow
5th
gathering
statutory
unmil
brothers
contributes
duplication
navigation
nonetheless
admitted
bas@@
smith
networking
supposed
ish@@
utilized
installed
innocent
kg
surplus
ery
gift
upgrading
crossing
thorough
highlights
wan
deficit
capture
bor@@
106
autonomy
prescribed
server
realistic
illness
begins
communist
idb.@@
plate
younger
relatives
sustain
108
lee
resume
unprecedented
narrow
friendship
thereon
add.@@
mediterranean
ass@@
ll
regret
feelings
benin
condemned
25@@
smart
,0@@
advocate
poorest
lift
punish
wasn
corner
fat
everybody
withdraw
10,000
ash
pillars
post@@
socialist
virtual
hostilities
ines
proposes
rental
slovakia
solely
yield
ham
departure
minimize
reverse
urgency
han
evil
assurances
phases
breaking
submits
divorce
kin@@
kids
senate
prominent
i-@@
normative
helpful
cape
orbit
mi
clause
unoci
7,@@
circuit
04
visual
busy
phrase
non-aligned
snow
golden
dutch
unified
pc
carrier
succeed
ching
updating
5,@@
attacked
emirates
lesson
ning
macedonia
fallen
107
6,@@
prohibit
secretarygeneral
115
cra@@
indication
legitimacy
passage
ov
tis
cross-cutting
attributed
regulated
post-2015
choices
moscow
ethical
documented
transboundary
chart
continuously
tower
ade
tel@@
settings
meets
c.@@
obliged
push
hate
wil@@
rendered
alcohol
streets
pledges
compact
struck
livelihoods
dear
lakes
sil@@
dan@@
fissile
somewhat
broadcasting
regulate
controlling
mid@@
ny
evident
tobacco
eca
robert
spoken
1978
fate
multi-year
sor@@
alize
damages
subsistence
harmony
governed
26@@
proven
sco@@
cuts
redress
comparable
unemployed
skill
pin@@
2.5
tic@@
assumption
distinguished
recipient
commentary
permission
fulfilling
theoretical
constructed
ah@@
aries
challenging
ece
inspectors
9-@@
ites
hydro@@
defend
walking
ved
pupils
mad@@
p-@@
osce
economically
reflection
usage
lam@@
pornography
fault
appraisal
module
securing
advise
dont
justified
portfolio
epidemic
william
album
listing
seller
obviously
tam@@
borne
beat
ensures
sweet
bi
processed
112
moldova
dr@@
cultivation
ot@@
hurt
traditionally
ep@@
nominated
restaurant
roll
03
advised
ical
2.1
baseline
elaborate
ecowas
simultaneously
emphasizing
ex
vice-president
1980s
curricula
highway
ched
apple
songs
wars
operators
u.
far@@
sending
collecting
observance
interviews
bat@@
politicians
thoughts
sions
stressing
tokyo
vel@@
salt
prefer
females
indispensable
star@@
column
tion@@
1,0@@
anti-corruption
efficiently
foreigners
malta
three-@@
philosophy
arguments
councils
voters
endeavour
ically
drivers
familiar
hague
tenure
kuwaiti
tal@@
3,000
compound
traditions
bond
suicide
profound
rapporteurs
declare
1981
adherence
ational
disaggregated
immigrants
temple
smoking
down@@
lowest
investigating
chambers
validity
generating
boost
tank
mur@@
refrain
swedish
conf.@@
admissibility
charles
formulating
qualifications
acknowledge
impartial
ky
rail
worry
arrive
unccd
8,@@
din@@
redeployment
notion
journey
destroy
pledged
radioactive
concentrated
nor@@
gri@@
sugar
submitting
allocate
mere
identical
hardly
loved
taliban
abolition
1984
109
fax
resolving
depression
114
debris
religions
protective
teach
exhibition
stereotypes
unlikely
pair
furniture
wouldn
edition
ease
loc@@
cap
smile
specify
budgeted
coordinators
skilled
hr
locally
synthesis
bases
preceding
personality
totally
credentials
patrol
debates
j.
volunteer
certificates
dominican
.3
116
stick
answered
she@@
inherent
pressing
vessel
voted
forming
earnings
inequalities
ec
criticism
painting
predictable
toxic
tw@@
databases
preferred
non-state
sy
logical
pur@@
apparently
bre@@
ot
jewish
verify
flat
missiles
assure
twelfth
desirable
flights
lots
í@@
cat@@
nato
winning
examining
thin
700
stating
decentralization
thesis
executions
6th
hey
dri@@
telling
ae
piracy
presidents
ada
attending
screening
pic@@
zed
bid
sc
smoke
confidential
assault
alism
kan@@
introduces
releases
peer
losing
thereafter
113
actor
aliens
practitioners
namibia
smes
chan@@
ports
angle
com
interpreted
wisdom
water@@
supportive
140
ret@@
1973
empire
passenger
proceeding
sy@@
2.2
combatants
negotiate
cro@@
tonight
wonder
treasury
placement
undertook
st-@@
dad
undcp
del
creates
arranged
walls
blind
samples
tors
watching
visa
fairly
crop
diamond
mit@@
bonds
ori@@
1979
de-@@
equ@@
ple@@
gro@@
chen
reinforced
placing
vic@@
utmost
por@@
pat@@
ces
circular
captured
applicants
south-east
configuration
are@@
bis
shopping
ani
l-@@
till
gm
survivors
gran@@
alive
nan@@
fa
sto@@
medicines
earned
circle
bahrain
latvia
happens
i.@@
silence
analysed
congolese
fleet
bin
dor@@
heaven
madrid
sho@@
explicit
bangkok
ment@@
mineral
discussing
marks
threshold
municipality
sub-commission
disappearances
wearing
van@@
ville
reliability
valuation
cost-effective
ably
tics
platforms
dust
forever
head@@
jamahiriya
yugoslav
pillar
ization
fil@@
nearby
-up
circulation
empty
p.m
reinforcing
em
honduras
saturday
outset
marry
exceptions
ase
desired
five-year
turns
ane
fied
density
inspections
diversification
ens
ozone
directions
usa
lending
cool
cypriot
everywhere
expense
spectrum
emotional
experiments
fragile
sun@@
ken@@
radi@@
settle
exact
machines
executives
landscape
gam@@
hardware
mistake
monterrey
killings
obstacle
thanked
unpaid
briefly
ess@@
guideline
top@@
evaluating
118
aspirations
sub-saharan
evaluated
workforce
utility
10.@@
proud
diet
abandoned
demonstration
licensing
125
rel@@
atory
122
brussels
kyrgyzstan
nongovernmental
1949
verbale
calm
117
adapted
rarely
ging
retention
breakdown
taste
quantitative
graduate
embassy
bag
influenced
ward
iceland
mix
ie@@
med
gen
sixtieth
twelve
bul@@
succession
ell@@
cen@@
structured
wounded
nobody
7th
championship
magnitude
wake
receives
hi
realities
alien
long-@@
mer
puerto
ders
quiet
mobilizing
arbitral
navy
crew
walked
mapping
ara
elaborated
ranging
community-based
resilience
versions
excluding
h.
0-@@
2000-2001
valued
enables
contingent-owned
tom@@
pictures
shoes
non-self-governing
jurisprudence
amounting
imported
reputation
fiji
clo@@
ster@@
stream
ised
optimal
1.3
posted
venture
deposits
surgery
yang
zo@@
paraguay
residual
thee
http
ought
unacceptable
dam@@
212
contingency
estonia
accommodate
surprise
participant
answers
martin
virtually
900
duly
weekend
logic
accelerated
tuberculosis
trump
payable
jiu
possess
excuse
niger
rotation
burning
hen@@
2020
height
pure
junior
accreditation
sees
10-@@
joy
1373
wherever
witnessed
hosting
ass
panels
ja@@
isolated
publishing
shortage
crowd
0,000
ey
str@@
160
allocations
justify
printed
consist
neutral
collapse
casualties
attorney
dc
hand@@
luxembourg
hatred
talent
bone
farming
ski
summits
henry
bou@@
aligned
announcement
evolving
exercised
camera
specialists
mankind
12.@@
magnetic
sand
adjust
po
genital
ltd
lao
supplied
withdrawn
resettlement
escwa
investigative
routes
testimony
tendency
jurisdictions
ber
vol@@
2014-2015
discovery
vol
deterioration
theatre
malnutrition
renewal
static
commenced
istic
rank
upcoming
lit@@
matrix
campus
haitian
symbol
beach
ica
politically
modernization
low-income
sounds
promised
earliest
gather
refusal
allowances
succeeded
justification
maximize
strange
cc
disappeared
motivated
cease
routine
satellites
benchmarks
buying
entrepreneurship
1983
explosives
stores
bin@@
appropriately
djibouti
land@@
jan@@
militia
accomplished
denial
avoiding
isolation
investing
tired
imagine
180
parental
bil@@
exit
bc
0,@@
119
sincere
detect
assured
congratulate
default
wed
terminal
8th
incorporating
ama
11.@@
entertainment
acknowledges
divide
protein
enquiry
creditors
giant
belong
underscored
all-@@
honor
cm
southeast
tall
intensity
dual
lab@@
independently
operates
shan
thomas
birthday
decisive
ef@@
counterparts
acknowledging
moves
managerial
sad
notable
scenario
stipulates
superior
diplomacy
appealed
foods
broadly
males
audits
entrepreneurs
wording
sensing
intensified
lock
unmis
consultant
split
attractive
linking
ap
holistic
dly
1974
ruled
subcommission
inf@@
hum@@
aforementioned
alo@@
puts
spokesman
entrance
.4
1970
guess
starts
fulfilled
ton@@
alist
m-@@
infected
islam
registrar
virtue
9th
standardized
ann@@
frank
incorporation
spiritual
dynamics
institutes
certified
intent
tribute
newspapers
dismissed
^
remarkable
score
sin
briefed
disparities
form@@
waves
alizing
turkmenistan
confirmation
polish
specialist
click
updates
argues
carries
leg@@
shipment
refuse
sti@@
pensions
ities
formerly
beliefs
strive
rap@@
quantities
marriages
ants
togo
coordinates
joseph
h.e.
gravity
roughly
timing
sted
dy@@
absolutely
ho
ain
mom
clarified
lacking
nationally
agrees
retired
fertility
gor@@
linguistic
shelf
123
chi
red@@
teeth
comprise
plan@@
circled
dogs
tie
corrections
pull
accorded
faculty
conversation
ticket
danish
copenhagen
cry
privileges
emperor
intersessional
diamonds
satisfy
courage
ratifying
aren
upgrade
controller
emergence
profession
ano
le-@@
non-compliance
utilize
freight
ker@@
stan@@
ving
liable
som@@
mes@@
lat@@
recover
ely
exercising
121
alongside
centers
irrespective
palace
seed
thirteenth
ri
sexually
optical
40@@
limiting
p-2
shortcomings
variable
abstentions
regulating
lights
commends
liechtenstein
malawi
saved
shut
ram@@
2.3
inadmissible
son@@
failing
1975
vertical
minustah
ath@@
feels
pres@@
ron
johannesburg
dynasty
issuing
mutilation
civilizations
wonderful
ths
xi@@
symptoms
stra@@
punished
cleaning
remind
ambitious
freeze
vacancies
cable
boundaries
glad
aging
artificial
gene
tourist
angry
wedding
basketball
hearings
archives
kes
presenting
corporal
recession
dreams
shadow
golan
imposition
manifestations
sequence
physics
unnecessary
stuff
intense
guns
substitute
kam@@
produces
nam@@
poses
weaknesses
lar@@
abilities
50@@
squ@@
harry
herewith
marking
offensive
violate
reserved
n-@@
naval
coach
pul@@
defines
@
deleted
hidden
explored
warrant
varied
and@@
concludes
examinations
disseminated
lin
perception
terror
coat
inalienable
unaids
cn@@
modules
tears
rough
baghdad
sudden
spouse
taxation
stem
supplier
amisom
commencement
green@@
holder
cotton
hr@@
custom
purchased
3.1
countering
threaten
unusual
nationwide
petroleum
transform
stamp
cope
knowing
stri@@
fy
gun@@
experiencing
dramatic
feeding
developmental
.5
timetable
samoa
resumption
botswana
clock
clarity
proactive
solving
precisely
stored
autumn
50,000
ao
attain
sim@@
guys
guards
questioned
zi@@
bills
license
realizing
array
discusses
photo
artists
bolivarian
draws
silent
inter-american
claimants
hyper@@
infections
4,000
a.m
appendix
irregular
brazilian
sponsoring
oau
1971
converted
ro
chapters
meal
underground
ü@@
switch
consulting
prosecuted
1977
attainment
gre@@
3.2
shaped
corps
guaranteeing
prohibits
essence
compatible
modest
likes
mayor
spouses
shock
bulk
124
basin
cloud
bomb
sudanese
ow@@
landmines
christ
ken
ride
eliminated
rocket
naturally
cook
flo@@
terrible
sr@@
fore@@
mol@@
laser
1972
avoided
fs
hang
aiming
bread
errors
listening
roster
wondered
d-1
bles
grass
rac@@
spheres
exploring
f-@@
richard
ala
intimidation
grain
quarterly
tanks
138
full-time
adolescent
heating
prolonged
hell
impartiality
153
ek
recovered
thermal
livelihood
prospect
qualification
gradual
seconds
argue
tly
tt@@
zhou
earn
fiftieth
photo@@
declining
alignment
tim@@
fire@@
portuguese
preference
saint-@@
.6
rs
reveal
chemistry
completing
systemic
urbanization
ire
cairo
128
induced
shoulder
landing
incentive
dro@@
forecast
pers
clubs
convey
promising
eli@@
programmatic
collectively
20th
adds
counter@@
magic
revitalization
shooting
op
ese
vietnam
chains
wet
handled
restored
temporarily
nineteenth
parliamentarians
pho@@
linear
dou@@
acceded
td
portal
prohibiting
stro@@
wishing
outlook
eclac
tied
intend
purchasing
anger
surely
madagascar
universe
nursing
breast
dependence
egyptian
peninsula
tender
bigger
discretion
misconduct
segments
secretariats
shell
directive
cessation
socially
muslims
neighbours
1976
monitors
peace-keeping
incumbent
everyday
fan
add.2
passport
sec@@
rational
three-year
comfortable
operator
assumptions
civic
reg@@
t.
gy
pt@@
barbados
occurring
lunch
yl@@
6,000
dominant
republican
132
consulted
indirectly
unfccc
ab
mus@@
halt
centuries
colleges
chose
educated
kin
aff@@
cooperating
defeat
hon@@
cel@@
signals
survive
debtor
pon@@
eng@@
protest
patrols
criterion
ited
visibility
precision
alleviation
modification
wire
joining
maps
wor@@
sia
lifting
retail
liberal
fro@@
hazard
removing
tells
neck
stimulate
hil@@
blocks
checks
zz@@
uni@@
zing
135
throw
filling
defendant
render
proceeded
qualitative
revise
unanimously
rights-based
creditor
cdm
compounds
detected
134
projections
wp.@@
universality
preambular
laundering
expedite
revolutionary
honest
inspired
meters
extrajudicial
126
favorite
incomes
objections
expects
imo
t.@@
sensitivity
1540
gal@@
analysing
attracted
eggs
enactment
ky@@
spatial
differential
inheritance
pro-@@
reception
sake
promulgated
reminded
middle-income
ceb
americas
fur@@
artist
hygiene
manufacturers
ry@@
websites
restrict
exhausted
gases
half-@@
kitchen
ron@@
ci
maldives
compare
florida
182
izing
affirmed
designation
successor
container
libraries
conscious
translate
uh
supervisory
pop@@
civilization
nose
steadily
fails
responsive
swimming
b-@@
chairs
chicago
restriction
burn
compete
multinational
relocation
fans
forensic
email
exceeded
under-@@
pour
kim
tube
venue
google
3.5
127
producer
icrc
conceptual
soldier
arrange
positively
che
pollutants
revisions
sid@@
asi@@
flower
reparation
ile
nuclear-test-ban
bran@@
livestock
you@@
addis
rev@@
ine@@
keeps
imp@@
supporters
ach
acy
ignored
classical
atic
inability
deny
uphold
barrier
concentrate
designs
super
engineer
fathers
lease
exceeding
1970s
b.@@
yan
doctrine
conscience
roof
abolished
shelters
explains
jan
tight
phones
tical
returnees
artistic
tennis
dominated
publish
founding
ours
berlin
crown
installations
legs
varying
zhang
ads
powder
electro@@
exemption
2.4
mul@@
black@@
1.4
norwegian
inventories
rou@@
ababa
ex-@@
fication
bretton
invested
observatory
mp@@
tiny
receivable
ric@@
pressures
ny@@
tough
part-time
consisted
un-@@
tongue
incompatible
meantime
cho@@
elect
ion
trains
favor
solved
mexican
dangers
3.3
aggregate
eligibility
fran@@
thinks
til@@
connections
fifty-seventh
1960
thick
convenient
warming
th-@@
dan
expressions
wheel
counter-@@
dun@@
pel@@
tribal
implies
nomination
nat@@
comprised
horizontal
graduates
adversely
parking
pra@@
warned
addendum
io
thirty
ular
string
thoroughly
commend
tering
stones
istanbul
tai
indicative
inconsistent
blow
mauritania
mistakes
ok@@
uranium
hk
scholars
protests
variance
alternate
bus@@
readily
suspect
att@@
confidentiality
deferred
fighters
individually
recourse
ain@@
writers
coupled
tone
19th
picked
hurricane
tracks
desert
hur@@
kers
medium-sized
memorial
pertinent
liquidation
nes
restrictive
demonstrates
illiteracy
c.4
methyl
expressly
accurately
demonstrations
repeat
shu@@
somebody
unclear
1961
rolling
1969
lim@@
racist
anywhere
169
contexts
129
ita
phenomena
133
differ
flood
hazards
small-scale
hat
highlighting
ben
ingly
currencies
spo@@
jump
adhere
handbook
instalment
guest
conservative
communicated
accede
perpetrated
fifteenth
clinics
alike
ering
accumulation
challenged
empower
guyana
packages
rwandan
cerd
owed
ranks
cooperatives
legislature
disclosed
vin@@
alists
fifty-ninth
belt
theories
ther@@
couples
earmarked
surprised
cle@@
ear@@
fies
vis@@
fifty
fifty-eighth
marital
guests
punishable
respondents
tissue
connect
off@@
pm
caricom
recipients
clusters
fears
log
apartment
amongst
endeavours
miscellaneous
spaces
engineers
stadium
respects
featured
hostile
margin
amnesty
seeds
appropriations
sul@@
suspects
yi
pt
fal@@
legacy
commented
yard
vendors
artillery
liberian
pipe
radical
symposium
fac@@
musical
bad@@
alleviate
combine
60@@
aboriginal
airlines
deploy
rivers
20,000
bled
hide
analyze
liu
lucky
provider
frozen
workplan
deeper
immunities
mathematics
.7
worship
incitement
net@@
persistence
demanded
moratorium
141
accredited
hat@@
dle
microsoft
~
policymaking
vacant
verified
respecting
tru@@
devastating
fluid
vers
assistants
attempting
15-@@
evolved
quota
annexed
new@@
oms
fled
gates
treating
personally
unitar
elementary
decentralized
plain
occurrence
worthy
moderate
pos@@
pride
cer@@
demining
clearing
gy@@
trainers
concert
rebel
inf
prerequisite
seekers
kal@@
rid
stayed
underlines
composite
generous
hear@@
audio
methodological
om
dna
break@@
bhutan
single-@@
renew
gener@@
.the
.8
pops
lo
onic
schooling
ii.@@
ceiling
deficiencies
luck
globe
yan@@
accelerating
committing
countermeasures
credits
may@@
lifetime
episode
microfinance
impression
settlers
ö@@
commence
gear
dish
sp
ade@@
farms
quarters
risen
tremendous
threatening
，
semi-@@
filing
12-@@
145
soci@@
debts
nominations
invoked
servant
fying
helicopter
chin@@
introductory
flu@@
blo@@
rejection
tickets
131
1998-1999
disseminating
entail
truck
4.1
activists
prosecutions
amending
trinidad
cheap
extraction
gibraltar
modify
contest
tokelau
wash
k.
rating
anti
cp@@
nlb
ological
confiscation
rico
align
rounds
rubber
lying
tragic
co-operation
deliberate
blame
pulled
scotland
singer
harmonize
hired
8,000
abu
claiming
cmp
mood
patent
gaining
wu
sar
syndrome
high-quality
tal
ac.@@
excellence
fon@@
recycling
ture
155
aqu@@
arrears
particles
auto@@
shells
oxygen
computing
hk@@
attaches
p.
person@@
selective
pledge
4.2
lac@@
metals
precious
wo@@
meter
hardship
reconnaissance
unficyp
avenue
periodically
fc
preserving
r.
buried
mam@@
chil@@
competing
lets
peacekeepers
tag@@
139
shi
basically
first-@@
violating
raises
136
delete
olo@@
backed
jam@@
rer
investigators
merit
holidays
interregional
al-qaida
parliaments
designate
helicopters
sem@@
33@@
fought
wn
notified
reliance
fan@@
tackling
1951
download
consolidating
wrongful
copper
manufactured
ón
rotterdam
tends
esa
remainder
belongs
mogadishu
tail
compiled
cancellation
ray
texas
if@@
leaf
long@@
py@@
authorize
promises
abide
hybrid
awaiting
by-@@
cst
postponed
injection
celebrate
ell
trace
advocates
filter
minimal
chicken
had@@
correspondence
aggressive
volatile
strain
umoja
sixteenth
af
chances
fel@@
generic
inception
ceased
approached
arch@@
arrests
ink
sheets
talked
ivorian
stolen
neglect
socioeconomic
attach
editor
unu
arose
ballot
erosion
singing
displayed
noticed
harder
liver
strikes
wit@@
princess
recosting
commissioned
virgin
sixty-first
mann
distinguish
winner
199@@
castle
kon@@
su
exclude
predecessor
tol@@
voltage
paint
explosion
fuels
cp.@@
cooking
gc.@@
long-standing
micro-@@
1945
no-@@
overwhelming
dying
play@@
dies
hire
lion
les@@
lifted
accepting
graduation
intermediate
consciousness
ong@@
fun@@
freezing
ner@@
physically
titles
tonnes
day@@
162
irish
remnants
spar@@
medal
ck
hard@@
tragedy
papua
sha
consecutive
costly
hou@@
stake
cri@@
142
suppress
aftermath
ole
tens
vegetables
tobago
c.6
watched
37@@
maj@@
shocks
l.
twenty-third
tsunami
critics
industrialized
ney
recurrent
adjacent
mixture
med@@
137
cycles
gon@@
varies
pandemic
roots
dal@@
referral
advocated
drama
safeguarding
bottle
delegate
accomplish
timber
seventeenth
ari
guam
organised
confined
pit@@
phased
yah
imposing
bly
eighteenth
pan
comfort
wheat
contaminated
four-@@
outbreak
voices
bun@@
doors
n.
asylum-seekers
diversion
ial
noble
21st
parity
angeles
cement
undermined
communiqué
and-@@
contributors
illegally
travelling
vendor
explanations
36@@
dioxide
interdependence
uncdf
bonn
literary
10th
interpol
finalize
143
iness
fri@@
seabed
solomon
crossed
fiber
pop
remittances
replacing
arm@@
innovations
discount
mal
bit@@
variation
firstly
hn@@
itc
bulletin
ently
cric
missed
beer
identifies
assuming
fifty-fifth
over-@@
agu@@
collaborate
accomplishment
cia
sophisticated
slight
standardization
correctly
overcoming
span
notify
sd
gay
tunnel
vo
controversial
fourteenth
undaf
equation
trips
banned
co-chairs
demanding
evacuation
nowadays
ums
minurso
eve
ily
admit
uncle
ris@@
employ
churches
combining
kor@@
illustrated
jews
assignments
hu
ura
diligence
jiang
kir@@
radar
dramatically
universally
multilateralism
144
ccw
drove
geography
engines
interactions
classroom
button
imis
pun@@
dam
nets
web@@
lend
analysts
invention
liber@@
4.5
10,@@
mirror
narcotics
cream
undoubtedly
criminals
documentary
lawful
gabon
hai
tries
argentine
irrigation
grid
tak@@
vacation
gol@@
pushed
fix
pen
oli@@
reject
147
meteorological
prof@@
beaten
157
alert
corrected
definitely
passes
tariff
weakness
streamlining
read@@
bridges
170
emerge
any@@
renovation
crash
oma
harmonious
leisure
pp@@
auditor
insert
signatories
exam
ich
suspicious
dered
ear
pas@@
sponsor
doubts
judgements
scenarios
zi
ng
impetus
aya
correlation
deciding
len@@
boxes
successive
lacked
sk
xii
tournament
mercenaries
peace-building
indiscriminate
numerical
ue
importantly
ord@@
ished
unfair
pump
1.6
affirmative
wings
bay@@
slave
tered
allies
endorsement
immune
ards
gang
prisoner
determines
vice-chairman
ni
sit@@
deb@@
two-year
inc@@
incomplete
jet
disorder
liquidity
coll@@
confusion
nar@@
worried
burg
contracted
bears
und
pap@@
sla@@
bing
enemies
39@@
151
isation
thro@@
abstract
economists
ct
indonesian
oldest
enrolled
fifty-sixth
197@@
assi@@
ut@@
publicity
badly
breath
rations
uncertain
tech
mouse
pharmaceutical
geo@@
-to-@@
fifty-third
santa
graduated
57@@
ä@@
ades
deserve
entitlements
boats
inevitable
pact
voluntarily
ation-@@
doc@@
166
sr
5.2
modes
pricing
cleaner
<
ini
licences
copyright
encouragement
temperatures
156
22@@
tele@@
totalling
nic@@
holdings
enti@@
matches
grades
thor@@
146
country-specific
defeated
occasionally
accessing
construct
ous@@
1968
shore
clinton
mo
pay@@
gifts
humankind
optimization
time-@@
agendas
distant
ining
austrian
exemptions
sup@@
negatively
observing
privatization
instrumental
pre-trial
intelligent
breakfast
oring
variables
celebration
bak@@
suppose
intercultural
154
unchanged
liked
cancelled
reasonably
at-@@
canal
specially
tional
situated
chairmanship
cis
sn@@
.i
hin@@
premier
pv.@@
simplified
1948
mar
crude
legality
hearts
rc
tourists
fifty-fourth
shops
allied
dol@@
fellowship
hero
ther
valve
38@@
louis
floods
extends
inspector
clinic
bahamas
random
choosing
curve
praise
successes
transformed
bell
convergence
ira
apportionment
trigger
152
variations
47@@
happening
hydrogen
expectancy
ero@@
breaches
daniel
cleared
endorses
connectivity
constituent
modifications
uri@@
.org
volumes
infectious
locked
yu
ó@@
classic
lau@@
spreading
colors
failures
contingents
specifications
stamps
dia
comp@@
gender-sensitive
habit
minerals
sing@@
ax@@
bali
francisco
profiles
tang
ignore
jean
ethnicity
pocket
serbian
complemented
georgian
ren
bling
accumulated
minds
fairness
fu
proposing
utilizing
correction
hem@@
zer
plenty
spl@@
aa
fat@@
stateless
albanian
atmospheric
fossil
clauses
audited
marginalization
cohesion
stockpiling
contamination
non-nuclear-weapon
volatility
seizure
pays
rocks
exporting
empowered
tively
attained
graph
healthcare
tariffs
syn@@
cher
sixty-second
oic
pounds
ians
impressive
restitution
fortune
studio
parks
tian
airports
shareholders
crystal
devote
unama
cha@@
describing
motivation
tile
neuro@@
extensively
parameter
harvest
packaging
fe
icc
veto
sword
iti@@
reactions
cop@@
reduces
infantry
linkage
them@@
fabric
applicability
eless
school@@
sized
departmental
spots
tape
fact-finding
streamline
ist@@
preserved
thin@@
affiliated
sharply
folk
directives
historically
clouds
non-discriminatory
ordnance
benefiting
bold
theft
photos
geological
el-@@
mathematical
athletes
scales
inappropriate
johnson
safer
shorter
ve-@@
fra@@
ola
preferential
tip
paramount
wales
regretted
unv
oman
acquiring
self-defence
absent
ack@@
reads
scourge
abyei
borrowing
cham@@
shoot
disk
fox
ranked
subprogrammes
biology
carriage
5.1
discover
policing
sadc
law@@
mounted
persecution
smell
ents
forgotten
jo
shirt
equatorial
loading
maker
ea
narrative
restraint
tt
va@@
stu@@
nation@@
telecommunication
1966
scal@@
lesotho
interviewed
inviting
149
afterwards
laboratories
beam
sam
imperial
ulation
aro@@
cake
presently
habits
aires
158
es-@@
umbrella
champion
financially
beneficiary
monusco
public-private
script
sum@@
deportation
graphic
stroke
outlines
ac.109
egg
longer-term
reaches
220
firing
hello
stimulus
2.6
aria
compensate
mortgage
idps
brigade
norm
xv
148
ium
asks
ce-@@
diagnostic
fruits
thirds
appreciates
tan
decreasing
molecular
ack
journalist
acc
mou@@
beirut
yours
overarching
somewhere
stepped
165
ils
sion@@
touched
34@@
dose
sav@@
3.4
auditing
anyway
cumulative
kowloon
sleeping
fiction
fires
tier
measurements
diabetes
ich@@
postal
develops
smo@@
4.3
burned
conciliation
threw
entitlement
terminology
doubled
educate
tation
leverage
orange
208
of-@@
sheep
commanders
surge
ambassadors
endorse
hiring
industrialization
foremost
josé
reveals
steam
govern
destructive
anne
jun@@
residing
keys
tum@@
ears
var@@
accompanying
opium
psychology
lou@@
mohamed
offshore
rep@@
.9
bromide
wood@@
verde
ales
colonel
cs@@
ful@@
seal
1,500
161
sou@@
euros
escalation
gambia
pack
warfare
á
absorption
broaden
undof
thirdly
usefulness
ed-@@
oversee
fardc
movies
1963
ening
recruit
ners
darkness
deforestation
dé@@
horn
manufacturer
multi-stakeholder
fla@@
inde@@
credited
ened
mature
battery
cing
immunization
tailored
ctbt
thr@@
has@@
quest
administrations
metric
readers
eradicating
mic@@
1,7@@
matching
alarm
ast@@
confront
cure
beside
192
velocity
catalyst
bombs
selecting
sixty-third
tide
searching
daughters
but@@
popul@@
childcare
hunting
jones
quotas
sixty-fifth
embedded
ene
fold
1,4@@
exacerbated
blockade
co2
cru@@
mobilized
ena
battalion
expectation
dating
finalization
arena
containers
sta
label
vacuum
án
201
deposited
interpretative
ukrainian
coercive
centr@@
restoring
gender-@@
ory
chest
facilitates
imply
ranking
silk
tibet
deputies
ises
prioritize
strengths
suspend
io@@
perfectly
sand@@
benchmark
elizabeth
facilitator
openness
attracting
hills
influences
progressively
rebels
bacteria
checking
ishing
resistant
reward
competencies
ram
mike
0.7
iom
lic@@
monaco
plo@@
instituted
distribute
terminated
add@@
sensor
planted
tertiary
craft
quar@@
jane
book@@
purely
cp
emp@@
jim
kivu
overdue
sisters
lighting
voter
measurable
synthetic
5.5
ethiopian
tracing
arctic
ement
accrued
u-@@
undermining
ple
inmates
cisg
dur@@
maria
staying
tically
joe
commensurate
mg
charity
surrender
trafficked
ia@@
reunification
tas@@
confrontation
displaystyle
350
80@@
hampered
informing
loves
pdf
wireless
aci@@
reservoir
tran@@
commissioners
proclaimed
burst
segregation
vaccine
270
lacks
non-post
mari@@
tun@@
lung
seize
pet
scarce
ou
coun@@
crazy
loaded
sm
mindful
boo@@
roman@@
grace
ace
receivables
cattle
counties
oned
populated
fluctuations
motor@@
nt
59@@
gue
tine
consular
impede
reforming
hoping
ov@@
investor
w.
....
sat@@
textbooks
ide@@
founder
mir@@
rush
mdg
praised
vulnerabilities
farmer
persist
positioning
preferences
striking
pro
multidisciplinary
laugh
210
up-to-date
sub
convictions
dressed
175
winds
1964
flash
dar
key@@
vil@@
159
tripartite
columbia
235
photographs
pretrial
tus
was@@
183
mad
vic
ei@@
executing
6.5
qualify
chairpersons
kit@@
inevitably
ware
academia
deficits
suggesting
201@@
ups
swe@@
warehouse
aerial
encounter
enjoys
gis
od
ascertain
10-year
prevail
absorbed
stat@@
bags
militias
sewage
tortured
painful
house@@
purchases
1960s
condemns
imbalances
vis-à-vis
stakeholder
disposition
abduction
medi@@
gers
buyers
baseball
guides
start-up
213
breeding
fever
criticized
foreseen
kiss
wives
wind@@
nervous
rationale
synergy
compatibility
hun@@
conform
rats
probability
arises
198@@
wildlife
factories
hub
loose
def@@
misuse
prst
empowering
indebted
hungry
hus@@
20-@@
government-@@
muscle
participates
allegation
angel
complications
run@@
auto
m.@@
permanently
condemn
fifteen
keen
bidding
sters
dre@@
democratization
governors
jury
distress
communal
packing
cloth
concentrations
eventual
embodied
tc
unita
indications
restaurants
seizures
las
−
dom@@
centred
dedication
dialogues
nutritional
aka
ghg
corrupt
calculate
shortages
1.8
211
izes
requisite
deliberately
1000
notifications
poetry
tar
cou@@
efficacy
frames
snow@@
urging
validation
enact
exported
dawn
disorders
min
scholarships
atlas
bab@@
babies
approves
lasted
finger
hotels
clashes
creativity
caring
kil@@
trustees
1.7
unmee
idf
corn
pot
unequal
167
factual
demonstrating
disclose
plot
iss
en-@@
traders
edward
mes
predict
bir@@
approaching
biotechnology
therapeutic
inserted
ries
ae@@
extremism
yer
0.5
ć
fic@@
sty@@
lecture
nobel
unencumbered
loving
12,@@
rated
stockpiles
organisms
schedules
propaganda
gray
pole
grey
pipeline
rat
repairs
breaks
undg
yearly
mars
centralized
unsustainable
signatory
tion-@@
dragon
khan
wei
242
acc@@
asserted
dancing
congratulations
164
harsh
initiation
lif@@
stomach
delhi
withdrew
6.2
48@@
arriving
influential
protracted
189
2.7
5.3
activated
performances
armenian
rockets
bru@@
lan
11-@@
entails
eritrean
plight
leather
emb@@
190
safely
likelihood
travelled
electronics
opera
240
ranges
35@@
casting
fingers
grows
ino
supplemented
dozen
prosperous
forty
anna
1965
passive
tended
adopts
domin@@
consortium
consultancy
exploited
ced
enters
portable
bombing
relied
qualities
sb
1950
laying
main@@
ox@@
1,6@@
kid
cli@@
expeditiously
disputed
funny
magistrates
lengthy
abolish
sixty-fourth
iso
petition
differently
confronted
directory
poorly
complied
eleven
2007-@@
intervene
championships
predicted
shed
173
unami
forwarded
kabul
1,8@@
nap
absorb
ame
l.1
donations
predictability
163
int
dvd
ili@@
dem@@
buffer
ratios
alarming
bias
multidimensional
boom
concessions
ble@@
knife
mentally
2008-@@
jin@@
complementarity
fruitful
codification
30,000
twenty-fourth
13,@@
connecting
rus@@
ré@@
ams
cher@@
fort
horses
state-owned
unamsil
unauthorized
well-known
thrust
automation
dependency
ez
x-@@
airline
168
500,000
coral
lectures
recruiting
speci@@
rob@@
chiefs
conditional
overlap
delicate
reproduced
prompted
resist
belgrade
cost-@@
7,000
accepts
admissible
ado
sacrifice
fifty-second
honey
undertakings
70@@
avi@@
thai
senator
wound
alexander
ath
interact
analyzing
rear
country-level
suited
tac@@
altogether
upheld
immigrant
procuring
aps
licensed
offr
insisted
ious
vibration
hydraulic
mrs
afforded
suspicion
58@@
deadlines
exploit
stor@@
virginia
1958
assists
galaxy
orderly
celebrated
eurozone
guardian
undergoing
speaks
bis@@
backlog
spacecraft
1325
rigorous
kimberley
attaining
cooling
gan
expelled
hamas
sampling
system@@
instant
ballistic
hung
particle
tips
tu
hosts
ideological
triangular
cannabis
genes
robbery
terminate
lesser
holes
intentions
awa
initi@@
sian
pp.
vector
dental
install
deteriorating
automated
18th
erp
exchanged
inv@@
our@@
caution
thrown
counts
rolled
stuck
anxiety
mate
checked
luxury
shipments
countryside
ffs
ipcc
transferring
putin
remembered
yam@@
'a
disproportionate
sexes
after-service
mp
reader
clerk
noon
originating
diffusion
adi@@
human@@
ion@@
nations-@@
se-@@
croatian
geared
imprisoned
nurses
vincent
depended
gil@@
172
compile
gent
14,@@
203
dirty
visas
carriers
bars
mitigating
orphans
full-@@
kur@@
2019
dimensional
ea@@
strongest
wooden
dismissal
merger
ste
248
ella
twenty-@@
undergo
cooperated
mill
shel@@
taxi
pesticides
1962
lers
plat@@
surrounded
toll
perceptions
chip
ya@@
yed
beneath
dos
passion
exciting
ign@@
oning
rage
alter
priest
30-@@
assign
ising
exporters
port@@
swing
lodged
ail@@
kit
retaining
confirms
differentiated
enacting
four-year
opens
199
audiences
d-2
second-@@
self-government
hard-@@
mr@@
171
reorganization
unmit
behold
lu
wen
curb
defending
enjoying
calculating
statutes
chocolate
loud
occupy
tasked
jer@@
swift
kid@@
payroll
sanitary
speedy
dictionary
est@@
premium
sustaining
ashed
memories
abandon
oh@@
15,@@
ets
endangered
unexpected
ances
colonialism
glasses
let@@
wat@@
developers
indi@@
buses
hksar
oneself
abducted
favoured
rests
sensitization
251
defer
protects
actuarial
serb
nov@@
meals
nurse
gged
pil@@
romantic
anybody
defects
sub.2
y.@@
interfere
shouldn
victoria
230
discriminate
ida
coexistence
prevents
49@@
interrelated
specification
š@@
conception
ar-@@
185
home@@
bec@@
vul@@
wastewater
deadly
refined
tting
bits
khartoum
brush
ishes
unmiss
vit@@
ston
enrichment
inquiries
4.4
finances
hungarian
metropolitan
174
eth@@
hot@@
mile
moments
belize
cab@@
deserves
ensuing
ila
designer
perpetrator
scrutiny
deepen
deepening
dra
eminent
pointing
technically
7.5
wel@@
cleansing
wealthy
trillion
flew
imbalance
itation
kings
bet
bones
nonproliferation
off-@@
affirms
harbour
ined
versus
imaging
psychotropic
sign@@
fmct
builds
controversy
continually
induction
insured
shifting
rebuilding
influenza
observes
upward
xiii
cin@@
hypo@@
nit@@
transported
champions
ip
there@@
embrace
ven
bribery
46@@
graphy
spec@@
cy
squad
maturity
axis
ceo
flooding
museums
extract
isa
refuge
vested
constrained
ier
scientist
tings
hex@@
tou@@
227
freshwater
layers
preamble
shield
undue
instructed
symbols
din
righ@@
200,000
age-@@
brow@@
bureaux
circum@@
prone
uneven
destroying
ifad
glory
kat@@
forcing
inc
coup
washing
1946
bury
bike
incoming
viability
automobile
escaped
ity-@@
magazines
generators
embarked
moroccan
260
deficiency
disadvantage
panellists
sacred
non-expendable
popularity
ele@@
surgical
attributes
disadvantages
free@@
winners
mun@@
extremist
kits
low@@
antly
contested
convert
know-how
pleasant
estimation
execute
litigation
ee
piano
sixty-sixth
disciplines
formats
eye@@
lips
offender
sab@@
odi@@
ologists
privately
ú@@
stupid
56@@
mud
wells
zes
214
actress
181
hair@@
tooth
diameter
ladies
colombian
ep
finite
n.@@
onal
aw
multisectoral
stance
illustrate
clean@@
economist
seasons
simultaneous
tap@@
2.8
redeployed
banning
bore
h-@@
time@@
way@@
pronounced
17th
editorial
bag@@
double-@@
ottawa
barrel
surprising
trap
overtime
reiterating
177
hua
marshall
maxim@@
believing
15th
191
albeit
ano@@
sco
thi@@
disappointed
plates
third-party
2,0@@
enthusiasm
hinder
226
arian
ideology
importing
infants
macao
pp
template
affair
defendants
day-to-day
lag@@
contributor
hanging
vietnamese
d.c.
one@@
altitude
arity
ineffective
sau@@
tactics
icsc
ography
harvard
scenes
fol@@
ide
aire
reluctant
signatures
alan
es.@@
trac@@
ter-@@
abundant
wanna
1,9@@
har
calculations
counted
arti@@
eg
optimize
cried
infrastructures
occupations
regulators
è@@
apparatus
defensive
kindly
neglected
pragmatic
lane
powered
pushing
circles
cos
micro
crescent
dare
trucks
loop
retro@@
insist
seriousness
criminalization
reproduction
hop@@
confiscated
outs
202
hath
gir@@
five-@@
kha@@
lovely
rainfall
amazing
masters
11th
announce
planets
rendering
unomig
invalid
ozone-depleting
fund-raising
pope
quantum
16th
6.3
checkpoints
in-house
mice
opponents
whilst
'clock
tiger
kinshasa
lamp
enforcing
prospective
uk@@
wolf
acceding
fusion
gods
prediction
rises
rings
sh
tric@@
v.@@
18-@@
utilities
collaborating
scaling
comprehensively
ods
conducts
ment-@@
problematic
interpret
g.@@
te-@@
unlb
confronting
worn
counting
employing
178
diesel
ast
bn
ideals
monopoly
orthodox
upgraded
predominantly
2006-@@
184
206
inland
king@@
lab
subsidy
taylor
traffickers
17,@@
ahmed
diplomats
lifestyle
painted
pin
implied
homeless
186
jar@@
barely
trade-related
arusha
excited
sponsorship
12th
963-@@
associates
gging
opposing
convenience
15.@@
alliances
milestone
serbs
struggling
tat@@
borrow
layout
scores
dd@@
detrimental
shar@@
205
psychiatric
soccer
explaining
origins
233
prevalent
reversed
comparing
ination
summaries
bankruptcy
drilling
premature
ras@@
hectares
pping
eness
frontier
quoted
certainty
reclassification
rooted
abused
clearer
illa
mop
practically
basket
tured
ered
pit
renamed
225
lon@@
flame
3.6
scottish
209
involuntary
than@@
prohibitions
theater
dozens
crack
gul@@
anti-discrimination
ket
trauma
quartet
shortfall
tribes
16,@@
destiny
upset
regrettable
grass-roots
templates
constructing
sincerely
outsourcing
upr
the-@@
18.@@
damaging
it-@@
scholarship
198
hag@@
menu
prayer
sai
gazette
recommending
cocaine
migratory
reactor
finnish
gc
adi
shifts
understands
2,500
ela
aggravated
mas
talents
trusted
blocked
northeast
spe@@
218
5.4
entries
relies
amid
foregoing
kun@@
ona
1954
cognitive
vicinity
academics
ops
sixty-seventh
vel
encompass
toxicity
zo
bitter
conceived
vice-chair
176
fi
oppose
14.@@
imminent
midterm
openly
year@@
rebuild
unconditional
widening
vs
bob
drinks
far-reaching
quo
auction
him@@
lessly
0s
gar
proximity
non-profit
water-@@
ball@@
administer
drag
presumption
chu@@
nominal
wid@@
ith
multi
retreat
information-sharing
scored
unfortunate
contr@@
1,5@@
dt
policy-making
cm@@
emotions
homeland
ser
inspiration
summarizes
triggered
enriched
kov
storms
16-@@
combustion
dissolution
favorable
nerve
zation
eager
nas@@
sooner
state-@@
weakened
ara@@
imagination
manuals
gel
precedent
golf
complained
juice
qing
recognised
suriname
haw@@
14-@@
competitions
shaping
comoros
vegetable
duc@@
democracies
rifle
vill@@
confinement
187
cornerstone
distinctive
met@@
advocating
relax
vanuatu
cour@@
gh
ill-@@
immense
kidnapping
cers
remedial
tear
app@@
diminished
tz
analyzes
add.3
landed
reparations
moses
reasoning
demarcation
lunar
ax
lucia
politician
extraterritorial
fence
og@@
bes
juveniles
boarding
emanating
ku
disproportionately
complain
crp.@@
dev@@
paintings
188
un.org
definitive
optimum
vitamin
aki
belgian
charts
plasma
styles
competitors
flowing
bowl
fragmentation
mortar
itu
hood
nationalities
novels
or-@@
equilibrium
log@@
microcredit
sickness
exceeds
parti@@
accords
exhibit
delegated
initiating
robot
gas@@
heroin
decreases
devise
armoured
instraw
'i
modeling
soup
43@@
cd@@
jail
neg@@
streamlined
appearing
survived
void
fracture
rigid
yl
circumstance
condemnation
groundwater
ñ@@
lun@@
unaccompanied
underline
tap
unite
react
turnover
243
generator
care@@
wg.@@
mill@@
presiding
israelis
promotional
jersey
ologist
resignation
rho@@
6.1
hay@@
threatens
sympathy
democrats
specifies
tuvalu
tumor
15,000
matched
abl@@
muhammad
13th
cost-sharing
horizon
downward
iled
tonga
cpc
polar
apo@@
corridor
lieutenant
forecasting
guilt
68@@
substantiated
194
endo@@
mon
childbirth
ez@@
bos@@
child-@@
ctc
reinforcement
adaptive
precarious
collections
girlfriend
somehow
supervise
urs
anim@@
brave
confused
fulfill
md@@
pearl
teenage
hs
mah@@
say@@
deceased
oxide
traveling
almaty
jur@@
numbered
twin
climb
disturbing
plum@@
duke
fighter
rightly
treasure
anymore
respiratory
bbc
bel
lonely
voiced
dom
flagrant
shake
dumping
gli@@
peacefully
relying
14th
222
disruption
ula
ids
13.@@
207
inflows
constituencies
insofar
bac@@
spell
arsenals
loo@@
welding
arsenal
neutrality
ac.105
swaziland
prefecture
triennial
fle@@
179
,000
totalled
abidjan
altered
constraint
indictment
recreation
wen@@
amb@@
planting
yn@@
atively
deter
loads
scheduling
unresolved
christians
ib@@
real-time
slovak
treatments
ally-@@
ides
originated
ting@@
eling
caledonia
judged
cheng
stigma
ashi
assemblies
ingredients
seismic
stein
colleague
irreversible
empirical
jean-@@
1956
228
compelling
enclosed
jin
icao
lea@@
shots
fuzzy
sai@@
impediments
vaccines
aling
episodes
och@@
servers
ses@@
twenty-fifth
poet
reporters
seldom
mac
shifted
incremental
dum@@
footing
za@@
earning
psychosocial
ul
atrocities
debut
yi@@
projec@@
accra
ei
ex-combatants
6.4
ph
eman
69@@
e-commerce
elite
even@@
barack
delta
discourse
iccd
constituting
macro@@
patience
sky@@
slope
depositary
homework
appropriated
flu
inflicted
mid
beds
ld@@
wholly
ere
genic
slowdown
asleep
deserved
bet@@
conveyed
majesty
phase-out
arabs
bride
44@@
catalytic
abortions
paths
sodium
una
questionnaires
unrest
compelled
hiding
masses
plurinational
consumed
emer@@
lra
dness
verse
1959
aly@@
oas
quit
that@@
accessed
adequacy
gab@@
icts
shipped
buenos
reformed
landmark
és
flesh
jackson
unc@@
catalogue
forgive
phen@@
sporting
wore
ship@@
clay
gur@@
multimedia
204
rival
broad-based
cave
exert
1957
abundance
peri@@
administrators
privilege
francs
dil@@
idi@@
rein@@
donald
accompany
carlos
heightened
influencing
morgan
slip
fer
hit@@
1955
rous
devil
north-south
walks
fool
litem
sexuality
ç@@
factions
tures
correctional
fifty-first
gallery
northwest
billions
chan
ric
brilliant
brunei
hurry
vigorous
brit@@
mosque
ading
feared
hip
ldc
bert
harmonizing
inherited
routinely
atin@@
-1
neighbourhood
settling
varieties
adapting
charitable
collaborated
hes
nitrogen
seychelles
exhaust
shame
show@@
beating
diversified
iso@@
keeper
implements
stops
capitals
evolve
expan@@
textile
hasn
mercy
1.9
ency
groupings
45@@
'affaires
insight
mid-term
real@@
yields
ud
compounded
enquiries
acceleration
societal
brindisi
displays
pray
wer
activation
chung
jumped
margins
pulse
secrets
tactical
ut
193
grandfather
racing
trail
1947
hongkong
overcrowding
217
oxford
3.7
discontinued
tony
ros@@
sof@@
hid
oslo
illustrates
thread
twenty-second
apartheid
drainage
intra-@@
ater@@
reminder
floating
albert
precursors
two-thirds
infrared
mechanics
tible
six-@@
pregnancies
races
scattered
sd@@
ges@@
slum
18,@@
commemoration
nc@@
recreational
videos
fitting
steve
falkland
manages
osis
tibetan
450
optimistic
pink
195
coercion
kick
economical
bible
high@@
on-site
improves
adam
microwave
bow
listened
ques
exhaustion
mé@@
timorese
hereinafter
intervals
obsolete
juan
kel@@
merged
215
blast
221
architectural
backgrounds
ek@@
ij@@
severity
membrane
editing
fir@@
241
kr@@
siege
audi@@
cf
manifest
morbidity
part@@
timeliness
evidenced
qi
stop@@
declares
ree
sahel
sydney
19,@@
disappointment
chlor@@
gently
hierarchy
stin@@
stretch
police-contributing
reporter
terrestrial
dat@@
swim
intake
tong
unexploded
worrying
approving
cant
reconcile
rows
alli@@
avoidance
ore@@
ridge
educators
restricting
case-by-case
correspond
269
ación
bargaining
agreeing
ll@@
marginal
township
216
denying
exhaustive
xiv
hand-@@
pped
telescope
cr
attachment
call@@
cheaper
attribute
fitted
tehran
armaments
chaos
dakar
mented
affirm
stephen
l.2
sizes
1,3@@
adjusting
cancel
ater
circulate
bath
buddhist
invaluable
unliquidated
with@@
blan@@
high-risk
neutr@@
serial
ann
departed
forty-ninth
orbital
streams
unstable
max
stre@@
critically
je
16.@@
confederation
č@@
197
glob@@
tted
verifiable
wong
pac@@
cf@@
finalizing
19.@@
damascus
resigned
traded
annan
ow
sixty-eighth
brutal
class@@
conven@@
forbidden
eco@@
indoor
quin@@
contraceptive
nasa
upholding
antigua
ate@@
cinema
concession
forecasts
alloy
articulated
logging
sey
dean
lor@@
zer@@
advertisement
fatigue
injustice
oc
expired
iv@@
bed@@
guangdong
2009-@@
seasonal
wag@@
bubble
mohammed
ashes
whoever
queries
electron
rich@@
253
self-sustainment
tec@@
emotion
gg@@
massacre
prototype
paradigm
waited
4.6
ø@@
broadband
13-@@
stan
careers
statelessness
vigorously
encompasses
coefficient
excessively
verbal
cheese
alised
ays
optimism
sentencing
breathing
£
allocating
hn
kom@@
surveyed
1,200
elaborating
grasp
tense
regrettably
rol@@
von
coating
night@@
254
attainable
hotline
accusations
metro
amy
fundamentally
hunt
midnight
neighbors
sichuan
stimulating
blessed
lens
intern@@
goodwill
magistrate
É@@
ss@@
arc
invitations
hd
reconsider
interdependent
morality
undertakes
declaring
honoured
kho@@
murdered
striving
diploma
huang
fare
stockpile
undergone
packed
phy@@
corrective
disregard
villagers
adventure
proportional
elder
hollywood
desktop
ometer
gentle
ison
culturally
tours
55@@
spr@@
athens
rum@@
wilson
266
uncertainties
ant@@
berry
eaten
incorporates
pitch
wol@@
abkhazia
bes@@
land-use
pile
disposed
196
cypriots
descriptions
ignorance
hospitality
ora
2005-@@
elle
funeral
minurcat
prote@@
quick-impact
stemming
whereabouts
midst
non-annex
psych@@
que@@
1996-1997
237
here@@
tioning
deeds
santiago
seoul
hipc
2.9
ase@@
keywords
tina
unanimous
2000-@@
delimitation
supplementing
textiles
bachelor
short-@@
interpreters
riding
5.6
andrew
disengagement
ately
pec@@
lays
poorer
boy@@
eng
induc@@
jud@@
ag
query
vaccination
bermuda
inch
pretext
srpska
derive
projection
envi@@
gauge
throat
1952
petrol
troubled
bent
compliant
outlets
esp@@
guangzhou
burdens
gardens
mystery
north-east
pound
overhead
vague
fraction
ontario
mounting
ombudsperson
interrogation
locate
recurring
rhetoric
throne
differing
appointing
arisen
non-communicable
um-@@
alistic
clarifying
detecting
registers
ev
dishes
ic-@@
impressed
disparity
passports
staffed
janeiro
dal
dprk
prosecuting
stabilize
breastfeeding
cad@@
ome
brackets
fines
preceded
republika
broadening
vent
extradite
cruise
1.15
90@@
ick
tem@@
complainants
forge
vegetation
web-based
aching
diver@@
inform@@
pig
width
husbands
js@@
deck
dire
rey
th-century
poll
precautionary
breakthrough
chargé
free-@@
posting
cost-effectiveness
despair
ecology
medication
colony
announcements
bat
prioritized
vein
exchanging
20,@@
mic
invoke
sorrow
mask
nazi
planes
repression
suc@@
ch-@@
colored
kra@@
lap@@
subjective
drain
drunk
elec@@
geospatial
assembled
bite
dh
lethal
ligh@@
gall@@
nordic
variant
barcelona
das
repeal
aring
kennedy
276
cathedral
classifications
fir
frustration
glu@@
pivotal
railroad
ref@@
.com
defamation
madam
shire
speculation
aesthetic
gram
shenzhen
revising
citing
scott
icef
antonio
communicating
non-core
shaft
surviving
ure
wins
fatal
blade
etc.
hereby
saf@@
264
aquifer
constructively
bands
pi
set@@
supplements
compression
expeditious
cambridge
outgoing
psycho@@
slower
tribe
asserts
suits
255
crying
explo@@
diocese
whatsoever
rod
stringent
williams
evictions
questioning
sible
alisation
vis
ão
cla@@
evidence-based
onset
ush@@
chang
drives
fortunately
snake
antarctic
commits
nights
impeding
mt
pr
unsoa
trapped
warnings
arthur
photograph
aunt
refusing
238
96@@
toxin
bicycle
fif@@
longest
lum@@
phil@@
poem
1944
assassination
jul@@
manpower
cut-off
desperate
feng
sids
ington
examines
forcibly
prioritization
silicon
boston
finishing
posi@@
reside
whit@@
healing
sealed
wmo
belonged
equations
side@@
slee@@
standby
susan
anth@@
encumbered
logy
backing
kas@@
247
cambodian
flee
throwing
unsafe
neighborhood
transforming
discourage
occasional
profitable
129@@
ashing
nearest
noteworthy
knee
milan
responds
dec.@@
practicable
simon
merchandise
devised
pakistani
pale
caus@@
reminds
arizona
jacket
lowering
syl@@
bilingual
contravention
67@@
node
power@@
interrupted
life@@
oper@@
repercussions
simplification
gated
simplify
bie
confirming
dissolved
legend
toilet
ō
notices
proves
223
244
bishop
insul@@
principally
aded
recurrence
chairmen
defender
batteries
joke
prudent
tax@@
featuring
solitary
will@@
kis@@
bic@@
cameras
disturbed
foreseeable
mud@@
persuade
unidir
preferable
3.8
slide
titled
236
ambition
cit@@
jar
oid
lec@@
nag@@
realm
cal
convince
downturn
mt@@
resin
246
asp@@
gi
ghost
motions
tant
disc
malvinas
9,000
balancing
contradiction
nos.
elders
symbol@@
53@@
definite
gal
onia
shoe
violates
clu@@
hostage
wl
calcium
creatures
professions
repetition
rers
assumes
bombings
thirtieth
clin@@
ua
arguing
benjamin
chang@@
alumni
complying
300,000
chernobyl
nec@@
mild
ratings
institution-building
invoices
pf
physi@@
sends
thickness
naked
annum
rope
sanction
consequent
republicans
í
360
peasants
barbuda
wipo
wounds
chess
patri@@
discrepancies
philippine
frente
attacking
ratione
exempt
expiry
extensions
fund@@
num@@
repu@@
fame
meth@@
ml@@
261
commemorate
ema
kfor
shoulders
letting
polling
precursor
rit@@
brands
eva
probe
spirits
scarcity
warmly
pesticide
sten@@
forgot
nicosia
secretaries
258
as-@@
merchant
ori
baltic
crowded
20.@@
25-@@
heights
marino
private-sector
earthquakes
gotta
impaired
rents
tle
encompassing
possessed
bonus
famine
intra@@
stopping
flat@@
performs
railways
transi@@
ck@@
unf@@
entrepreneurial
mond
replenishment
265
addiction
ct@@
goma
loyal
bull@@
futures
paulo
essay
explosions
whe@@
amaz@@
carolina
coding
intentionally
nonlinear
pierre
underscore
horror
agro-@@
aluminum
bum@@
carrie
cats
invisible
permitting
bench
drops
litres
governorate
las@@
aerospace
azerbaijani
gues
non-permanent
tho@@
condolences
discriminated
nan
advising
collision
lodge
odd
sor
4.8
contacted
ied
persisted
mont
afro-@@
charging
stretched
timeline
beef
posters
criminalize
grandmother
iccpr
1267
231
contends
grand@@
red-@@
2030
andorra
aming
feder@@
materiel
nie
respondent
surfaces
4.7
blank
elling
enlargement
mono@@
poultry
tentative
8.5
bronze
sarah
232
custom@@
debt-@@
plac@@
quietly
eco-@@
fastest
kim@@
laden
mone@@
365
bull
philip
toys
revol@@
speeches
tag
columns
donated
40,000
acti@@
affection
naqurah
wai@@
modelling
colon@@
ever@@
promulgation
short@@
tta
fishery
xx
expiration
minimizing
road@@
trusts
forty-eighth
fits
solvent
steal
exhibits
positioned
spt
clan
closest
conflicting
234
insti@@
reco@@
seemingly
heed
isaf
spiral
actu@@
fullest
17-@@
275
congratulated
donation
aud@@
avail
demo@@
indices
matic
collapsed
comedy
dropping
sensors
moisture
outdoor
acclamation
algorithms
fitness
loyalty
tte
regulates
turks
fifa
kilometers
cyber@@
25,000
eh
lover
space-based
south-eastern
trades
224
blin@@
enduring
ipu
coin
costing
faithful
1950s
deteriorated
distributing
francis
friction
objectivity
3d
algerian
underlining
77@@
fortieth
pressed
qualifying
245
forefront
functionality
invented
eff@@
low-cost
sci@@
fierce
isu
ly-@@
2003-@@
palm
prescription
concise
redouble
sher@@
stranger
bai@@
grenada
ome@@
submarine
unforeseen
counterpart
destined
effected
1.
endless
kn@@
ugly
dong
expire
hes@@
raped
hemisphere
neu@@
cau@@
lit
sal
worlds
iss@@
photography
subparagraphs
26.@@
a.i.
alleges
fem@@
itis
sunshine
bedroom
contempt
electromagnetic
jum@@
band@@
nut
singles
tent
uss
ō@@
conce@@
searches
subordinate
sunlight
attraction
strait
trick
fulness
gu
antiretroviral
clim@@
quadrennial
toy
gon
oria
219
remo@@
stock@@
interpretations
overnight
shuttle
cont@@
foreign-@@
lower-@@
unreasonable
boyfriend
deliveries
ii@@
kindness
adjournment
sus
wall@@
cautious
hassan
reck@@
7.3
ais
arbitrarily
ials
proteins
sorts
são
tter
beg@@
dismantling
grantor
ique
natur@@
thirty-@@
pag@@
z-@@
ccpr
cop.@@
arch
compensable
elevated
nowhere
tale
ette
reprisals
incorrect
itated
unmovic
2002-@@
graphics
hindered
lam
rays
tari@@
creature
infringement
for-@@
professionalism
achi@@
god@@
rab@@
ress
assertion
companion
accommodated
ration
checklist
differentiation
fli@@
precondition
rally
venues
283
expecting
directing
ventures
avian
eb@@
hits
7.1
dh@@
disagreement
relieve
66@@
programmed
blog
paramilitary
possesses
constituency
floors
laughter
sheikh
1701
good@@
mont@@
seventy-@@
supplying
ey@@
grammar
nba
yen
280
congressional
preferably
risk-@@
technicians
underscores
val
aquatic
acro@@
identities
overlapping
tations
impeded
cer
luis
protesters
yards
genesis
infl@@
opponent
supervised
clarifications
clever
deploying
entirety
lincoln
tra
chancellor
deaf
greenland
relay
tioned
lah
youre
1940
conten@@
negotiable
rez
0.2
contraception
unification
avenues
hamper
pic
impacted
vicious
flour
tiles
median
oe@@
dent
diagram
tionally
ces@@
196@@
anda
ases
chris
underrepresented
c.12
co-chair
superiority
﻿
conscientious
defect
drug-@@
guil@@
2001-@@
cousin
disappear
mentoring
outlining
polisario
solemn
southwest
spectro@@
chin
premise
shan@@
footnote
muscles
not@@
yn
cross@@
fantasy
lik@@
africans
endemic
cigarette
sao
beans
oz@@
protections
underway
7.2
func@@
physician
weaker
desi@@
grenadines
torn
casual
dispatched
eternal
minim@@
tial
anxious
garbage
ony
vocabulary
deformation
descendants
manipulation
mess
slo@@
educ@@
lav@@
272
bridging
coupling
macau
diagnosed
furthering
-year
decrees
hl@@
jacob
symbolic
ail
dispatch
spac@@
youngest
heated
judgments
helen
twenty-sixth
unwilling
presumed
processor
analyst
good-@@
maximizing
sums
acknowledgement
brick
terrain
inspected
ns@@
19-@@
broadcasts
cyclone
divine
yielded
coping
bra
lusaka
pity
reign
shower
sme
universalization
assert
rejects
·
289
icpd
intimate
dispen@@
252
efficiencies
need@@
msp
polymetallic
repository
sic
xx@@
abdel@@
ordering
retaliation
condemning
plas@@
proclamation
•
rationalization
unti@@
christianity
zoo
gru@@
rel
risky
age@@
constan@@
proving
batch
newsletter
sentiment
df
corrosion
elegant
fraudulent
mc
visitor
insects
lean
rat@@
scre@@
x-ray
collateral
refu@@
undermines
aboard
acquisitions
backup
enhances
family-@@
fit@@
worsening
249
fish@@
jeopardize
literally
patrick
pirates
open@@
algiers
kyrgyz
panic
yo
aut
best-@@
receipts
2010-@@
cran@@
resilient
cultivated
deems
fdlr
kie
palau
pilots
preclude
discharged
duplicate
kidney
quarantine
hussein
tncs
dor
screw
duck
illnesses
irregularities
obesity
designers
econom@@
flora
petitioner
soap
tia
diversify
stems
cow
sle@@
switching
turmoil
rah
relocated
then@@
cervical
kol@@
vice-@@
256
heroes
swee@@
gold@@
icty
zen@@
chat
gentleman
hawaii
zinc
eighteen
deli@@
intangible
alma
subregions
tex@@
armies
biomass
drawdown
followers
modality
dpko
stal@@
colorado
unsuccessful
subnational
ami
strat@@
dual-use
multifaceted
andean
aux
energy-@@
implicit
acabq
unhappy
viewing
distances
fake
astro@@
physicians
punitive
consume
conver@@
impediment
mates
abdul@@
corresponds
cylinder
liverpool
tai@@
vari@@
54@@
bau@@
brokering
dru@@
ima
obstetric
subway
compliments
thirteen
catering
week@@
bah@@
innocence
precedence
austerity
dge
opt
pass@@
regionally
tune
vor@@
24-@@
backs
deletion
quad@@
river@@
forging
industri@@
259
inches
jurisdictional
mati@@
honourable
org
tness
1929
divorced
smallest
swiftly
7.4
bour@@
easing
forty-sixth
glo@@
pairs
widows
27,@@
join@@
kno@@
labelling
lima
bail
biased
poppy
waiver
5.7
germans
advisable
life-@@
lifelong
slaves
lateral
path@@
cord
stam@@
sink
usable
affiliation
commanded
dd
17.@@
e-based
end-of-service
cellular
dis
shit
ahmad
darussalam
downtown
mined
monkey
alabama
conserv@@
dac
rin@@
fis@@
hri
prop@@
tract
diverted
rain@@
dried
pai@@
1953
88@@
genuinely
improper
neighbor
thats
depreciation
kofi
romanian
rul@@
priv@@
purple
nad@@
nile
ross
262
bian
neural
troop-
insights
unlimited
bail@@
covenants
ech@@
pets
researches
tool@@
weakening
1942
escorted
lovers
mixing
coins
centi@@
abuja
impasse
manifestation
ush
dian
institutionalized
widest
ancy
animation
hui
luc@@
r.@@
writes
inhabited
slowed
depletion
faction
hostility
64@@
cartagena
handsome
illed
juba
shin@@
sno@@
furnace
anti-terrorism
dong@@
tenants
warranted
abnormal
alternatively
discretionary
memorandums
enclosure
mao
nav@@
nuclear-@@
plaintiff
rick
expose
facebook
gos
pennsylvania
pursuance
qi@@
vac@@
conferred
jab@@
thief
commendable
con
convincing
washed
backdrop
exhibitions
butter
recruits
regiment
viol@@
boring
endanger
ample
tunis
v-@@
288
garage
unt
depressed
iv.@@
jure
bankers
edi@@
lawn
advisor
cir@@
demolition
energies
humor
secrecy
overflew
peasant
sixty-ninth
uz@@
229
ibrahim
xvi
suffers
supervisor
wi
educating
1930
257
didnt
onwards
par
statue
yel@@
grouped
obl@@
Š@@
influx
outward
professors
unilaterally
wards
aim@@
math
repl@@
molecules
petro@@
refine
yearbook
1995-@@
advertisements
nap@@
password
fou@@
gau@@
gom@@
jordanian
poems
compiling
fertilizer
see@@
translating
owe
cross-sectoral
sits
inter-ministerial
scared
no.@@
owns
sue
bullet
facial
gendarmerie
lip
proportions
cha
phrases
art.
atro@@
knocked
prevailed
domination
iti
wis@@
air-@@
forged
impairment
portions
dwellers
explanatory
pled
balls
vin
warrants
brid@@
mph
nuts
rebellion
roc@@
mercosur
out-of-@@
wholesale
climbing
inclined
intentional
ure@@
750
domains
socialism
take@@
weaken
massachusetts
one-time
steep
subsidized
fair@@
seri@@
europeans
happily
lightning
fier
south-west
tim
.a
inferior
practised
bare
charlie
logistic
ment-related
pie
shallow
smoothly
capitalism
preconditions
22-@@
338
absor@@
authoritative
conspiracy
vladimir
ito
talented
chloride
hedge
o.
spray
239
backward
exile
nauru
one-year
prepares
alice
metre
stric@@
debated
1939
flag@@
kaz@@
priests
stepping
xia
dispose
income-generating
jack@@
mini@@
toronto
crp.1
hon
policy-@@
weren
dairy
gla@@
nigerian
tening
cb
cent@@
esting
objec@@
rever@@
withdrawing
revival
chase
on-line
amed
ills
ever-@@
iff
auxiliary
foot@@
glance
polymer
rid@@
gentlemen
prix
triple
elastic
kh
sang
124@@
8.3
killer
michigan
blocking
miners
sas
wanting
alities
teenagers
zu@@
spin
687
conditioning
diminish
affirming
100@@
alpha
fourteen
jal@@
martin@@
peers
surprisingly
aided
appearances
bih
comb@@
compromised
harness
gotten
radiological
3.9
dm
grief
habit@@
issu@@
organ@@
290
arid
defences
disney
ictr
ratifications
harb@@
revitalize
architect
ems
twenty-seventh
widow
abdullah
recovering
stered
263
holocaust
judic@@
pro-poor
sth
1941
fen@@
generates
kai
y.
dag
eric
rifles
eri
judging
lobby
planetary
cloning
rant
vice-presidents
abandonment
action-oriented
criminalized
destinations
ille
inspect
sac@@
78@@
cn.15
generalized
mysterious
glacier
poin@@
unjust
cents
fo
modul@@
summarize
ves@@
2011-@@
chai
puri@@
warplanes
extractive
ached
aluminium
attorney-general
bosnian
leakage
sediment
vain
akh@@
retire
wg
guitar
inger
testify
tyre
specifying
behaviors
burnt
combines
pend@@
pronunciation
pulling
searched
caucasus
java
oly@@
uri
yar@@
tless
verdict
experi@@
flies
ms@@
ared
blu@@
mai
oil-@@
unwanted
crossings
chem@@
countless
organizers
breed
immun@@
postpone
entr@@
0.3
esti@@
lowered
pools
292
extracted
pling
mercenary
prey
self-assessment
speeds
tization
305
reas@@
sad@@
21-@@
cocoa
minded
springs
unequivocal
logo
mour@@
pom@@
removals
substitution
cut@@
sti
knock
ê@@
hadn
refuses
bers
dining
tren@@
china-@@
declines
delicious
honesty
atol@@
authentication
worm
induce
accessories
damn
trade-@@
trademark
add.4
gps
â@@
binary
hall@@
lex
pigs
aj@@
disbursement
dull
jazz
electr@@
shocked
nest
ocha
indians
kab@@
99@@
south@@
indefinite
alteration
asa
envelope
human-@@
shapes
t-based
ecosoc
inefficient
standpoint
aired
exi@@
abraham
flan@@
havana
diaspora
eral
fm
lag
ling@@
liqu@@
oting
aug@@
destabilizing
dubai
fixing
business@@
imagery
wu@@
entailed
inspire
lé@@
reli@@
shortfalls
ache
closures
disbursements
ohio
representations
rewards
rub@@
yor@@
permissible
tch
wide-ranging
ds@@
hook
hypothesis
pre-session
ult
comic
disturbance
ge-@@
intensifying
interval
luggage
stanley
kins
persian
trusteeship
profiling
astronomical
dense
train@@
mighty
catherine
hunter
execu@@
finals
grams
manchester
reciprocal
285
cemetery
cn.7
paren@@
pl
amman
dressing
revenge
suite
comparisons
drying
imposes
uniforms
deterrent
high-speed
kashmir
metadata
volcanic
wer@@
aziz
chap@@
dings
ele
tes@@
extr@@
fauna
kou@@
l.3
depleted
epi@@
receiver
wheels
aga
co-sponsored
eth
overseeing
continents
fragmented
opcw
releasing
ā@@
forty-seventh
motives
pioneer
smiling
us-@@
ony@@
sb@@
sur-@@
pristina
validated
6.6
bienniums
ras
ür@@
dec
poisoning
cayman
consum@@
dering
gasoline
nominate
penitentiary
viruses
nis
cybercrime
detainee
four@@
iously
1920
2,8@@
bud@@
embark
ity@@
trans-@@
296
genus
obey
uniformed
ante
checkpoint
alaska
endure
3,0@@
journals
open-@@
polio
provisionally
24,@@
meta@@
additions
onom@@
w-@@
brian
odds
angles
cheung
rains
blamed
agro@@
anian
confession
ions
underwater
comman@@
enforceable
fab@@
curious
unused
iner
newborn
pos
aer@@
aus@@
favourite
interpreter
trainees
wool
5.8
atoms
gie
lem@@
6.7
helena
scandal
spontaneous
west@@
cooked
esses
interlocutors
chat@@
cite
itating
wic@@
authorizes
catastrophe
drum
clandestine
onian
shy
sixty
stationed
cescr
governorates
humane
pardon
sni@@
adhered
contemplated
repatriated
eur
near-@@
phon@@
76@@
cardi@@
emo@@
exceptionally
his@@
exc@@
oph@@
az
commercially
computation
reluctance
rotary
sty
tees
23-@@
edited
eur@@
thered
cultivate
drill
anthropogenic
db
lately
man-made
sé@@
unic@@
abolishment
compensated
concurred
dominate
mix@@
ranged
tuition
eman@@
12-month
fellows
harbor
institutionalization
pes@@
seated
×
forty-fourth
sna
stand@@
swear
flags
invoice
kle
susceptible
commands
dependants
envisages
unregulated
criminality
maid
ning@@
tha
4.9
cassation
corpus
penetration
supervisors
peacemaking
undergraduate
maz@@
sie
demonstrators
gation
pep@@
time-bound
cca
oppression
1943
relaxed
importation
micronesia
monument
action@@
bleeding
folded
gordon
habitats
useless
cis@@
hammer
americ@@
grow@@
integr@@
rushed
bacterial
electronically
pad
warn
bathroom
breathe
mainstreamed
overlooked
secular
cast@@
climatic
dow@@
equalization
quote
rotating
soils
top-@@
tz@@
dwelling
infinite
purview
regain
round-table
juncture
postgraduate
illustration
unisfa
unpredictable
howard
implication
typhoon
whis@@
23,@@
ate-@@
deepest
grounded
marie
specialization
urban@@
grievances
oxidation
toolkit
rian
ripe
drafts
ruler
12,000
9.5
handful
hoo@@
j.@@
particulars
paste
2.
eagle
monster
murders
scholar
anti-dumping
federated
flown
stur@@
proto@@
stole
defl@@
philosophical
,@@
267
baggage
discharging
forty-fifth
fried
myff
316
bloody
character@@
gly@@
gravely
conversely
earth@@
iri@@
lad@@
multicultural
swept
thermo@@
mim@@
ples
2050
gnp
sati@@
temporal
mother@@
shade
279
picking
possessing
plaza
abo@@
communicable
homo@@
pn@@
tre
basi@@
ioc
scanning
appliances
businessman
commencing
crow@@
dial
fam@@
′
detriment
director@@
lap
ugandan
acids
prostitutes
rican
romance
differs
cyclical
ick@@
practise
strengthens
www.un.org
flagship
mou
nes@@
proxy
behave
roller
sixteen
underwent
unutilized
collec@@
policemen
ting-@@
-off
genius
retirees
eclipse
ght
archive
censuses
rainy
strides
il-@@
subtle
h.@@
boar@@
qin
rabbit
responsiveness
sag@@
acies
laughing
suff@@
resi@@
ria
à
lessness
jupiter
paul@@
anno@@
bow@@
compassion
fronts
ologically
plastics
saicm
320
medium-@@
ground@@
juridical
registering
vern@@
wester@@
75@@
end-@@
entebbe
researched
flavor
housed
authorizing
land-based
anonymous
attribution
sessional
autom@@
garment
heal
ius
jimmy
leap
pol
sailing
287
enlarged
subsection
boosting
ital@@
sel
sir@@
malian
prenatal
consuming
nings
pervasive
sail
smiled
unsatisfactory
policeman
atom
miller
refining
travellers
0.6
decay
sec
touching
abdul
expedi@@
intensification
irrit@@
poison
borrowed
junction
nin@@
oni
shine
stairs
ju
puntland
268
eous
ft@@
hopefully
guardians
know@@
scan
sells
siz@@
cerebral
ge.@@
vibrant
elled
kampala
keynote
motive
pipes
shim@@
tl@@
330
gni
immunodeficiency
lic
radio@@
viewpoint
broker
enumerated
omission
reuse
burns
communic@@
dpi
total@@
counsellor
hitler
sami
tomb
domestically
posing
registries
sauce
small@@
vag@@
walter
ascertained
bang
diary
facilitators
joins
abkhaz
iter@@
lords
victor
wrapped
xiang
consensual
nodes
saharan
variability
balkans
cage
cell@@
né@@
ols
organizes
censorship
s-related
same-sex
scoring
seven@@
mediator
tul@@
authentic
contradictory
globalized
produc@@
termin@@
anguilla
solo
desires
igh
l.4
0.4
dream@@
f.@@
rep
pluralism
poles
sgb
28,@@
malaysian
ographic
operationalization
persists
self@@
unaware
21.@@
awa@@
cock
festivals
geopolitical
illinois
needy
ventilation
nel@@
satisfying
extingu@@
traveled
mentation
milit@@
spokesperson
1990-@@
22,@@
alex
milestones
sanctioned
aks
dirt
frog
pine
scopic
troubles
'an
irrelevant
researcher
273
ection
evolutionary
foam
knowledge-sharing
chelsea
delighted
dig
r-@@
sop@@
surrendered
x.
stalemate
colours
dispersed
food-@@
mentary
prejudices
contraceptives
vas@@
ati
catastrophic
eds
harmon@@
kov@@
martial
dium
expo
formations
lis@@
repaired
solid@@
alu@@
jakarta
lewis
crafts
expedition
landmine
launches
tage
ambitions
arabian
idal
manila
outdated
bom@@
broad@@
defended
0.8
anchor
null
fancy
irs
tome
towers
trum@@
mec@@
renal
chen@@
eries
guardianship
kay@@
overly
revert
vocal
286
dominance
editors
gender-related
harvesting
hostages
iles
precip@@
shear
6.8
activate
analy@@
chy
door@@
loses
pledging
servic@@
25,@@
8.4
after@@
indefinitely
batt@@
commemorative
non-recurrent
polls
cb@@
detective
exacerbate
nationalism
scenery
wling
geno@@
inci@@
tooth@@
w.@@
65@@
bwc
montserrat
∙
commending
disappointing
tives
wicked
comparatively
computerized
deci@@
inn
jun
libr@@
nickel
achievable
congresses
equip
dation
charm
convoy
excitement
304
eighty-@@
palais
step@@
clam@@
enter@@
higher-@@
misleading
youths
ï@@
anticipation
ferry
igh@@
coe
cp.7
found@@
hopeful
measles
stainless
89@@
apples
mus
sensible
icating
incommunicado
intrinsic
opted
privileged
zh@@
repayment
voc@@
1994-1995
fellowships
ingredient
neighbour
some@@
bamboo
iz
kigali
lisbon
cock@@
tain@@
cables
mobil@@
scor@@
blowing
transporting
weigh
xvii
abusive
nab@@
pain@@
quick@@
remark
exp@@
pockets
py
forty-third
fundraising
manifested
79@@
judah
sandwich
grip
pb@@
inging
nano@@
needle
sarajevo
super-@@
ader
concurrently
long-range
tubes
accountants
asted
intact
reversal
aba
discrete
fixed-term
prospecting
ty-@@
22nd
developer
franklin
iowa
serum
slowing
spin@@
theorem
tum
11,@@
26,@@
disbursed
aquifers
ituri
lenders
stays
1933
74@@
angels
ent-@@
petitioners
taipei
tire
amp
barracks
disastrous
nacional
tized
bern@@
climbed
ensis
misery
yao
281
73@@
accidental
disrupt
favourably
mak@@
disagree
enhancements
shou@@
ín
ens@@
proportionality
appellate
appetite
cge
nations-owned
substantiate
unct
value-added
verifying
wondering
ased
faults
gratis
rap
travels
commune
north@@
battles
chro@@
co-sponsors
forty-@@
intermediary
tolerant
andre@@
delight
collar
gum
9.3
blessing
excludes
25th
buddhism
dilemma
kevin
mei
revive
stricken
cum@@
ira@@
mark@@
bility
deviation
eta
inter-parliamentary
274
colonies
deported
militants
modifying
nak@@
presided
23.@@
check@@
itors
supporter
arrivals
incredible
more@@
somaliland
traumatic
anticipate
pre
third-@@
tireless
exams
iling
inqu@@
patents
penetrated
dropout
euro-@@
jol@@
stimulants
timelines
year-@@
arrives
dic
legislators
valentine
arkansas
eller
probable
rot
spelling
dealers
demolished
seas@@
unispace
ère
country-@@
fertile
deadlock
forward-looking
texture
3,500
60,000
acoustic
agrarian
roger
lively
1996-@@
30,@@
classrooms
jing
mn@@
pet@@
5.9
fifty@@
icity
ik
respectful
situ
tolerate
abra@@
kets
medieval
nationalist
tightly
278
aches
gnss
hepatitis
igad
sticks
ural
weighted
beloved
characterization
distortion
indic@@
non-formal
tti
amazon
echo
ignoring
jap@@
omar
personalities
tb
subtotal
fpa
inconsistencies
precipitation
wears
kan
ottoman
stag@@
burundian
kindergarten
reef
stack
tenders
dig@@
elevation
spla
well@@
dock
renowned
tually
wasted
decoration
fall@@
learners
learnt
lei
liner
mass@@
blair
gel@@
huh
master@@
samuel
slums
spill
deriving
nal
-and-@@
ailing
karabakh
rin
traced
burial
ino@@
laughed
carpet
interpreting
nouvelles
rem@@
shining
atten@@
booking
bother
conversations
escort
unidentified
cbd
non-traditional
thirty-eighth
zy@@
foolish
soluble
bee@@
gao
hed
journalism
licenses
locks
self-reliance
303
candy
straw
theses
meteor@@
practiced
preschool
strife
xiao
bottles
demobilized
interconnected
looting
mammals
proposition
appealing
nelson
six-month
davis
flats
lob@@
raid
aking
eulex
gad@@
mun
spectral
spur
tric
2.0
extra-@@
grinding
blanket
catching
embraced
interruption
ule
295
chips
m23
pig@@
procured
sequ@@
acks
monuments
bach
fixed-wing
olive
ouagadougou
sali@@
two-state
slept
ousness
sex@@
astronomy
evenly
incur@@
monrovia
motherhood
victimization
abbas
desks
tit@@
brokers
comparability
dul@@
eration
exempted
mos
perceive
degraded
fucking
grab
gram@@
pg
tability
tec
ceramic
enquired
forty-second
sweat
fibre
fresh@@
kes@@
menting
understandable
vitality
derivatives
fnl
fostered
sz@@
purity
rais@@
rh@@
eled
indicted
injurious
right-@@
sigh@@
vibr@@
hamilton
individu@@
interdisciplinary
raz@@
villa
8.1
work-@@
7.6
contention
curi@@
temper
worries
ía
1244
angolan
miami
vascular
0.1
contentious
instantly
hometown
vigilance
corridors
objected
obstruction
terror@@
furnished
liaise
bind
brains
constitutions
oils
republics
warsaw
weighed
cataly@@
cured
gateway
qing@@
adap@@
daddy
stly
doubling
compl@@
margaret
oy@@
compendium
stabilizing
wea@@
2002-2005
petty
publicize
retains
aca
lesbian
ović
thirty-fourth
ddt
manhattan
manuel
sour
ancestors
criminalizing
eci@@
naps
self-employed
derives
ello
lamps
mine-@@
abor@@
backstopping
exam@@
leo
unfounded
beast
melting
supervising
63@@
bee
forty-first
hollow
led@@
bah
kw@@
peaks
strategically
triangle
rons
sinks
tackled
vine
1907
550
add.1-@@
aspiration
detentions
excav@@
intermediaries
nick
rhythm
amen@@
centrally
honorary
activist
attendant
comm@@
dog@@
sometime
sug@@
torch
crpd
dissertation
shaw
fgm
ml
pound@@
reforestation
richest
shook
ska
alleviating
businessmen
classify
commissioning
sound@@
write-off
calibration
confessions
reciprocity
struggled
subsi@@
xenophobic
00,000
271
bot@@
elephant
graduating
quebec
277
301
anism
bolt
left-@@
oath
iii.@@
twenty-eighth
ing.@@
roses
shui
traction
translators
al-q@@
amateur
chu
disrupted
enrich
ive
lubric@@
miracle
1998-@@
apologize
bu
heim
shirts
29,@@
axial
bargain
cholera
gong
inaugural
medic@@
resource-@@
haz@@
informative
knees
motors
ograph@@
regul@@
turing
basement
frustrated
medals
reactors
bolster
centered
energetic
modernize
monastery
outbreaks
prophet
reassignment
rounded
brake
purification
thou@@
ulate
gia
helsinki
investigator
liberties
outlying
primitive
aligning
csos
hg
radius
translations
cle
hai@@
rd
doses
oon
singh
entrenched
pas
robinson
sensitize
tment
cardiovascular
categor@@
halted
memor@@
nodules
quer@@
ambulance
caicos
ense
trunk
urus
downsizing
enzyme
fleeing
fus@@
replication
scar@@
sterilization
unrestricted
divi@@
kum@@
modern@@
reactive
twitter
depart
kills
1930s
arrow
chop@@
compel
inclusiveness
pave
celebrations
mach@@
naturalization
rene
tow@@
traits
breeze
bulgarian
irresponsible
restorative
retar@@
booklet
formidable
general-purpose
homicide
lasts
normalization
silly
un-spider
downs
pest
blown
hitting
sellers
sur
zar@@
425
cas
dp@@
err@@
intercourse
negligence
nis@@
outright
recordings
six@@
volunteerism
kl@@
span@@
fur
isi@@
mens
neighboring
raids
stic@@
ô@@
150,000
animated
shark
wr@@
2012-@@
author@@
simulated
stealing
2008-2011
bids
corners
cubic
cus@@
idle
lai
paraly@@
remittance
thirty-seventh
channelled
dupl@@
fts
incapable
ug@@
1938
fin
jon@@
nutrients
plc
corn@@
freed
o.@@
abc
gee
ifrs
proportionate
ă@@
fog
unprofor
mentioning
mountainous
pc@@
viral
zhejiang
23rd
gesture
ish-@@
ket@@
straightforward
widen
highways
hubs
mechan@@
mel
oa
obligatory
prerequisites
xml
aggravating
doctrines
pier
rivals
zhao
clark
veri@@
1936
appe@@
lions
pus
sne@@
taiwanese
bodily
ceremonies
cigarettes
pumps
tracked
unclos
commun@@
inver@@
migrate
veterans
public@@
stabilized
devising
drawings
eec
evidentiary
inhumane
line@@
ose
artery
behaviours
ecb
musicians
nucleus
setbacks
condoms
lighter
mentions
rehabilitate
tissues
land-@@
tang@@
thirty-second
automotive
separating
behavioural
injecting
markedly
nd
ticism
wilderness
asts
cler@@
e4
observ@@
real-@@
spra@@
al-shabaab
brac@@
digi@@
improvised
ires
plateau
in-kind
stigmatization
ements
fistula
gangs
illiterate
nel
parade
retrieved
broadened
leaflets
studios
trainer
partition
stellar
stun@@
€
2004-@@
add.5
approximate
fred
hammarskjöld
stle
struggles
24-hour
bal
cfcs
chal@@
gambling
list@@
rim
tory
historians
html
sheer
2,9@@
dominica
principe
pu
spelled
tung
mayors
onub
runner
stru@@
sworn
1,800
fuller
neo-@@
unowa
steven
unrelated
zy
ador@@
crum@@
erw
l.6
potato
revolving
answering
concurrent
curtain
l.7
mahmoud
pis@@
pollu@@
preventable
dwell
lawsuit
ros
yin
chadian
gin@@
magne@@
sively
250,000
lev@@
trou@@
ager
dietary
discrepancy
man-@@
norm@@
oi@@
retrieval
stereotyping
vely
volleyball
abe
dignified
grou@@
hast
lip@@
reefs
roy
282
50-@@
abs@@
charming
bursts
child@@
cn
employs
ninety-@@
questionable
30th
hockey
leveraging
pric@@
specimen
thick@@
310
chim@@
christopher
epidemiological
redundant
stabil@@
block@@
xes
87@@
edly
expires
ideally
insecure
miguel
orchestra
refinement
spi@@
buil@@
cater
petitions
conf@@
naz@@
prominence
zhu
poured
rmb
tos
ulated
001
blueprint
oxy@@
souls
arranging
pork
tunisian
8.6
archaeological
celebrating
polite
sunset
truce
ad-@@
crashed
houston
ind
ishment
liquor
thirty-ninth
desirability
k.@@
mall
bunch
bye
kok
residency
roo@@
carl
e-government
joy@@
oids
rulers
cord@@
pré@@
utter
awi
earnest
materi@@
mem@@
rulings
similarities
ł@@
fp
grains
urine
blew
carcinoma
fications
proc@@
small-@@
conference-servicing
380
acres
fantastic
israeli-palestinian
mold
protectionism
public-@@
terr@@
where@@
plug
posture
slm
supper
tn@@
alis
antenna
arbitrator
gat@@
solicitation
aur@@
nexus
potter
rence
1,600
cooperates
gle@@
hebrew
internation@@
mohammad
quasi-@@
rented
tism
ian-@@
kap@@
lus@@
sadness
g-20
maori
tian@@
pes
scri@@
dot
forest-related
fugitives
prioritizing
canton
cavity
compromising
cool@@
dead@@
guer@@
insi@@
philatelic
xin@@
progressed
wed@@
cho
lifestyles
nail
stark
blaz@@
eviction
js1
ks@@
potatoes
sham@@
spy
tripoli
estimating
levy
parish
terminals
therm@@
ladder
switched
cabin
deliberation
insists
cred@@
geographically
lazy
voyage
whist@@
boots
competency
knight
reti@@
vir@@
testi@@
thirty-third
xia@@
co-chaired
conflict-@@
dav@@
hp
multitude
xu
ices
paved
expel
partisan
rebuilt
supermarket
thri@@
massacres
needing
extinction
mum@@
bureaucratic
hia
informally
stipulate
alarmed
attractions
baker
conflict-affected
ero
organism
spared
inter-sessional
pre-school
ral
rejecting
triumph
cz@@
foreigner
l.8
farther
intersection
inward
400,000
dine
estonian
hypertension
monte
tomy
world@@
baselines
inactive
laundry
revealing
28th
completeness
undesirable
1,300
fum@@
stand-alone
8.2
articulate
badminton
civilized
naming
optimized
sies
ys@@
bon
cio
figured
multilingualism
weigh@@
09@@
bullets
circuits
mongolian
spir@@
401
ago@@
insulation
refrigeration
rescued
subscription
colli@@
counseling
herein
pants
pulmonary
shaking
7.8
ellip@@
expiring
insect
punishing
roosevelt
trainings
capturing
heavier
khal@@
lib@@
mills
sandy
selfish
stor
endowment
geology
indexes
myth
token
302
asses
peripheral
rea
warheads
ame@@
athlete
compares
direc@@
eccas
sadd@@
thirty-sixth
exporter
icon
sg@@
teaches
battalions
engages
federations
meanings
phasing
rugby
testimonies
bron@@
geometry
restructured
unofficial
colorful
employ@@
importers
kate
plague
renminbi
non-interference
physiological
surroundings
assignee
apartments
concessionaire
hearted
jr
cites
construed
deprive
envisage
oblast
salvation
worsened
lgbt
simplicity
uck
frightened
optimizing
rite
1937
athletic
barri@@
breath@@
renaissance
shop@@
tion-related
lau
magnificent
mee@@
pedro
deem
dividends
labels
termed
311
advent
percentages
emia
illusion
maryland
et-@@
exploiting
fluctu@@
albums
bam@@
bp
cass@@
ichi
khan@@
merge
jumping
lows
pond
reversing
tranqu@@
daw@@
douglas
high-ranking
ltd.
slipped
handicapped
health-related
jonathan
ocy@@
oscar
stering
stic
thal@@
650
bean
stern
cautioned
fru@@
kicked
lined
m2
plea
arians
boot
fas@@
mers
methane
nanjing
orna@@
remarked
stagnation
allen
deterrence
marke@@
precautions
rachel
eco
interfaces
presumably
skin@@
skirt
common@@
embassies
graph@@
keyboard
lead@@
magn@@
ration@@
chloro@@
deduc@@
diego
drastic
liness
mps
thre@@
viewers
24.@@
conductor
diminishing
ico
iraqis
refund
dick
fundamentals
jam
noticeable
strangers
thirty-fifth
serviced
graves
jus
kansas
ril@@
assemble
commons
exerted
g-8
mist
patch
redistribution
turbine
commerci@@
nim@@
handover
metabolism
ots
potassium
scaled
community-@@
dark@@
ddy
grouping
jian
kad@@
clash
eas@@
goodbye
lubricants
regression
secretly
straigh@@
inherit
metallic
polygamy
strings
temples
admire
al-sha
chiefly
droughts
heart@@
type@@
dwarf
inate
sson
yuen
bio-@@
biofuels
notions
cane
caregivers
inherently
intranet
lef@@
sacrifices
xy
abro@@
amis
avert
lest
patriarchal
reimbursed
semester
trop@@
wetlands
yev
27-@@
9.4
fast-@@
inspectorate
cav@@
flux
neo@@
proficiency
turtle
ean
tolerated
24th
asha
deer
fairy
manners
nik@@
unh@@
barred
imper@@
polarization
verte@@
edges
ologic
tee
traces
validate
wai
awake
evalu@@
l.5
secre@@
22.@@
inc.
rude
arium
fond
tightening
1919
astr@@
cere@@
tops
1900
ald
ario
generously
macro
offerings
propagation
.it
contra@@
daunting
expended
illes
vice-chairmen
aters
mis
sony
6.9
architects
categorized
hamburg
transplantation
xix
aces
determinants
headache
inaugurated
insurgency
medium-
apology
hill@@
icp
digit
peculiar
rot@@
bend
multi-donor
shakespeare
sultan
-2
cmp.1
lent
ump
complies
estates
mu
osity
undocumented
doubtful
ouse
scan@@
sliding
mini-@@
port-au-prince
smel@@
2001-2010
aine
chair@@
job@@
marketplace
stir
tales
teen
aden
await
boun@@
humble
1,400
1925
butterfly
impulse
logs
rail@@
sins
1997-@@
engagements
raft
rolls
stewardship
299
km2
versa
asbestos
cheque
diving
antarctica
authorised
buck@@
potent
asting
dili
zhu@@
appropriateness
distorted
gg
inauguration
pple
sales@@
spotted
tivity
affiliates
downloaded
ghs
anga
jing@@
lon
shortest
supposedly
27th
frost
melt
resolute
sadly
xxi
284
audio-visual
endosulfan
flow@@
mit
roy@@
ampli@@
bernard
biosafety
chilean
inter-state
pistol
remand
evacuated
forgiveness
pier@@
retailers
uncomfortable
untaet
vers@@
7.7
consciously
contributory
multi-ethnic
premiums
quantified
rocky
sunny
withstand
aaron
luci@@
pur
ancestral
anthony
perpetuate
reserving
verbatim
ankara
drastically
drift
incur
itl
oblig@@
unreported
workplans
gou@@
shru@@
sympath@@
ace@@
cleaned
26-@@
bans
coca
paras@@
stum@@
tuna
accountant
elevator
song@@
stimulation
0.9
ato
breached
cone
constituents
exterior
rbm
rocke@@
shareholder
taxpayers
cpr
dale
dwellings
inaction
remarkably
runway
user-friendly
deed
horrible
youn@@
al.
attorneys
unmarried
2.45
filtering
ine-@@
uniformity
budapest
exemplary
9.6
denounced
fishermen
tionist
assignor
endured
resign
scrap
broadest
conserve
fluor@@
productions
spends
theoretically
advises
grazing
sv@@
l.9
unpos
worthwhile
accustomed
allo@@
awaited
neonatal
oun
stalled
00-@@
conju@@
democratically
impoverished
inaccurate
oran@@
patriotic
peruvian
surpluses
winding
1935
alleging
armor
filters
fry
injuring
unhindered
．
franch@@
lily
non-citizens
sionary
strains
29th
borrowers
clear@@
dividend
geostationary
imagined
lamb
oping
pd
pod
proprietary
repairing
specialty
sung
vet
---@@
fictional
fting
isol@@
kelly
russians
306
7.9
feast
interreligious
invasive
khmer
mani@@
thy@@
307
amsterdam
aung
brochure
ias
l.10
50th
ato@@
compan@@
complexities
differed
ind@@
inquired
robots
cardiac
consul@@
deduction
furn@@
inven@@
portrayed
technician
barrels
qui@@
refurbishment
repertoire
spectacular
curbing
curse
extremists
jurists
persuaded
rhe@@
stall
thirty-first
afforestation
bangui
twenty-ninth
291
acking
misunderstanding
provoked
yun@@
asst
dim@@
hfcs
ibm
relaxation
beau@@
exclu@@
fragments
lisa
printers
skating
bath@@
filming
gary
manned
ritual
xing
85@@
drank
handles
provocative
tingly
tornado
aquaculture
coo@@
disturbances
fig
gender-responsive
renders
atism
paternity
perf@@
psychologists
remembrance
audiovisual
optic
probation
upstream
weights
jeff
lecturer
non-member
specializing
underdevelopment
laptop
pathways
relieved
turn@@
cakes
informs
breadth
hec@@
litter
localities
scep@@
8.8
backbone
biting
detector
gradient
massage
mergers
mistaken
profoundly
civil@@
diff@@
eb
indivisible
insurgents
objectively
wo
2,5@@
27.@@
blend
continual
predecessors
1918
ables
boeing
chic@@
east@@
erected
jp
ki-moon
navigational
olu@@
reap
semin@@
unduly
admiral
ber-@@
dublin
kee
per-@@
testified
abolishing
cough
cy-@@
interdepartmental
kitts
patrolling
prob@@
round@@
shah
tail@@
vert
1874
app
contraction
hindu
interfaith
miserable
multiplier
culminated
curiosity
discouraged
mentality
transatlantic
curative
gonzález
hau@@
deline@@
tianjin
constellation
inflammatory
smen
stac@@
var
burma
cyber
philosopher
ttle
26th
cuisine
kiribati
nevis
downstream
jen@@
numer@@
wy@@
edit
kurdish
planners
principled
promotions
shandong
valves
crowds
custodial
exploded
gence
1a
dorf
es-10
peti@@
repertory
ambiguous
kentucky
ruin
thir@@
wp
ó
294
buddha
chur@@
escalating
high-tech
pumping
region@@
xviii
comfor@@
darling
hesitate
invariably
revitalizing
shouted
youtube
airplane
aq@@
atically
johan@@
munich
1.0
airborne
annie
competed
human-rights
occupancy
satisfactorily
sculpture
afghans
epidemics
fm@@
hed@@
squadron
wash@@
delivers
divergent
gaz@@
nova
galvan@@
imag@@
offspring
printer
8.7
decorated
fron@@
giants
itting
lati@@
ld
ope
warmth
whale
ake
chairperson-rapporteur
cl
cute
generals
reimbursable
digest
fore
practicing
simpler
thanksgiving
chester
dable
hans
hormone
perme@@
pros@@
regi@@
xu@@
yun
dividing
ect
itor
ashamed
crane
lump
minsk
tcdc
yers
casualty
morale
prestige
scratch
transgender
coincide
hurricanes
lil@@
parame@@
sten
tamil
temptation
concentrating
instructors
marsh@@
napoleon
referenced
sweeping
nik
omitted
genetically
jason
lotus
pntl
screens
aller@@
jia
malicious
shelling
tablets
union-united
wers
hl
iring
retraining
venice
olds
plains
replicated
straits
ght-@@
gic
meditation
stud@@
ée
128@@
298
altering
cn.3
ivan
poster
tad@@
vice-chairperson
airfield
berries
confess
drylands
faint
op-@@
ambiguity
cinem@@
deng
infr@@
shrinking
thunder@@
tus@@
ana@@
conceal
gib@@
resolutely
michel
minusma
oceania
seattle
walker
293
bending
interagency
obligated
pan-@@
saturated
swap
tis@@
watershed
andr@@
configured
ik@@
illu@@
unavailable
dismiss
occupies
resonance
abductions
amphetamine-type
chef
mail@@
similarity
outlet
vić
writings
dim
gb
magical
mccain
u.s.@@
acceler@@
formalities
paradise
home-@@
stal
2.30
angi@@
kou
motorcycle
synthe@@
wick
celebrity
intercountry
1994-@@
bubbles
bund@@
co-organized
coded
coke
devastation
franchise
hen
ming@@
punishments
thed
vivid
yielding
deposition
exten@@
insertion
philadelphia
prof.
ures
war-@@
watch@@
officio
routing
ussr
capsule
jungle
other@@
scrip@@
1921
aero@@
amine
deteriorate
distinguishing
goat
presences
1,700
karen
leased
one-third
postponement
publicized
cao
fang
fined
fortunate
hip@@
kb
morals
mosquito
sap
sca@@
screen@@
spon@@
wow
kilograms
modal
97@@
arab@@
illing
kidnapped
nas
prague
pretoria
2a
level@@
locking
mtsp
ret
unspent
advantageous
amor@@
atus
eigh@@
envoys
inte@@
kenyan
max@@
profitability
thers
acqu@@
hero@@
iner@@
03@@
accumulate
annotations
chartered
lightly
photographic
08@@
aven@@
crimin@@
e-learning
genre
ing-up
negotiators
prayers
south-@@
unrealistic
betra@@
capit@@
documenting
eight-@@
ether
shadows
4,0@@
climate-@@
publishes
viii.@@
connec@@
differentiate
eter
interlinked
mortgages
nine@@
plots
dealer
slaughter
tram@@
twins
xinjiang
yahoo
brethren
caf@@
cerf
chairing
containment
ech
eland
fool@@
headings
skull
vity
well-established
athletics
bene@@
distinctions
hyogo
leasing
oak
testament
bless
bujumbura
frequencies
guatemalan
ober@@
processors
reconciled
results-oriented
sed@@
upstairs
who@@
doesnt
hips
khar@@
kpc
senators
tp@@
curves
intel
lyrics
moun@@
reconsideration
refriger@@
297
announcing
lehman
prizes
separ@@
sharia
2,4@@
comet
inadequacy
lining
eo
goldman
invaded
rt
stakes
1993-@@
anton@@
locality
trin@@
cycling
echoed
lieu
chun@@
multilingual
oriental
scarcely
team@@
tetra@@
bandwidth
data-@@
denies
dictatorship
easter
francophonie
gali
immer@@
interpersonal
madame
pec
pensionable
resourced
artisanal
geor@@
residues
weal@@
apec
awarding
kar
lac
substitutes
vancouver
wright
acquitted
jabal
rectify
blue@@
fide
iro
lied
orbits
petersburg
thering
308
uti@@
anderson
candle
co-ordin@@
dialect
einstein
gender@@
prints
rationalize
researching
venus
1932
8.9
cease-fire
depths
ordin@@
polluted
portrait
rati@@
unarmed
groundwork
langu@@
recap@@
reservoirs
trustee
cliff
dispersion
minnesota
nucle@@
primacy
regulator
toe
unusually
1917
ddr
lawrence
savi@@
characterize
coated
furnish
pie@@
sg
torres
waiter
linux
storing
symptom
tastes
antiqu@@
averaged
classmates
in-country
merchants
salts
than-@@
underpin
f-16
galaxies
inscribed
kafr
pathway
pcs
priced
staged
thunder
vable
yang@@
40-@@
co-financing
compressed
cros@@
inning
interchange
sf
volcano
awg-lca
financi@@
glorious
specimens
uncontrolled
borough
gical
icescr
non-tariff
unhealthy
1999-@@
9.9
aise
alex@@
antibiotics
cd-rom
deter@@
interrup@@
itations
l.11
'b
christ@@
enne
gym
healthier
indiana
oun@@
resorting
rodríguez
smuggled
treats
innov@@
nhris
riot
sep@@
uefa
4,500
construc@@
contradictions
fati@@
gusta@@
north-west
rainbow
repay
box@@
buck
gender-specific
iting
principality
uncommon
underpinned
bot
ener@@
marker
uring
warehouses
beta
historian
inous
trajectory
acker
boxing
bruce
inter-committee
intergenerational
isar
len
nul@@
perfection
singular
amer@@
composer
ference
fres@@
go-@@
nia
assaults
biop@@
equals
orch@@
stricter
browser
democr@@
kul@@
predictions
scrutin@@
topical
chooses
conve@@
fbi
fig@@
1718
2,7@@
consensus-building
creator
rela@@
1,100
45th
colloquium
converting
illegitimate
incub@@
much-needed
pad@@
selectivity
sli@@
chit@@
hardest
jas@@
narr@@
righteous
riots
silic@@
skill@@
sub-items
tidal
tural
9.1
albanians
collector
nicholas
rm@@
vetting
ami@@
assigning
cic@@
feeds
fic
l.15
Á@@
altar
blood@@
configurations
editions
gats
harnessing
internship
kuala
screened
slow@@
spinning
tao
chinas
itarian
1934
evidently
olog@@
340
accidentally
bei
boiling
eda
intersectoral
leap@@
spinal
trousers
unavoidable
witch
dynamism
omer
parole
wetland
commentators
dist
itable
old-age
spa@@
unjustified
amen
bypass
dialog
prosecutorial
recipe
sounded
assad
broadcasters
dres@@
mig@@
obs@@
vitro
wax
333
fuck
grad
ole@@
polic@@
40,@@
arbitrators
id-@@
parenting
saith
sino-@@
story@@
40th
beard
inaccessible
repe@@
silva
steer
transitions
arily
bounds
confer
followup
footprint
stom@@
subscribers
1931
1914
cus
disciples
ef
erupted
gé@@
l.13
salad
technology-@@
venezuelan
9.8
aden@@
dict
jacques
scrap@@
spark
sund@@
wavelet
zam@@
exhibited
framed
kai@@
napas
reconvened
resurgence
workplaces
astronomers
bees
démocrati@@
galileo
patho@@
ao@@
atin
idity
oming
witnessing
309
bia
lur@@
nur@@
scout
trem@@
ark
carter
celestial
demilitarized
ellen
entrust
pill@@
bb
formulas
messenger
transferable
adjudic@@
billy
depicted
hardships
hem
referen@@
remediation
yunnan
adel@@
ation-related
cares
clustering
cows
indictments
wizard
alfonso
dismantle
map@@
penny
pioneering
pretend
sighted
cun@@
eurostat
faithfully
font
honored
job-@@
painter
recognise
313
drin@@
gang@@
phosp@@
weekends
hea@@
infringed
jewelry
pir@@
progression
surveying
unconstitutional
zhen
cfc
farmland
maize
neighbourhoods
suburbs
312
renounce
unintended
zaire
founders
health@@
lay@@
ryan
collabor@@
commen@@
dug
genome
gies
perimeter
re-establish
unconditionally
vation
vigilant
coaching
equipments
reson@@
resp@@
ume
jav@@
sergeant
textbook
universit@@
acious
arized
brochures
hun
mother-to-child
niche
rom@@
swaps
unconscious
enrollment
gists
latitude
mario
s-based
seals
upbringing
deser@@
prominently
volunteering
alling
asteroid
cared
determin@@
mf@@
translator
§
1928
adhesive
awg-kp
bug
chongqing
cht
geo
l.18
discoveries
enthusiastic
louisiana
metal@@
propelled
rested
rostrum
weird
28-@@
ova
pupil
rad@@
specificity
caps
jokes
mosques
pel
reimbursements
ultraviolet
biography
colonization
complements
parcel
vered
icac
is-@@
machining
metho@@
year-end
1923
bonded
cartoon
cwc
souvenir
sub-paragraph
wrap
country@@
divert
folder
ice@@
oke
profession@@
recycled
unding
unequivocally
beaches
circulating
deficient
gui
handing
indul@@
pat
understandings
ames
creek
dag@@
opol@@
reuters
robin
anti-trafficking
beg
nah
repeating
tica
tricks
warrior
belarusian
cups
disaster-@@
quotation
ale@@
distortions
flaws
lid
molecule
pneumonia
space-@@
blatant
clip
ected
low-carbon
now@@
pause
pitcairn
redesign
ui
60-@@
cheek
devastated
icj
oped
sperm
watches
brigh@@
ité
marx
ris
safeguarded
sharon
fl
honestly
mini
senses
98@@
flash@@
relocate
woke
andy
concessional
correlated
dakota
hing
limbs
epa
explorer
fernando
jiangsu
militant
program@@
sion-@@
commentaries
grav@@
martínez
post-crisis
predominant
shipper
wipe
31st
desp@@
grassroots
lt
market-based
organis@@
orial
rodri@@
self-esteem
tendering
two-day
akin
aled
bored
dro
jade
kernel
speculative
tuous
vt
,000,000
courtroom
ffe@@
mississippi
pher@@
summoned
ten-year
anchored
cu
jisc
l.12
medications
abil@@
melbourne
merging
pharmaco@@
awful
flames
interrupt
yourselves
br
crp.2
manifestly
telecom
workable
dfs
garments
l.14
nursery
pers@@
proof@@
unfavourable
concealed
davi@@
eroded
evi@@
market-@@
minus
mom@@
publishers
richer
sorties
turk@@
addenda
dealings
calories
incursions
info
sub-regional
takeover
uma
bap@@
camp@@
flourish
idae
l.16
morph@@
pow@@
sarkozy
side-@@
feminist
forcible
succeeding
sympathetic
orient
rhin@@
separatist
slogan
guaran@@
intr@@
surpassed
tailor
alizes
kri@@
lumpur
overthrow
sch
shen@@
shor@@
tough@@
waist
wonders
annotated
cold-@@
cult
derivative
packet
syndic@@
troika
weed
cardinal
combinations
gus@@
narrowly
nautical
unlawfully
utah
webcast
aliz@@
commissioner-general
hydrox@@
metohija
michelle
nutrient
publisher
stiff
tenant
transient
xin
asis
chlorine
hob@@
mediators
offense
warriors
318
cid@@
detailing
dj@@
extortion
field-@@
humidity
sanctuary
security-related
underpinning
bloom
calcul@@
catalo@@
diplomat
hunan
pal
setup
thrive
bankrupt
info@@
unmibh
accent
mean@@
sans
smokers
thumb
vat
foodstuffs
hop
short-
1992-@@
externally
formalized
ios
munition
suffice
dismantled
marble
pts
sas@@
surname
wounding
zul@@
86@@
affirmation
carved
contacting
corrup@@
father@@
guo
jay@@
qa
queensland
spring@@
cameron
expendable
lia
magni@@
offic@@
prerogative
slot
uv
2014-2017
brigades
capitalist
coma
ership
dispos@@
fatty
hir@@
labourers
origin@@
pencil
plutonium
reform@@
sars
stripped
stry
wool@@
customized
punc@@
ruins
sweep
emin@@
gbagbo
illo
installing
motivate
non-refoulement
popr@@
wont
allotted
hydropower
passionate
reclamation
sos
84@@
condom
mb
reclassified
314
absurd
atics
cantons
generosity
seren@@
utterly
after-@@
battlefield
blows
cris@@
deco@@
hong@@
imperi@@
reviewers
roll-out
seven-@@
surgeon
wikipedia
325
identifiable
low-
pfos
splendid
caseload
goddess
napa
rang
bn@@
far-@@
kyi
l.19
legi@@
lumin@@
monks
non-united
wel
60,@@
grenade
practising
angel@@
dams
devotion
hic@@
ility
plantations
stimulated
suppl
banner
instruct
porter
sincerity
tox@@
42nd
ambi@@
appro@@
crews
dez
doc
peace@@
phosphate
thum@@
319
bullying
float
lick
microscope
tigers
46th
conditioned
goodness
obscure
prc
prin@@
pton
semiconductor
aegis
iasc
lofty
santos
sap@@
adhering
admiration
matthew
phoenix
variances
courageous
german@@
progressing
cart
envisioned
gospel
laura
congregation
crushed
explores
flav@@
lingu@@
thu@@
420
afc
assembl@@
atlanta
chr
collects
decisively
dldd
grac@@
harmed
millim@@
operationalize
outskirts
regeneration
veterinary
2,6@@
7,500
beatings
elev@@
kel
l.20
lithuanian
tactic
arithmetic
continuum
erie
it.@@
jay
oscill@@
revoked
seconded
splos
wherein
crush
directional
ink@@
scientifically
sine
unmiset
depres@@
predomin@@
case-@@
corp.
div
drug-related
sociology
bamako
dg@@
enlarge
halfway
lymph@@
reflections
thresholds
1737
9.2
compil@@
dious
hrs
prsp
shalt
wrestling
ww@@
9.7
movable
standard-setting
tf
-like
195@@
associ@@
belly
capacitybuilding
coloured
gyp@@
motapm
remotely
dv@@
fourthly
queue
twenty@@
uniquely
causal
fibers
first-hand
gros@@
wee@@
wrink@@
caucus
verb
beams
cavalry
lobbying
twist
ultrasonic
wang@@
95@@
assesses
less@@
manship
non-members
osa
pepper
speeding
tful
unds
workflow
asi
nate
switches
augu@@
heavens
restructure
wires
cohesive
electrons
enced
fuelled
inhibit
intervening
obe@@
pulp
reopened
shin
315
chuck
classi@@
ethanol
hul@@
int@@
inten@@
interfe@@
styl@@
applauded
cot
hull
scar
time-consuming
absorbing
bottlenecks
essed
extinct
jel@@
malignant
righteousness
tendencies
woven
2013-@@
affordability
aster
asym@@
formulations
slice
-free
-general
hierarchical
thal
catches
kung
medicinal
obstruct
build-up
dir
nine-@@
starch
big@@
communes
convoys
gloves
concili@@
realizes
25.@@
campaign@@
deployments
informational
inity
inspiring
mesh
newer
resemble
resorted
admits
alterations
footage
glow
ray@@
sore
tained
afflicted
bureaucracy
elusive
leak
maoist
rebel@@
saddam
sank
subsidi@@
radios
tlatelolco
2004-2007
bud
electorate
sixty@@
diana
rell
thing@@
370
adjudication
harmonic
henceforth
insult
non-existent
wg.6
advertised
cannon
pedestrian
porous
refin@@
subscribe
yemeni
600,000
alcoholic
coc@@
escence
incidental
jeans
mah
proactively
boiler
complicity
dell
dians
endeavoured
eti@@
lock@@
moore
nc
reschedul@@
stray
50,@@
annu@@
cac@@
evasion
halls
jenny
lb
ppps
repealed
represent@@
rewarded
data-processing
farewell
mitrovica
specificities
whichever
adb
arbit@@
dae
january-@@
ossetia
spor@@
upgrades
323
bacteriological
draw@@
guan@@
jah
protested
reindeer
summarizing
tab@@
unpleasant
wmd
5,500
forwarding
wallet
1911
1927
2007-2008
alle@@
brass
consulate
glossary
hurts
stretching
tiveness
weighing
delic@@
guarantor
expedited
genous
harris
impe@@
jie
l.17
light-@@
liv@@
sealing
arafat
dissip@@
fd@@
finger@@
reproduce
2,400
852
bbing
hydrocarbon
tionaries
ethn@@
minu@@
mistrust
omissions
vest@@
yoga
1904
cancers
cole
hou
ond
renovated
santo
-in-law
1912
abstain
cadres
gens
glucose
modi@@
nineteen
nou@@
pbc
peace-@@
protestant
traps
allah
pains
sequences
thine
uprising
copying
currents
geo-@@
knowledge-based
yon@@
alphabet
amino
communism
fork
infiltr@@
infringe
pollutant
-of-@@
charities
dave
ially
issa
people-centred
prima
union@@
wri@@
annexation
chiang
ping@@
reinsertion
tunnels
typing
1924
abi
counteract
deliverables
foul
overriding
seventeen
solicit
catch@@
coronary
hein@@
lad
piloted
pots
stereotypical
2005-2006
80,000
comics
groom
implicated
lodging
safe@@
alled
assass@@
body@@
concer@@
habitual
hch
manipul@@
mano
shir@@
underneath
disagreements
insulin
obedience
politicization
pé@@
visu@@
yong
94@@
antenatal
bass
compensatory
computational
kling
valu@@
bt
heinous
inquire
interviewer
jil@@
joints
necessitated
ocean@@
oth@@
skeleton
suitability
afar
grandpa
kable
out-@@
ps@@
sme@@
une
assuring
illustrative
invoking
opec
sea@@
stationary
stewart
verbs
ballots
overweight
poisonous
pron@@
ce-based
ghua
habeas
missouri
strata
strives
ña
ees
retrieve
ylene
apped
banana
cup@@
dump
hcfcs
mali@@
sians
wit
designating
entrepreneur
herb
intervened
loudly
ophy@@
pm@@
quantify
salient
semi@@
smiles
thompson
375
bounded
fora
ig
paper@@
salu@@
unimpeded
expelling
karl
mat
nt@@
ply
beh@@
dash@@
jem
poverty-@@
protectionist
shu
altitudes
benchmarking
chol@@
coaches
environment@@
folks
highness
itan
level-@@
monk
musician
overhaul
tents
tighten
tones
veteran
dir@@
gcc
pam@@
survivor
teens
ux
vism
3.
adobe
correspondent
hourly
impair
impres@@
splitting
1612
happier
sea-@@
tty
ascen@@
detain
dip
fiers
shrink
spreads
vegas
hrw
indifference
landlord
moz@@
spider
trophy
bren@@
connects
implicitly
sizeable
uncovered
airways
favours
lava
quali@@
reconciling
critic
cumbersome
ente
gaming
jac@@
prevails
undo
envy
hara
hf
lia@@
nurture
responsibly
tual
afterward
inhibit@@
negligible
prior@@
pyongyang
siveness
subcommittees
wild@@
acet@@
ani@@
exposing
inda
inflammation
soaring
toyota
ute
dome
dragged
flawed
graham
hebron
ledger
pent@@
purse
ridiculous
tindouf
comprehension
debtors
interlinkages
matt
rum
utc
arism
divisional
eld
equivalence
gio
manually
perseverance
procurator
staring
temp@@
touch@@
visually
courtesy
dod@@
impl@@
john@@
m3
slan@@
summar@@
treason
ank@@
bey@@
dah
doctoral
elapsed
extra@@
person-@@
portfolios
quanti@@
guan
heir
niño
reacted
thetic
til
wartime
ble-@@
grandma
narrowing
sinking
valencia
346
abu@@
augment
directs
ffed
multilaterally
326
ailed
braz@@
holo@@
mum
preside
toxins
upright
zal@@
387
520
bombers
domestic@@
ke-@@
keepers
marathon
1514
fluctuation
law-enforcement
mut@@
ac.26
bombardment
cles
end-user
fountain
grenades
itate
locals
shortened
balloon
bos
essness
isolate
stubs
totals
vouchers
emerges
heels
setback
turnout
abdominal
amar@@
brutality
colum@@
islam@@
oven
solu@@
starvation
stat
toast
attracts
authoritarian
cfa
fights
impending
meteorology
tabled
x.@@
ameli@@
biom@@
hated
synchron@@
bic
bore@@
devi@@
fares
insufficiently
ske@@
transformations
ultra-@@
ady
alise
exo@@
inated
nun@@
ransom
won@@
---
1922
abbreviations
bidders
disciplined
english@@
inasmuch
jerry
wasting
dedicate
incite
rob
synthesized
tyres
wide-@@
drums
fain@@
mixtures
princes
cosmic
ice-@@
inos
kisangani
modernizing
soo@@
wait@@
wre@@
1926
44th
abo
aft
allu@@
ancillary
butt@@
cruci@@
desperately
endowed
insp
ipped
pharaoh
toes
uli@@
aye
endorsing
homelessness
intrusion
laz@@
pooling
reinforces
heroic
one-day
tandem
undp-@@
weak@@
2,200
linda
predicting
revived
schoolchildren
sibility
cheerful
ication
idp
paradox
paralympics
sprink@@
squeeze
stes
thes@@
tong@@
bians
cracks
edinburgh
migrated
originate
shrimp
thur@@
'at
aide
encounters
kp
macro-@@
tabl@@
alon@@
arguably
bi-@@
deducted
dio@@
embargoes
emigration
instructor
non-violent
para@@
paradox@@
precluded
saturn
tally
console
hangzhou
radically
sional
std
digging
re-election
referrals
shat@@
udes
uncc
authenticity
bomber
commenting
congestion
ding@@
markers
messaging
susp@@
visions
2025
ampu@@
looted
swallow
aroused
complaining
hitherto
seafood
sever@@
sulfur
avail@@
contend
florence
orbiting
re-elected
seam@@
sided
yak@@
335
electrode
ivory
lucy
ushing
ania
bred
complementing
lawfully
ler@@
orchestr@@
underestimated
bere@@
forfeiture
governs
meaningless
ong-@@
taxpayer
betty
confusing
eli
lyn@@
ng@@
osaka
possessions
sewerage
buttons
fermentation
monarchy
not-@@
ultra
0.0@@
burton
chers
criticize
expediting
kind@@
morphology
archiving
cheat
delaying
ffle
landfill
prestigious
reopen
sergio
mgr
mob
newest
pooled
quie@@
subjec@@
suffrage
unqualified
bre
cheer
genetics
inflationary
mess@@
oceanic
protec@@
realism
service-@@
strips
subvention
unikom
ushed
850
alfred
gossip
isba
jaz@@
miner@@
musi@@
procure
quake
self-help
sol
tribu@@
att
booth
daylight
lom@@
aris
dreaming
ego
hiro
homogeneous
ipf
pancre@@
sharks
wels
detec@@
dina
greeting
repres@@
sustainably
100-@@
11.30
coalitions
displaying
gha@@
incre@@
kissed
necessities
phr@@
plantation
proponents
unfinished
variants
garcía
gating
invalidity
paci@@
pipelines
reflective
rup@@
sex-disaggregated
shorten
statisticians
uzbek
bas
brotherhood
crust
emancipation
nails
rie
110.@@
48th
accrual
deep-@@
eful
equipping
hang@@
tapped
tumors
twi@@
caste
embracing
lungs
residue
russell
simulate
six-party
1-3
deri@@
embodies
leases
methyl@@
resting
api
destabilize
gravitational
inexpensive
mans
pris@@
suu
briefs
fr
hysical
photographer
staple
unitary
adri@@
believers
chickens
decomposition
denti@@
geometric
provocation
pyramid
stors
tour@@
widened
bilaterally
competences
fast@@
steam@@
thanking
theirs
vc
bl
chun
cruz
emen
fé@@
income-@@
kö@@
mistreatment
pills
pouring
revisit
argu@@
carol
cartographic
fragility
jealous
sensation
sick@@
uniting
voic@@
vs.
317
cognizant
ejec@@
ust
ū@@
disintegration
feld
gatherings
pharmaceuticals
scrat@@
smi@@
tudes
wsis
brook
divides
enlightenment
grim
hcfc
high-profile
insistence
nau@@
sax@@
settler
space-related
working-@@
youll
10.30
410
cherry
concerts
deepened
disa@@
intraregional
mould
neo
non-binding
pale@@
reconfiguration
sant
wheel@@
gaze
impro@@
mandarin
remit
row@@
ssc
ture-@@
waive
asp
collap@@
dive
fort@@
inequities
-wide
bric@@
fda
isha
nationale
post-war
principals
cache
contradict
frankly
kinson
overwhelmed
provoke
transformative
1910
angela
dai@@
humiliation
maghreb
metallur@@
midd@@
prescribe
sburg
ulous
60th
equitably
expands
la-@@
sport@@
substrate
tuc@@
327
ee@@
firearm
saves
agen
agreeable
cep@@
enclose
kle@@
labour-intensive
mailing
metry
singers
stimul@@
struc@@
bisexual
defiance
ht
humanities
ignorant
lanes
lantern
ppp
puzzle
-led
appreciating
beat@@
col
condi@@
emul@@
exhaus@@
fabrics
gastric
wolves
1624
acity
environ@@
flock
knit@@
mentor
psychologist
stared
tomato
acp
adam@@
basins
conden@@
dc@@
delineation
eats
fatalities
peaked
rhyth@@
worms
ès
38th
aspir@@
costume
densely
eurasian
facie
forehead
tsuen
crater
curved
edible
sang@@
thoughtful
connecticut
frederick
grandparents
locating
oci@@
rightful
rus
sionist
yale
calibre
hydrocarbons
interns
merry
respon@@
ruined
sunni
unmanned
conceivable
replying
slim
soybean
whir@@
1908
1915
bv
chapel
cun
dest
icy
junk
lawfulness
marrying
moderator
ude
cycl@@
enting
l.22
morally
motto
pleaded
symmetry
apping
buc@@
counterproductive
defective
fluent
iman
resides
therefrom
ères
bao
correcting
discrimin@@
enchan@@
fiel@@
neil
onward
″
encryption
incapacity
shepherd
trick@@
unwavering
youth-@@
430
astic
chel@@
cn.6
courtyard
predic@@
rode
rough@@
ño
cyto@@
faculties
halting
lov@@
28.@@
amo
ballet
behavioral
blow@@
ccd
commercialization
commis@@
conquest
disclosures
jeopardized
knowingly
renewing
standardize
stol@@
wellbeing
partnering
pbc.@@
scenic
synchronization
vie@@
anch@@
averages
debu@@
dumped
orphaned
social-@@
abusers
atom@@
buo@@
discontinue
glori@@
moderately
mutation
performers
rosters
seating
brun@@
greg@@
homosexual
cosm@@
fifty-@@
koreans
smar@@
tl
ultrasound
inclination
midwives
pcb
reliant
unit@@
videoconferencing
wrongdoing
1353
dissatisfaction
graded
melan@@
oversees
solidi@@
35,@@
expatriate
hail
newton
pertain
sentiments
dop@@
electroly@@
kak@@
paralysis
stanford
unmet
amphi@@
dus
fortress
goats
holmes
rev.2
temper@@
tides
traveller
1559
brightness
scram@@
search@@
antagon@@
blues
ccs
cottage
deleting
disarm
enzymes
exposures
graphical
swa@@
csd
diag@@
omer@@
opi@@
self-employment
authorizations
cab
greetings
hash@@
nixon
reminders
simplest
turbulence
weaponry
cracking
disturb
face-to-face
immovable
insignificant
non-violence
sectarian
specialised
unveiled
vy
345
cherish
dec.
detroit
escal@@
interoperability
maine
oregon
sporadic
synchronous
324
change@@
conveying
indifferent
oz
receptor
salesman
slopes
someday
unreliable
328
add.6
bethlehem
development-related
dex@@
elli
frustr@@
most-@@
prescribes
reve@@
special-purpose
1500
41st
analogous
battered
oe
rb@@
sie@@
subsidiaries
aser
atized
collegi@@
duty-free
icelandic
sack
squir@@
tened
vocation
bonuses
concurrence
decon@@
env
graceful
marius
packaged
una0@@
31.@@
dreamed
organise
pavement
resembles
tuen
zheng
3.0
coastline
ester
oec@@
rue
travelers
burgl@@
gm@@
memo@@
needless
pensioners
propag@@
quo@@
480
buff@@
deutsche
hindering
illumin@@
legislations
xiao@@
departing
depos@@
distorting
jose
nu
occup@@
parker
rotor
shen
siblings
xinhua
.he
aco
aerobic
kt
nerves
revi@@
telegraph
umi
unda
4a
frontiers
intellectuals
minefields
raymond
sparked
speed@@
tempor@@
beit
cushion
impu@@
kang
present-day
rouge
stead@@
unexpectedly
util@@
akers
dwel@@
filipino
film@@
scattering
sedi@@
shout
xed
37th
asthma
consol@@
legendary
predeployment
saf
selec@@
xxvi
ecu@@
feathers
idol
occurrences
poets
step-by-step
tance
theres
accommodations
benign
ffy
fortunes
huang@@
l.24
refrigerator
ruth
torque
aperture
chaotic
complementarities
convertible
edo
filmed
jor@@
md
monopol@@
nightmare
oliver
ortho@@
professionally
upwards
awkward
cheer@@
commanding
euph@@
futile
gene@@
impartially
lagging
operationally
radial
reed
ured
acu@@
clar@@
dye
ega
harsh@@
informatics
luke
moderated
resentment
tam
touches
2000s
activism
best@@
envel@@
fertilizers
icks
materiae
nish
operation@@
packs
spacing
vering
advisors
charcoal
distributions
finest
instinc@@
inverse
liang
seizing
withheld
carbon@@
connotation
inval@@
peg
restart
retiring
uninterrupted
yau
3,8@@
arable
makeup
pip@@
raf
tiz@@
transplant
tuning
vu@@
ained
bid@@
crypto@@
rad
recruit@@
sabotage
self-sufficiency
thieves
ë@@
apollo
archbishop
computed
enshr@@
hosp@@
pid
shores
01-@@
07@@
47th
bust
certify
inject
magnet
nagorny
perennial
rece@@
tem
accumul@@
ardi@@
bank@@
belts
iza
mcdonald
multipl@@
reaffirmation
stove
three-dimensional
ant-@@
decrimin@@
mia
mismanagement
ood
postage
seeker
cans
centen@@
hak@@
imperatives
oste@@
pests
abad
brighter
bucket
counsellors
non-staff
460
anti-semitism
chari@@
correspondents
deserts
disguised
hunters
premiered
semantic
ș@@
assimil@@
booklets
encompassed
essing
fosters
grin@@
instituting
lifts
middle-@@
ship-@@
sings
white-@@
a1
abreast
cricket
deregulation
desa
esh
frac@@
monica
nig@@
nondiscrimination
predat@@
321
lottery
ltte
trim
doll
f-15
longevity
mi-@@
ough
re-establishment
ruf
sculp@@
sleeve
state-of-the-art
34th
apprehension
asing
congenital
cost-benefit
demise
fted
js2
pirate
sailed
snu@@
surro@@
swine
vec@@
virtues
welsh
cmp.@@
depot
depriving
guerrilla
hizbullah
marc
modular
news@@
prof
resisted
doubles
fulfillment
intending
limb
nancy
threads
chinese-@@
freetown
indemnity
jorge
markings
quarrel
saul
440
csce
lop@@
mama
sally
simplifying
witz
1905
capitalize
damp
dennis
domicile
localized
obtains
orn
analog
analogy
diagno@@
fei
greeks
ingh@@
nomadic
otherapy
70,000
attackers
bombar@@
ecomog
jake
sheng
steadfast
brooklyn
cogens
descended
hears
hebei
larry
manageable
oto
owning
subgroup
translates
waived
zhong@@
13,000
1920s
5,0@@
adolescence
conflict-related
d1
dit
glue
instalments
integrates
johnny
sludge
toilets
322
39th
ares
bordering
cooper@@
discovering
lender
oration
sui
4.0
cruelty
diligent
end-users
flooded
kindergartens
mission-specific
multiplied
rewarding
sensory
sequencing
sewing
tray
usefully
infin@@
bloc
built-in
deliberative
eruption
instinct
saw@@
three-month
acs
bearer
counterfeit
inter-ethnic
leon@@
mandela
rampant
symphony
wines
3,9@@
366
divergence
fabrication
hormones
intri@@
kurdistan
manuscript
3,7@@
43rd
acle
coincided
footballer
interacting
interest-@@
iy@@
nh@@
rubbish
sofa
vapor
wrath
349
354
arduous
armistice
eyed
hampering
longstanding
länder
n1
post-disaster
repressive
sity
warren
wron@@
ava
campaigning
compromises
hobby
lever
osi@@
restrained
store@@
superficial
vene@@
furi@@
handic@@
ight
lor
monkeys
rumaysh
admired
admissions
captivity
clerical
competitor
deserted
françois
gered
indebtedness
interrogated
interstate
peer-@@
rock@@
salaam
tab
4.30
alloys
chronicle
endangering
favor@@
implying
mint
rna
saints
telephones
unosom
wrest@@
apt
cafe
greeted
hands-on
izer
litre
masks
pf@@
rescu@@
straddling
zero-@@
bottom-up
disagreed
doomed
dumb
erroneous
iser
non-nuclear
well-defined
zen
331
507
drop-out
fill@@
graft
lear@@
overwhelmingly
poten@@
catalog
deplorable
erate
gle
haj@@
nephew
rearing
tril@@
1991-@@
chev@@
clue
crip@@
dee@@
evapor@@
hillary
punch
rights-@@
soda
abe@@
castro
delinquency
humid
importer
manufactures
naples
obstruc@@
revocation
tou
wiped
yong@@
cereal
decre@@
drawer
learns
sanc@@
wedlock
atives
discre@@
helpless
margin@@
mortal
revolt
tails
90-@@
cholesterol
copied
eldest
maltese
seventy
wholes@@
adventures
bf
categorically
conquer
disability-@@
dresses
iec
impul@@
pedagogical
presid@@
teenager
3,200
336
bilities
hart
matrimonial
orphan@@
sounding
states@@
stemmed
supplemental
14,000
ebola
fujian
infiltration
knot
l.23
portra@@
seventieth
sulphur
trash
troubling
warmer
accru@@
cheating
ext
q.
redeploy
shad@@
subscri@@
acupuncture
adams
aver@@
bé@@
embody
insurers
lawmakers
metrics
nett
relativity
achlor@@
astronauts
awacs
incredibly
perman@@
shields
631
lcq@@
long-lasting
nz@@
shei@@
thel@@
worsen
zagreb
29-@@
anglo-@@
chs
clean-up
compli@@
effec@@
fetch
hay
potentials
quet
treasures
wco
arize
beverage
compose
dwar@@
hugo
inviolability
islamabad
maría
motherland
orbit@@
sights
transcript
transformer
usaid
bundle
crystals
experimentation
famili@@
fills
fluids
french-speaking
gus
heartfelt
interfering
islanders
jennifer
restraining
rig@@
riyadh
skies
abol@@
afflic@@
bladder
engineered
eph@@
marvel@@
north-eastern
pseud@@
salmon
specul@@
329
357
adhe@@
ember@@
farm@@
feminine
kinetic
lucrative
notorious
pca
perpetu@@
roberts
techn@@
unskilled
whales
cola
dubbed
fluoride
institutionalize
sud@@
coincidence
complicate
elu@@
jim@@
levied
loneliness
miniature
rub
sid
surveyor
triggering
aleppo
bare@@
candidature
magnesium
reopening
start@@
ˈ@@
begging
czechoslovakia
derogation
homs
jian@@
precedents
replaces
rera
resha@@
tablet
computer@@
dew
emblem
fugitive
gency
glen@@
gyna@@
hint
homosexuality
ign
norman
restricts
shouting
trivial
zel@@
155-mm
bucks
dissolve
inges
l.29
pizza
qur@@
stasis
terri@@
aleg@@
aspire
boosted
constitutionality
eighty
exotic
extracting
licensee
mir
pads
rosen@@
typ@@
analo@@
bill@@
field-based
foil
l.21
myriad
plun@@
terry
334
aldo
augus@@
eline
icing
lama
nem@@
1913
dislike
g8
ggle
grat@@
omed
seamless
shab
thes
trader
xxix
406
absen@@
aris@@
austr@@
donkey
immuno@@
inadmissibility
laos
parall@@
2,600
blo
ness@@
panellist
337
casing
diets
hut
lankan
av
broadway
ggy
isaac
mous@@
tp
corrobor@@
cosmo@@
cotonou
deplored
g20
joey
aby@@
angular
bor
clerks
consequential
crossroads
disruptive
ethnically
gui@@
hir
ngo@@
pavilion
captive
eable
impart
itory
procur@@
suppressing
withholding
word@@
-time
adju@@
backwards
cip@@
greed
hel
hetero@@
holland
idly
teachings
zan@@
'the
abstained
disposable
distrust
eviden@@
exhum@@
feudal
hy
suz@@
boil
criticisms
development-oriented
epic
ety
faro@@
fearing
fertilization
paving
strained
umb@@
wagon
ë
alls
discarded
pane
wuhan
zhi@@
beforehand
centrality
fores@@
fuc@@
in-service
kabila
kne@@
orleans
ularly
uran@@
1916
alberta
chandler
craw@@
deception
kee@@
menace
suppressed
ught
wavelength
beverages
embarrassed
gna
jammu
justices
lomé
referee
twisted
ultra@@
6,500
converter
electing
emily
fist
karzai
mistress
radic@@
sexy
unspecified
ž@@
automobiles
class1
conceptions
councillors
inters
oro
ten-@@
traveler
ammonia
centric
emotionally
europe@@
georgi@@
hers
inorganic
isle
msar
resultant
unmi@@
36th
accusation
bari
curtailed
ecstasy
goose
mart
ories
ribbon
sf@@
shocking
three-day
ér@@
194@@
catal@@
companions
epo@@
frankfurt
horse@@
lime
record-keeping
shelves
succ@@
35th
boycott
charlotte
excavation
fashionable
fatf
ma-@@
prsps
noodles
unrepresented
bler
dele@@
icide
infrastructural
kwd
new-@@
plating
spraying
18,000
atable
biannual
bosses
cac
ditch
mourning
pill
rabbits
sket@@
sulphides
vest
curing
ecuadorian
emplacement
fixed-@@
grande
launchers
me-@@
oceanographic
oked
picnic
robbed
round-@@
sely
cooper
endeavouring
gras@@
lemon
lessen
mutatis
ped@@
pharmacy
sain@@
sourcing
tsui
374
509
eufor
harassed
impress
inconsistency
manag@@
mutandis
33rd
clout
julia
noisy
trun@@
bris@@
cheeks
conqu@@
contests
diligently
efully
herbs
icg
lis
realised
resisting
substituted
underdeveloped
aar@@
buys
child-friendly
concre@@
crp.3
denounce
erus
gendered
prefabricated
rehabilitated
trait
wave@@
2,700
barbara
bosni@@
cooler
instruc@@
martyrs
ores
parenthood
quil@@
recur@@
scru@@
attenu@@
dancer
discounts
energi@@
ibero-american
post-retirement
slip@@
submarines
swelling
anguish
cari@@
copy@@
mercury-@@
merkel
postmark
retri@@
scen@@
sow
town@@
560
aal@@
alien@@
anti-tank
birth@@
cartel
oli
rier
rotate
sting
violin
warring
2,800
426
ascension
avo@@
brain@@
certifying
ences
grapes
housework
igo
injected
practitioner
premi@@
quen@@
then-@@
compass
escaping
evo
exemplified
goa
pli@@
yue
analytic
assaulted
bing@@
dentist
facsimile
fasher
inged
pastoral
scu@@
sym@@
warranty
alkali
ape
asphalt
baku
displacements
honours
impacting
liga
pleas@@
reckless
rm
segregated
bw
elan@@
enabl@@
essa
fuelling
haem@@
interministerial
jaw
paints
regained
registr@@
thouse
candidacy
chemotherapy
darwin
life-saving
moc@@
1906
cadre
decree-law
descriptive
dley
fade
gin
jus@@
meh@@
ont@@
ence@@
gge
inseparable
literate
metaphor
moon@@
optim@@
pursues
rebound
shri@@
tapping
billboard
discontinuation
engra@@
fireworks
openings
playground
statehood
thyroid
2009-2010
chau
earnestly
elites
interviewing
murray
phosphorus
refl@@
white@@
abiding
computer-@@
disruptions
htm
indies
kk
saurus
tas
violently
wou@@
bombed
concurs
develop@@
faiths
gn
jose@@
ombudsmen
partnered
periodical
redundancy
tennessee
tess
4.
compositions
conservatives
drum@@
ectomy
equities
hab@@
zha@@
australians
fairs
herd
iced
los@@
plagued
sept
set-up
sla
unbalanced
wd
whol@@
acher
compens@@
qu
reagan
salman
two-way
agre@@
bai
bolivian
crystalli@@
friend@@
mx
steak
1820
2,300
atization
banker
cultivating
det@@
lement
nm
permeability
puzz@@
rites
unt@@
0th
1-2
aç@@
ević
mock
on-going
schem@@
u.n.
'djamena
careless
confron@@
grandchildren
istically
amplitude
chau@@
hap@@
l.26
ouring
semi
showcase
your@@
zin@@
conceptu@@
daytime
dictate
erect
grandson
mpf
shoots
skiing
'état
atize
augmented
ayo
esco
guarded
histories
jets
lc
linguistics
mater@@
nuc@@
restrain
wei@@
780
ac.51
ambient
claude
dit@@
kordofan
nurturing
rp@@
12.5
anthropology
grading
inflic@@
oka
pav@@
pcbs
viscosity
364
drc
interception
nicolas
prefers
roof@@
tempted
tomatoes
vatican
2-3
amparo
assertions
ccp
relentless
sham
å@@
amped
confl@@
extracts
lex@@
lone
princeton
slu@@
332
critic@@
entially
familiarize
fascinating
follow@@
headquartered
koso@@
nour@@
warner
yarn
zhi
3,6@@
advers@@
appliance
blacks
dder
evol@@
mandate-holders
mirrors
queu@@
till@@
waged
agile
beck
bunia
l.27
labelled
pre-sessional
situational
601
alid
quantifiable
shoo@@
sociocultural
space@@
spine
tines
'it
acquainted
builders
cash-@@
droits
leaning
pack@@
persistently
runners
soy
speedily
tetrachloride
341
390
alo
armour
berkeley
deflation
recep@@
s--@@
self-evaluation
traum@@
u.@@
21@@
add.7
algae
bil
plausible
prudence
rahman
residences
shattered
stockpiled
una@@
unmo@@
3,600
ango
ature
internationale
mubarak
persisting
sacrificed
strasbourg
turbulent
1200
bukavu
bundes@@
conc@@
conquered
liquids
relics
replicate
appalling
codi@@
genders
gloomy
odor
procession
realignment
reorganized
sachs
terribly
unk
38,@@
affiliate
auditorium
averaging
bur
chow
denominated
flap
helmets
interdiction
interpre@@
kilometre
northeastern
right-wing
torial
uf@@
chuan
husbandry
nickname
revelation
subscribed
ashore
calibr@@
consignment
iber@@
kiev
labs
ox
turin
tyl@@
vp
cade
congratulating
scarlett
shr@@
356
austin
decentr@@
escalate
hab
katanga
minimized
monarch
nasser
reformation
reliably
roadmap
sana
senti@@
347
abstention
adjustable
bered
excel
fau@@
palermo
populist
²
arab-israeli
asti@@
distort
encapsul@@
garlic
grabbed
inspec@@
inter-institutional
israel@@
lian
machineries
neat
pronged
spur@@
strati@@
addi@@
afric@@
carbonate
dancers
ender
grocery
intermedi@@
interven@@
iodine
jon
phyto@@
rack
rust
tious
ə@@
cognition
l.38
outsourced
sharpen@@
vista
xxiii
1,900
above-@@
canadians
headlines
helm@@
incarceration
l.25
nonsense
nutri@@
peremptory
sman
wayne
adultery
airing
art@@
bekaa
ensla@@
expressway
mtr
plunged
anti-terrorist
diffuse
fencing
ghaz@@
kav@@
oted
reassigned
resc@@
riches
stationery
steril@@
transgres@@
undeniable
540
cali@@
chores
fine-@@
greet
nex@@
offs
sfor
351
aders
adol@@
asserting
conforms
excise
ihl
polit@@
spells
tore
twenty-five
uter@@
03-@@
fling
gav@@
ification
re-entry
umin@@
zhong
ceases
commu@@
conditionality
constrain
crab
disregarded
enlightened
fire-@@
full-fledged
illtreatment
indivisibility
prognosis
sailors
scandin@@
tbilisi
3a
ado@@
favored
hailed
heng
recorder
remembering
snack
underscoring
wg@@
ción
cooled
emi
emitted
odp-tonnes
wisconsin
●
aggressively
ary@@
cndp
cutter
deplete
do-@@
maiden
north-@@
pornographic
rationality
shang@@
stubborn
uniformly
352
corrigendum
dise@@
disguise
f-14
graphs
hiroshima
manipulate
moderation
proscribed
stereotyped
suburb
titanium
veil
aggravate
anterior
archipelago
cor
exaggerated
ghan@@
hiv-@@
mead@@
pastor@@
provident
spear@@
teamwork
1909
660
acquain@@
articulation
bott@@
crunch
mons
monte@@
mumbai
segmentation
sensi@@
sweater
tiv@@
uts
xxx
bav@@
bearings
certi@@
crowned
gerald
irrational
iucn
nos
organization-wide
rest@@
uptake
10.2
alk@@
bells
crus@@
cyclones
dalai
droit
hi-@@
marshal
northwestern
prolong
realise
refinery
rels
sterling
trailer
1992-1993
402
asser@@
camero@@
carbon-@@
cracked
dant
expec@@
humili@@
joan
may-@@
meg@@
nasal
poli@@
scare
silently
streaming
45-@@
achieves
antilles
chairman-@@
chemist
dallas
forec@@
kathmandu
leagues
rivalry
sara
servitude
snap
statistic
univers@@
approximation
atorial
bark
custodian
dou
downloads
frigh@@
paran@@
phnom
reinstatement
sweet@@
tommy
unpunished
510
apportioned
burdened
decision-makers
deton@@
extrac@@
forfe@@
hedr@@
hide@@
ley@@
mity
nokia
ayed
boiled
co.
costed
internationalization
lang
phar@@
prophets
stil@@
zoning
anca
harvested
jaco@@
neur@@
omatic
prompting
somalis
strokes
unci@@
unfolding
----@@
back-@@
cantonal
confessed
conscription
inadvertently
milli@@
panda
pathological
pla
prudential
skip
unwillingness
386
ackers
booked
choi
expropriation
fashi@@
fibro@@
gü@@
health-@@
hurried
insurgent
kobe
omin@@
quan
ronald
sors
tighter
unamir
applause
cil@@
defra@@
depreci@@
empretec
justifying
reprocessing
10.5
344
defen@@
dispers@@
guinean
handicap
ncds
reasoned
resa
rowing
scripts
shone
vitamins
channelling
dazz@@
defeating
design@@
fuse
massi@@
qiao
you.@@
16,000
4,8@@
aida
bass@@
fail@@
hiv-positive
hos
jag@@
lapse
lud@@
mansion
māori
simulations
smallholder
tsang
weary
anytime
check-@@
cin
draf@@
wc
wig
1903
ation.@@
conn@@
diversifying
evade
imperfect
minimization
numbering
people@@
politi@@
slaugh@@
trim@@
35,000
381
abrupt
advis@@
alexan@@
ankle
carbo@@
cn.17
coefficients
conditionalities
ecting
enz@@
ever-increasing
hospitalization
inscription
kick@@
lading
make@@
modulation
titude
04-@@
1572
32-@@
5.0
celebrities
first@@
insisting
locomotive
morris
rabat
rella
shanxi
discontent
discouraging
fragrance
fury
mr.@@
sip
valuations
women@@
a-based
approvals
baking
carcino@@
dn
dynam@@
highest-@@
itiner@@
kingdoms
metro@@
nasty
nick@@
phal@@
referendums
sketch
strang@@
willingly
ı@@
ance@@
apprehended
drowned
gger
inextricably
michel@@
ordinances
ski@@
temperate
coil
hariri
levi@@
prec@@
rankings
shre@@
vesti@@
vial
wes@@
355
alley
dere@@
fisher
hawk
necessitate
sizing
yangtze
ying@@
348
adulthood
chapeau
closes
deliber@@
eway
high-income
omas
seaf@@
cath@@
circul@@
collins
counter-narcotics
detachment
dissent
garden@@
hm
inflict
intermittent
iteration
penalized
proclaim
socket
worthiness
11,000
alan@@
complexes
criminalizes
dictated
earl
ilia
l.34
peter@@
timetables
tracts
wreck
guin@@
lr
phd
pre-existing
ratt@@
roll@@
socks
subset
unjspf
xiang@@
3,5@@
amazed
branded
dev
mba
moder@@
monies
ody
pak
secretaries-general
sticking
t-oriented
wary
appended
arial
chir@@
familiarity
knowledgeable
orphan
slender
victim@@
aggregation
anne@@
asas
childbearing
clip@@
contravene
cries
gut
kingston
latvian
mosul
itz
navigate
neutron
secession
stee@@
unded
470
bread@@
gymnastics
jewellery
sers
sunrise
tapes
vastly
viewpoints
39,@@
acked
adaptability
evans
feed@@
gland
insure
nobility
pue@@
roast
spike
tick
topped
497
beats
furtherance
gazet@@
obste@@
outflows
penh
roar
savage
shaken
sigh
2c
501
aesthetics
alizations
anal
better-@@
blindness
crusts
elephants
perfec@@
repudi@@
schema
sequel
vanished
vings
339
640
coasts
coatings
exodus
folds
forti@@
inciting
intestinal
islamist
leaflet
licit
localization
pc.@@
al-level
conclusive
decorative
extradited
fearful
fundament@@
pasture
pitched
ptions
qual@@
towel
xian
10.1
additive
angu@@
arly
derog@@
egyptians
erode
escorts
fai@@
forgery
glit@@
himal@@
hindu@@
ilers
integer
manifold
marxist
military-@@
noncompliance
perpetual
practic@@
remunerated
warns
cian
clou@@
clum@@
embar@@
fixation
inflow
ischem@@
latin@@
nd@@
opposes
ramallah
ا@@
addicts
attaching
e.9@@
ecotourism
immoral
logically
marco
scs
sediments
zzle
3000
aggressor
corpor@@
dai
humiliating
inducing
just@@
l.32
shot@@
zip
aj
antioxid@@
aristoc@@
bedouin
crosses
disco@@
elbow
encro@@
flam@@
gsp
mbo@@
modem
resul@@
sancti@@
661
basra
flemish
horri@@
jak@@
legisl@@
lux@@
nominees
periodicals
snap@@
softly
sorting
spa
this@@
unle@@
voy@@
autism
chor@@
constitutionally
etr@@
feminization
inno@@
libération
pressu@@
vitae
405
authentic@@
detectors
excer@@
export-@@
guang@@
ideologies
jeopardizing
knights
liberated
misc.5
persecuted
quicker
randomly
32nd
950
aloud
brexit
endeavor
gour@@
ralph
404
bular
chew
food@@
granul@@
justly
kent
lengths
non-payment
pillow
pouch
quorum
wiel@@
accoun@@
bh
codified
entertain
equivalents
ffing
isotope
obstructed
oured
outfit
pluralistic
salute
selfdetermination
seniors
tashkent
totality
30.@@
488
asg
daw
ea-6b
franç@@
hlor@@
honors
kon
pamphlets
toxico@@
413
800,000
gardening
moul@@
tay@@
ß@@
annihil@@
descri@@
fossils
gratia
readings
tains
yee
bering
congru@@
furious
1863
carlo
collectors
colombo
disbanded
hale
henan
mw
nguy@@
romans
skep@@
tances
uro@@
user-@@
verge
yokohama
36,@@
curtail
emic
intox@@
lou
maurice
redevelopment
seg@@
thirst
372
bucharest
circus
embarrassing
f.c.
fid@@
hamlet
overlook
state@@
29.@@
5000
accuse
catar@@
milky
resided
retali@@
sued
ts.@@
uda
usg
2,100
377
birmingham
comb
dialec@@
guez
ipping
marketed
melody
unhabitat
uno@@
700,000
amusement
arius
cana@@
dash
fear@@
hezbollah
metabolic
premiere
satur@@
skil@@
tao@@
343
administers
archy
atu@@
chengdu
elective
hc
metap@@
privy
trails
8,500
accommodating
embol@@
embryo
excuses
haste
hereafter
kwan
passages
prece@@
summons
385
512
aban@@
ander
anti-government
democrat
endurance
philosophers
removes
sects
stup@@
1888
accessory
arah
bleak
brow
cam
hats
nov
prior-period
scro@@
sixty-@@
thly
unnecessarily
whites
alerts
ayn
chec@@
color@@
dice
gem@@
microbial
pires
tch@@
transmitter
unidroit
xxv
31-@@
acquaintance
armament
diagnose
e-
interrelationship
national-level
sundays
wheelchair
wich
1503
414
gabriel
l.28
materialize
pub
530
encyclop@@
hydration
hydroelectric
justifiable
prag@@
re-established
reconciliations
wadi
408
adver@@
eased
fle
full-scale
inventions
law-@@
outrage
rectangular
rem
reminding
tist
watson
canceled
cantonese
churchill
dab@@
extravag@@
fabricated
fractures
humour
moist@@
nai@@
saarc
aiding
calligraphy
collaborators
conspicuous
dea@@
famil@@
fix@@
grease
hurstwood
izations
lt@@
mitigated
mona
muco@@
potable
usion
vere@@
353
37,@@
417
canyon
differenti@@
glimpse
gonz@@
nitrate
plex
revel@@
sim
stran@@
unsubstantiated
vien@@
34,@@
distributors
malay@@
moss
nil
non-agricultural
owen
rai@@
weighs
fee@@
functioned
ider
intervie@@
mur
poa
reduc@@
342
amalgam@@
anto@@
butler
cancel@@
endor@@
nathan
plurality
sahar@@
spro@@
substantively
tenancy
unwarranted
waf@@
1b
503
alberto
assimilation
catholics
dances
desist
exchange-rate
ient
kingly
parted
shia
ung-@@
wart
acceptability
blossom@@
bugs
chasing
coron@@
digit@@
ffe
flood@@
foresee
idating
piston
punctu@@
ridden
tr
17,000
artifacts
ator@@
bear@@
hydrological
justifications
sharif
weeds
bitch
depository
eagerly
every@@
fluorescent
jour@@
leprosy
lightweight
mb@@
mitchell
morse
mü@@
porcelain
splm
vine@@
xen@@
416
ental
goo@@
hare
ims
isi
maya
motivations
solicitor
sured
tallest
unabated
arresting
assess@@
distressed
ft-@@
hug
jong
rav@@
tsi
ung@@
wrist
anthem
brink
cartels
eability
exiting
exquisite
fly@@
injustices
latent
maputo
opathy
stub@@
weaving
world-@@
barry
icates
1800
additives
casts
catalysts
chw.@@
excre@@
ibn
kash@@
kremlin
longing
narrowed
run-up
sl
1860
airs
covert
guangxi
ozl.pro.@@
rift
sig@@
2003-2004
363
ak-@@
bonding
brahimi
complication
dani@@
encies
fats
grassland
padd@@
philippe
superintendent
yusuf
aro
congen@@
devoid
east-@@
gil
isms
lucas
nominating
realistically
theore@@
treaty-based
xxvii
9.30
andro@@
atar
chechnya
hiking
impedes
nevada
opho@@
sey@@
apc
axes
campbell
comrade
ented
full@@
lable
marines
multiply
oklahoma
pler
saleh
stain
uki
unmin
389
attested
ceramics
detonated
dz@@
ironically
longitudinal
luanda
memoranda
promis@@
stead
underage
1940s
3-4
bashir
bricks
depl@@
destruc@@
emy
hygienic
knives
launcher
mento
milo@@
misfortune
phil
physicist
reser@@
rhy@@
southeastern
supremacy
treasurer
unfip
wisely
avoids
comfortably
dow
expon@@
hé@@
late-@@
politicized
recognises
reflec@@
spotlight
affec@@
armenians
communists
evacuate
iat@@
match@@
mindset
ref
reimburse
tantamount
373
blunt
compliment
danny
exploitative
loren@@
successors
theatres
120,000
applaud
caregi@@
demon
dialects
elong@@
encla@@
hates
ionizing
matrices
ometers
ould
propulsion
rituals
room@@
sept@@
sequential
theatrical
valleys
zim@@
361
adsorption
ahmad@@
blades
bougainville
chromatography
corp
discer@@
everlasting
factor@@
faded
gou
ith@@
lim
ring@@
secretarial
tse@@
bod@@
garrison
muscular
prerogatives
ramifications
ture@@
403
berger
besieged
braille
ects
ix@@
labeled
non-resident
passi@@
snakes
tragedies
vich
waking
buddy
e-cert
egtt
gifted
honey@@
overcrowded
thermodynam@@
yaoundé
billing
blue-@@
configure
fringe
grape
marxism
scent
spoil
tajik
ually
underestimate
accentu@@
arov
feren@@
friedrich
iga
lawsuits
madison
mantle
nld
permissibility
reintegrate
striker
tera
thel
untso
attendants
bowed
contended
dayton
depend@@
deplores
emphasi@@
heel
jealousy
lulucf
mediated
outpatient
procu@@
risked
serv@@
shek
solemnly
5,200
booming
fidelity
gö@@
lump-sum
or-general
tv@@
751
beasts
belongings
candles
govern@@
ipr
organiz@@
posterior
son-@@
upsurge
382
baked
billion@@
blessings
captures
domingo
enlisted
guide@@
lier
mortars
neurons
plug@@
shrine
spaw@@
spherical
taxonom@@
tournaments
turner
2011-2012
havens
ngc
orth@@
parting
statistically
supply-side
tightened
tton
whistle
zeal@@
49th
audit@@
declar@@
ery@@
hiz@@
oxidi@@
pau@@
powell
reconstruct
awesome
cocc@@
forthwith
gravel
kare@@
l.30
leveraged
lounge
mony
netanyahu
non-use
rex
sche
seafarers
socio-@@
standstill
surround
thankful
titanic
yaz@@
archae@@
bloodshed
cuc@@
faul@@
gamma
geneity
gill@@
lakers
liquidated
montana
nuclear@@
satellit@@
vehic@@
yeast
359
aker
changeable
creed
distinctly
enjoyable
enrol@@
extru@@
headway
insane
invari@@
publ@@
scouts
stigmati@@
two-week
walk@@
zard
adaptable
adj
allotment
assassinations
durability
inscri@@
iop@@
non-government
nyala
oo@@
patt@@
pedi@@
pick@@
playo@@
regret@@
security-@@
topology
2b
392
coag@@
document@@
eclip@@
elasticity
fairer
ivo@@
legitim@@
owes
preventative
synchronized
achi
appren@@
astronomer
bei@@
cheques
cleveland
cnn
constitu@@
devaluation
eme@@
eously
joshua
lyon
opportun@@
oxid@@
perfume
periphery
throws
.we
abruptly
bio
cover@@
crediting
fric@@
hostage-taking
invocation
liti@@
long-distance
self-confidence
wardly
worrisome
zzy
603
alas
châ@@
dissenting
francophone
gol
gorgeous
handcu@@
heterogeneous
rosa
seng
theology
tying
vampire
3,400
371
arrows
casino
cost-recovery
english-@@
enormously
erable
exacerbating
helium
hinders
khalifa
l.39
lenses
marty@@
pathogens
penetrate
spar
stalin
unipsil
whats
balkan
bows
invest@@
occupants
sps
stis
tectonic
-3
bby
bulb
dedere
demilitarization
herbert
multiplicity
ongo
overes@@
project-@@
suspicions
twilight
buffalo
burden-sharing
heap
heater
inconvenience
modelled
nation-@@
perv@@
pesos
redeployments
satan
sunk
chorus
elet
eps
esoph@@
gatt
inserting
murderer
roadside
appreci@@
bearers
completes
digits
franc
machine-@@
ott@@
refoulement
structurally
try@@
acidification
alt
canon
fulfils
helmet
nominee
periodicity
raps
sulph@@
thriving
abduc@@
adjec@@
baro@@
basing
cosmetics
disparate
es.
fetal
nk@@
oil@@
piles
rider
scholarly
watercourses
escalated
exer@@
gestures
idi
mekong
mythology
parked
phosphor@@
412
bard
dame
deserving
equator
erup@@
fraternal
iphone
og
poised
relaxing
revolu@@
rip@@
undere@@
upli@@
02-@@
3,300
bribes
confrontations
donate
lenin@@
nb@@
presses
science-policy
stell@@
391
487
armored
beth
butt
crystalline
dl
eduardo
globalizing
linen
non-food
omorph@@
revitalized
rita
rotational
snat@@
spoon
teller
tetanus
3,700
beacon
cube
dem
essays
gue@@
invent
investigates
mack@@
pard
pistols
prophy@@
reap@@
rumors
schwar@@
sub-committee
tana
technolo@@
youngsters
class2
compassionate
enders
gas-@@
hesitation
incest
modernized
offici@@
outflow
platinum
06-@@
academies
borrower
chlorofluorocarbons
clergy
correctness
flor@@
hardness
lithium
melon
nagorno-karabakh
oblige
pix@@
portuguese-speaking
thest
trade@@
vase
407
agic
cathe@@
dpa
folklore
halving
militarization
plur@@
raining
spectators
trilateral
upro@@
wah
06@@
bble
bissau
canvas
comprehend
dao
deh
enterpris@@
eves
hampson
predators
predicate
rog@@
shirley
unre@@
zhen@@
10.3
428
artificially
conduc@@
contraven@@
dared
duce
flush
jeopardy
osama
percep@@
pronoun@@
scho@@
squares
unsmil
wiz@@
415
bushes
exhi@@
facets
horrific
inertia
nutritious
proprie@@
quadru@@
spurred
395
argen@@
arnold
devoting
diabetic
disrupting
duct
e-up
nicaraguan
physiology
plu@@
pong
silver@@
stagnant
standar@@
tentatively
vik@@
367
anaemia
conductivity
depicts
detached
eagles
epidemiology
eting
iler
leton
modus
reb@@
reciproc@@
spectra
362
abdomen
abet@@
aceae
arization
contemplate
heli@@
incumbency
inventor
leonard
oi
prosper
scarf
475
apparel
femin@@
hdi
listings
mund
on-the-job
pcp
personae
reign@@
tery
wandering
358
720
acrony@@
april-@@
extremes
genom@@
information-gathering
tow
youve
Ö@@
admi@@
bureaucr@@
chr@@
dee
gested
hurdles
hydrate
hydroly@@
methamphetamine
rig
roundtable
tices
tionary
wick@@
abandoning
assy@@
battles@@
bidder
ential
entren@@
havoc
incumbents
judicare
kaf@@
kos
louise
marched
offending
picks
pneumatic
pus@@
reten@@
rumours
stranded
supersti@@
11.2
camping
cds
ceas@@
contagious
cosmetic
delisting
gem
hepatic
iterative
nepalese
osphere
process@@
reprisal
sivity
suburban
tall@@
1889
bribe
compres@@
embezzlement
filtration
fueled
itative
lar
leung
rafael
terminating
wrongly
368
4,200
422
bacon
co-ordination
contiguous
fatah
mong
ninety
ough@@
perpetr@@
rt@@
slightest
vsky
456
605
aggregated
asycuda
creep
evaporation
idated
ili
isil
l.36
l.40
mega@@
oner
peking
prospec@@
revisited
timeframe
www.un@@
505
alienation
anti-money-laundering
bald
cad
comrades
decor@@
departures
flex@@
fty
galactic
hamad
hike
mayo
progresses
pud@@
selectively
sour@@
tor-general
vests
bahraini
brokerage
co-location
delaware
esteem
histor@@
np@@
quotations
reunion
tau
uterine
.in
andrea
awakening
concealment
differentials
eradicated
l.35
l.37
notifying
public-sector
rupture
scorpi@@
virtuous
aligns
cn.@@
cons
fac
flowed
generative
grum@@
inhibition
kered
limestone
marvel
patronage
plenipotentiary
quotes
racially
stunning
aic
brilli@@
contex@@
dessert
elic@@
favouring
olig@@
opti@@
plural
psal@@
shun
spanning
anecdo@@
e-business
empowers
gai@@
grievance
highlevel
hoe
intrusive
izers
l.31
look@@
ono
operandi
pérez
rejoice
salim
accep@@
cyberspace
diarrhoea
disperse
feather
mapped
omo
phoebe
pland
smart@@
spontaneously
union-@@
air-conditioning
catalyse
chron@@
iller
pittsburgh
polluting
seawater
shy@@
tational
teach@@
vectors
409
adversity
alg@@
alright
bbed
distr@@
fen
forwar@@
inhal@@
intolerable
majeure
mid-1990s
pedago@@
pronounce
rejuven@@
rf@@
royalties
spokeswoman
territ@@
383
anomaly
bailout
compiler
defec@@
hasan
illustrating
less-@@
meaningfully
mg@@
nobl@@
peach
puppet
shal@@
379
arrogant
capital-@@
categorization
columbus
horticul@@
lang@@
ocular
pengu@@
.you
4,9@@
alpine
asymmetric
kens
l.33
l.49
myths
one-stop
tanker
vali@@
Đ@@
2o
allegiance
at-risk
doctorate
hos@@
l.43
rements
subscriptions
substitu@@
usal
whip
6,0@@
ambulances
arer
assay
chill
chromosome
harold
l.42
l.48
landslides
lesions
lingering
notebook
originates
queens
russian-@@
skyscra@@
status-of-forces
stirred
ug
1896
affluent
artwork
back-up
commonplace
corroborated
culminating
enqu@@
gim@@
hali@@
hegemony
hereditary
kwun
pastor
tags
worded
yellow@@
al-quds
ated@@
bracket
champagne
cratic
deep-rooted
dinosaur
exceedingly
laurent
loy@@
rov
singled
stare
tacit
tham
369
ac.96
alla
aor@@
breeds
brush@@
chon@@
daring
lai@@
liter@@
marrow
octa@@
osa@@
stipulating
telescopes
iac
minugua
nitro@@
pleasing
rides
snor@@
amin@@
dg
doned
emmanuel
halve
ite@@
junc@@
laureate
lind@@
non-indigenous
quinqu@@
region-@@
trol@@
vagu@@
zom@@
fet@@
glim@@
idb
itous
meticul@@
mie
ologi@@
rand
sector@@
slav@@
symposiums
aton
blogs
cai
cohe@@
cow@@
inlet
institut
note@@
tedness
tonic
admitting
balance-@@
balloting
cyclo@@
devolution
fren@@
hass@@
jit@@
landscapes
legalization
neys
ock
sac
salvage
sq
storey
teap
turtles
435
biz@@
countrywide
emma
lem
paz
taller
thorn
ts-@@
ary-@@
bout
distributor
easiest
ensemble
handy
harmless
impossibility
mechanic
olo
reinstated
sett@@
stuffed
wrap@@
3,800
adul@@
babylon
identifier
ignition
julian
layered
memorable
optics
reci@@
shoul@@
spin-@@
transcripts
withhold
anatomy
clues
conclu@@
crushing
fried@@
herbal
ib
mod
organizer
reconstructed
regrou@@
touring
unu-@@
vement
-long
986
aig
divor@@
homepage
icable
kite
kre@@
marsh
molding
pitcher
slides
umm
wend@@
-out
423
archived
arizing
blended
cay@@
format@@
manipulated
pyro@@
stiffness
tioners
vowed
35-@@
abbey
acre
acry@@
android
archival
cet
conf.2010
fec@@
ingen
kore@@
l.50
rapes
valen@@
5.
accrue
activating
circling
corpse
deep-sea
demon@@
exclaimed
inspira
kissing
non-financial
polished
quantification
redesigned
relapse
repetitive
succum@@
tsu@@
upside
vet@@
children@@
crimea
day-care
determinations
formalize
heavenly
hor
regularity
versatile
waste@@
yama
yas@@
yon
436
adhesion
arious
asse@@
coarse
english-speaking
hamid
hey@@
immensely
negoti@@
rethink
teen@@
would@@
51st
apprenticeship
arez
baptist
centrifu@@
copuos
dece@@
enni@@
guarding
ise@@
isotopes
june-@@
newsletters
otto
recalcul@@
restraints
seem@@
signi@@
troubl@@
unid@@
unify
veins
accusing
ammonium
beautifully
confine
downstairs
ensued
ignores
infe@@
male-@@
mhz
nomin@@
polo
push@@
qatari
requisi@@
seniority
suitably
swallowed
bobby
chus
constra@@
equi@@
hairs
reconsidered
stipulations
viewer
2016-2017
411
521
anomalies
caesar
colon
coul@@
hama
justici@@
parag@@
ption
seis@@
sophistication
unsuitable
abode
aviv
compressor
delim@@
doubted
geophysical
horns
hud@@
ishan
outsiders
playstation
rebu@@
scream
seduc@@
sexist
sheltered
sterile
ual
unjustifiable
wt
6.0
fukushima
illustrations
irri@@
marin@@
musa
payload
sulfate
trib@@
unifying
videoconference
winston
1901
agon@@
allergic
amplifier
banquet
binub
cyan@@
dementia
embl@@
erated
haul
rods
sniper
vhf
vices
accountancy
exploratory
foli@@
hore
lity
mri
omnibus
portray
rf
tsh@@
urry
amenities
bella
converts
current-account
cylinders
did@@
duo
fools
gov
hester
intensively
lod@@
2100
490
agr@@
arias
avia
cfs
comparator
digestive
exacerb@@
folding
get@@
immortal
inferred
keith
ordinarily
pharmac@@
still@@
thirsty
under-five
voucher
-in
biscu@@
borg
burn@@
busan
closet
comptroller
ert
ficsa
fitz@@
how@@
quarter@@
sheds
solvents
y-related
ú
1521
aha
ancestry
assail@@
bryant
degra@@
gothic
het
insurer
intrac@@
mortg@@
natal
pigment
pottery
roll-@@
seam
uncac
warehousing
amu
concep@@
corresponded
cost@@
determinant
dilu@@
discloses
ien
polymers
pum@@
secretariat-wide
sheriff
unil@@
4,400
cand@@
coal-@@
discharges
dissu@@
enum@@
hal
monarch@@
monopolies
purported
ridic@@
wonder@@
woo
astronaut
bane
calamity
coal@@
collusion
ethic
merit@@
nouméa
predetermined
refres@@
resuming
secretariat-general
valjean
376
525
awareness@@
belle
class3
eritre@@
expatriates
gunfire
hainan
kwai
moth
scars
sms
stiff@@
vege@@
all-inclusive
ceremonial
chis@@
import@@
mation
mos@@
non-paper
penn@@
raj@@
tive-@@
vice-chairs
collisions
cyclic
faith-based
hindrance
imaginary
itas
motiv@@
nay
obese
panor@@
spillover
summers
violators
10.4
cee
dhaka
extrapol@@
gain@@
isa@@
iya
loosely
metabol@@
obliges
opsis
reorientation
second@@
thelial
unavem
work-months
antique
betrayed
clock@@
data-collection
descending
distan@@
epic@@
fos@@
innovate
isnt
nbc
opiates
parap@@
pore
rique
sabah
unambiguous
appoints
bled@@
blurred
caves
deductions
emitting
identity-related
so-@@
spousal
vinegar
,000-@@
100.@@
4,7@@
artem@@
cbs
epit@@
german-@@
illumination
incorrectly
navi@@
qingdao
unregistered
verses
2,900
admittedly
ander@@
baltimore
boasts
courte@@
firewood
gratified
intercepted
sche@@
subordination
trustworthy
adoptions
arthritis
cheng@@
curtains
deceive
descendant
dex
dubious
isma
l.53
lldcs
luckily
purchaser
rett
six-year
staging
vip
.but
controllers
flourishing
helpl@@
iom@@
l.45
oracle
recycle
runoff
tougher
tsunam@@
uneasy
victorian
algebra
assassinated
blending
dhabi
emit
ethylene
forceful
patches
southwestern
symposia
tu-@@
vie
388
blasting
cpd
discomfort
edia
embarrassment
great-@@
greatness
herald
infringements
polytechnic
timer
visualization
dalian
franz
mania
mission-@@
syntax
twenty-four
unpopular
walt
wrought
9,500
917
city-@@
dormitory
embro@@
lipid
mason
shari@@
spam
suspending
torpedo
vanity
year-olds
bea@@
biodi@@
fortified
frank@@
hatch
hypothetical
knowledge-@@
marri@@
narratives
oppressed
retrospective
swan
untold
weather@@
445
455
bral
capitalization
coats
concur
cruiser
dram@@
evenings
ght@@
harvey
highlands
near-earth
stained
usur@@
wilt
announces
ase-@@
benevol@@
burg@@
circumvent
citigroup
dependant
embarking
encoding
f.c
fabric@@
forcefully
jefferson
phenyl
ply@@
unicri
2008@@
aforesaid
confuse
dual-@@
dup
edit@@
heighten
lynch
milling
paralympic
rainwater
socialization
soliciting
sticky
vas
2014-@@
compartment
cpu
dinosaurs
escrow
faulty
geothermal
handicrafts
header
incarcerated
infer@@
infrequ@@
lloyd
naf@@
reassure
repri@@
seless
tid
ás
12.2
5,800
565
assembling
awg
danced
econ@@
janjaweed
kem@@
l.41
repaid
sives
unfamiliar
awaits
capitol
clut@@
dinars
doppler
dynasties
earners
eu-@@
multimodal
one-way
pointer
transfer@@
506
anhui
clow@@
debuted
guing
hsbc
nebula
nerv@@
ohrm
phe@@
sharm
spills
superfluous
11.1
378
attentive
bulletins
commemorating
denuclearization
flour@@
horizons
hua@@
longterm
nod
regionalization
signaling
soundtrack
staff-management
wf@@
adp
anime
ause
basics
bookstore
burmese
curtail@@
disarmed
glycer@@
incineration
intelligen@@
legends
manifests
pertains
populous
up-@@
419
athe@@
carnegie
deduced
dependencies
entrants
extrem@@
flare
gno@@
gown
hq
microscopic
non-international
publicizing
roberto
shippers
slag
sports@@
vaginal
weakest
xie
ave
ayan
blossom
closed-@@
dep@@
drop@@
in-law
killers
l.47
maltreatment
scrupulously
sector-specific
tf@@
victories
visco@@
business-@@
cox
cutaneous
ecologically
intestin@@
lav
rom
rome@@
share@@
sil
synergistic
tilt
unleashed
volunteered
424
486
amber
cascade
circulars
coexist
demolitions
elo@@
minurca
notation
rao
submerged
toler@@
townships
unaffected
understand@@
384
capped
feat
glasgow
incidentally
inter-governmental
iris
oil-for-food
place@@
rana
repatri@@
sql
strateg@@
æ@@
620
addic@@
adop@@
dants
elaborates
enrol
gling
hms
isis
knoc@@
maneu@@
multiplication
override
performan@@
phenomen@@
pless
prayed
sober
taxable
-on
all-round
breast@@
choir
crafted
emulsion
ese-@@
fittings
incompatibility
losers
nord@@
ometric
rafah
short-lived
sth@@
sublim@@
superb
win-win
1998-2001
433
439
affinity
aggrieved
aked
baha
hao
kaw@@
mn
npm
retre@@
solids
397
artic@@
atm
benz@@
boa
chenko
clone
cradle
datas@@
denver
esco@@
geop@@
legitimately
nasiriyah
offenses
officer-in-charge
ptive
reckon
refrac@@
scary
seed@@
transcen@@
tub
zak@@
1882
acutely
adjourned
deliver@@
fung
lings
lique@@
montevideo
omni@@
plain@@
prep@@
starring
suitcase
therapies
1803
34.@@
bicycles
capac@@
cylindrical
debating
divisive
dryland
engr
illi@@
jiang@@
nearer
pernic@@
rubble
synonymous
tiness
tropic
ancestor
ascri@@
attachments
compute
increment
inct
jihad
nea
outla@@
patter@@
sands
sean
sens@@
summon
surfing
tempered
underemployment
wade
418
421
asper@@
coli
colour@@
cop.1
defunct
dised
duma
empress
falsi@@
firm@@
hudson
igi
into@@
l.44
oapr
overtaken
prefectures
99.@@
antibody
apa
carnival
colo@@
conveniently
couch
discovers
ipbes
landowners
last-@@
lg@@
navig@@
pentabde
prohibi@@
prs
tidy
violet
7,200
atlan@@
deaf@@
demand-driven
derek
heav@@
inter-mission
jeremy
justin
moti@@
scoping
tate
uploaded
attractiveness
connor
d2
glass@@
hani
inter-fund
ismail
listeners
nee@@
nintendo
non-custodial
patriotism
phs
portrayal
prolong@@
prosecu@@
610
alloc@@
boast
criminally
ferrous
fungi
morrow
rationalizing
rotary-wing
rushing
schol@@
sufferings
tiers
treaty-specific
4,300
ellular
fascist
guine@@
hurting
icus
melted
non-intervention
olympi@@
relational
results-based-budgeting
sover
strenuous
unog
0.00@@
12.1
atri@@
beset
ce-related
constitutive
newly-@@
obli@@
paho
replacements
revoke
staff@@
baron
cost-of-living
dowry
evaluates
foresees
glaciers
hopeless
in-session
portland
prescriptions
scorecard
staggering
apex
builder
cantonment
commodity-dependent
conversions
dreadful
gilbert
gill
indecent
infanti@@
july-@@
misunderstandings
nearing
snacks
Č@@
432
5,7@@
auto-@@
concentrates
congreg@@
dissatisfied
earth-@@
ensen
fixes
fragment
granite
iter
mtv
opes
pax
peng
perfor@@
syrians
vowel
1390
81-@@
breaker
civil-@@
class4
de-listing
denominations
ern@@
front-@@
indo-@@
jirga
kag@@
kha
menop@@
migrating
porte@@
secondment
sluggish
stres@@
accomplishing
aromatic
aruba
bananas
biomedical
cashier
cherished
framing
handbooks
imp
incrimin@@
internet-based
podium
poetic
pou@@
puzzled
reds
refra@@
rotten
treat@@
anti-competitive
bengal
chrysler
cram@@
elemental
follow-on
gears
iias
inadequately
overseen
poss@@
riders
soever
synthesize
tien
warmest
brunt
chant
exponential
freelance
ggers
malay
onne
pla@@
pta
rets
reunited
rigorously
sailor
screaming
sn
tely
tos@@
unconventional
vinyl
vá@@
1902
complacency
convict
ence-@@
ground-@@
hangs
kam
mics
moist
pelindaba
post-natal
programmer
ranch
remnant
stadi@@
time-frame
triggers
unintentional
unloading
weep
12.7
ascertaining
collaborates
fluorescence
foc@@
idiot
intimidate
ishi
labor@@
monot@@
oui
pixel
sage
scroll
sov
tk
tutor
ène
2000-2003
973
acquires
alternating
asmara
circumcision
concomitant
dues
eed
intuitive
transduc@@
tro
tun
wwf
šić
6,200
dea
manganese
resorts
reu@@
tee@@
terrified
vex@@
483
aman
biochemical
bogotá
brad@@
drac@@
enriching
outweigh
paulson
piecemeal
statues
tann@@
vault
α@@
5,600
abd
anders
arsenic
celac
derer
falsely
implemen@@
ital
orthogonal
prostate
'we
-i
444
5,8@@
aren@@
arf
arming
beng@@
brightest
gamble
grove
hereto
imitation
incense
lighted
nami@@
pay-@@
philanthropic
rehabilitating
relinqu@@
squat@@
strian
un-oceans
usb
video@@
.b
05-@@
443
477
485
all-time
bitterness
missionary
refresher
third-country
vez
vian
→
'you
6,8@@
aar
arc@@
attrition
compart@@
etz@@
firewall
forwards
gandhi
jenin
justi@@
nodule
shing
stabl@@
tripled
vengeance
1591
98.@@
allege
claire
darker
independ@@
intersec@@
presumptive
reacting
sara@@
starter
stirring
sulfon@@
sweetheart
tak
treach@@
1.25
3,100
bishkek
caspian
combin@@
emoluments
hanoi
hemorrhage
hose
industr@@
isl@@
kandahar
non-family
panam@@
pear@@
proven@@
provoking
une@@
upper-@@
80s
anti-aircraft
binuca
cation
class5
criticizing
enrique
honor@@
khalil
knocking
large-@@
ozonedepleting
sequestration
tress
429
5,5@@
abatement
asm
christine
consultancies
court-@@
decorations
dismis@@
dread
gencies
gpa
hughes
iyah
math@@
salv@@
spread@@
unplanned
vitally
yance
0.00
administr@@
burger
cn-235
cookies
cosette
costumes
dots
inge
irreparable
kau@@
overturned
retin@@
summed
supermarkets
tribun@@
truths
33.@@
393
adc
ails
allowable
au-@@
biosphere
carr@@
cod
defer@@
ef-@@
inhalers
market-oriented
membran@@
nic
novel@@
perpetration
photographed
pulls
reappointment
samsung
spearheaded
specializes
478
anz@@
excep@@
gli
greening
ontology
ple-@@
polyne@@
pre-emp@@
probes
rash
respectable
trailers
tuned
5000@@
addicted
deviations
eag@@
flaw
footsteps
guar@@
noah
omi
pollen
1899
4,800
5,300
clans
clutch
colos@@
inhalation
masked
myocardial
patron
starred
telecon@@
5,400
502
anten@@
classics
crou@@
destabilization
euc@@
idate
ime@@
iq@@
mop@@
mutil@@
resour@@
senegalese
skins
slam
stressful
videot@@
water-related
abund@@
ambigu@@
anni@@
distillation
ein
espionage
ginger
hb@@
intro@@
kurds
packagings
reset
roadblocks
specialize
tresses
té@@
war-affected
437
dysfunction
hydrographic
isers
jessica
lifespan
retroactive
slump
tle@@
underwear
508
ative-@@
couldnt
embodiment
eternity
flexibly
frightening
infarction
punjab
pyra@@
redd-plus
rero
scant
tland
453
alba
clips
gracious
icism
interconnection
iri
mw@@
vegetarian
š
1864
399
awar@@
coe-@@
dap@@
este@@
evacuations
eve@@
forest-@@
hampshire
manuscripts
pentagon
respectfully
richness
uniqueness
yum@@
almighty
anza
chronic@@
cobalt
cultiv@@
decisionmaking
drowning
foresight
infancy
information-@@
lib
meas
mina
regularization
seman@@
semipalatinsk
write-offs
zionist
00s
1100
anticipates
camel
cec@@
destroyer
diox@@
graphite
kati@@
kay
legco
ont
orientations
outdoors
parcels
penta@@
phoned
prioriti@@
scanner
spart@@
thwar@@
watts
2001-2002
adventu@@
border@@
burdensome
elessly
explode
gate@@
hardened
illegality
js
lax
lure
multiculturalism
pere@@
purpose@@
reasonableness
stures
tification
assor@@
atical
chewing
chávez
city@@
confer@@
descend
dwind@@
imana
instructive
labour-@@
les-@@
mastery
phic
port-@@
scape
spectroscopy
stre
442
630
barric@@
crow
dude
gp
gued
hardy
hospitalized
kow@@
non-parties
shiny
situ@@
spoiled
vities
weaponization
52nd
clearing-house
crates
cristo
definitively
eus
l.46
objecting
scrupulous
strand
subversive
transmits
utop@@
90s
chief@@
civ@@
distinguishes
endogenous
exportation
hydr@@
mian
mosaic
ophone
paced
penalize
saturation
sergei
trademarks
usability
writ
4,600
abusing
baalbek
deployable
eving
jou@@
monsters
nh
owl
pete
renov@@
ssr
stamped
steph@@
thi
‎
albu@@
arrays
cartridge
clcs
dissoci@@
estu@@
gender-disaggregated
hasty
hiro@@
intru@@
jamaican
literal
masculine
orient@@
pits
programmers
repeat@@
seaport
stretches
stripes
uting
wg.i
200-@@
altern@@
amidst
anthropolo@@
branding
compensating
consec@@
dosage
ellan@@
exal@@
for-profit
irony
marrakech
misappropriation
nikol@@
onerous
pathology
phi
pseudo@@
sory
souther@@
unogbis
whisper
7,0@@
715
ateral
bedrock
charters
commodity-@@
counterterrorism
early-warning
flammable
formul@@
incar@@
legion
leopard
mentors
nourishment
predicated
t-to-@@
virtu@@
465
agony
calculus
countermeasure
eing
impermissible
undafs
2008-2013
513
conserving
emails
kicking
kni@@
love@@
make-up
maths
nazis
precluding
ra-@@
ratic
stature
sultanate
swi@@
unfit
466
6,400
breast-@@
bub@@
celsius
cloudy
emphasised
icit@@
mustafa
offline
powerless
supernova
syri@@
tram
usen
waterways
cott@@
five-day
infor@@
low-level
pak@@
pois@@
pursu@@
ramp
re-engineering
theor@@
thos
tino
5,9@@
abbreviated
agribusiness
annoying
bizarre
blasph@@
decep@@
developing-country
entang@@
exerting
flung
freeing
kedness
landslide
loo
maiming
mutations
relegated
sley
susceptibility
ulu
427
ako
aned
attends
attest
benefit-sharing
buoy@@
byzantine
cbms
consul
cosp
decel@@
gué@@
pandemics
pens
quito
school-@@
skir@@
stagn@@
urinary
utilizes
vigour
auc@@
chop
decimal
edic
forgetting
glos@@
impractical
kiln
pod@@
ril
shortcoming
sociological
sufficiency
sw
tractors
triumph@@
waved
6,600
alising
alternates
casc@@
dc-@@
depic@@
gag@@
germin@@
harper
hyster@@
leaf@@
offend
pical
plets
separates
stati@@
strawberry
tractor
tto
wellington
09-@@
438
532
7,600
aldehyde
converge
edison
kus@@
laughs
selfl@@
small-
spans
sper@@
surpass
swer@@
tionality
togolese
umber
uprooted
wired
6,7@@
appraise
bound@@
carl@@
cocktail
country-led
derers
erase
king-@@
lf
nozzle
pher
alias
aston@@
contingencies
cos@@
diallo
graphi@@
groove
isse@@
rous@@
spit
substandard
zurich
adheres
bunker
connector
efs
embraces
halloween
lópez
mole
perish
shack@@
soc@@
ushu
badge
calam@@
composites
destroys
ivan@@
microstructure
organising
promulgate
scaff@@
surf
suzhou
2010-2013
activ@@
alge@@
axe
bondage
entertaining
injunction
jet@@
l.52
mediate
novelist
oppressive
painsta@@
peculi@@
pre-
prolifer@@
propri@@
robo@@
scra@@
vacated
visibly
worthless
2006-2010
accomplices
assigns
bona
exposition
groves
kla@@
legislatures
mating
merited
morning@@
penetrating
pioneers
pradesh
saami
slic@@
substantiation
tah
unincorporated
vice-chairpersons
3,900
434
454
carti@@
consor@@
demons
electrification
essions
evicted
headline
hoff@@
mock@@
near@@
perinatal
prose
stream@@
truc@@
398
4,700
718
barn
black-@@
blood-@@
disks
elis@@
gars
imaginable
opaque
personalized
rod@@
satisfies
semi-arid
tanz@@
whispered
1989-@@
394
agri@@
antic@@
cide
crf
kirkuk
looming
newborns
octo@@
papa
patented
pcnicc
scarlet
undeclared
4-5
8,400
aho
arri@@
ativeness
gira@@
kro@@
porting
propor@@
redefine
smugglers
techno@@
trembling
vac
vapour
120-mm
acetic
cortex
dens
enlarging
grids
inhibited
irrevocable
mine-action
op-crc-@@
predicts
recoverable
rendi@@
sensitizing
twofold
unis@@
weapons-@@
0.0
bruno
chrome
development@@
drained
exagger@@
ferro@@
hydrogen@@
iety
learner
necessitates
necklace
prescri@@
renovations
stp
bang@@
clear-@@
decad@@
dun
nagasaki
oak@@
thorough@@
tilla
vall@@
warships
well-functioning
blonde
brasilia
colloqu@@
confid@@
contestants
finder
i-i
icate
poker
quota-free
rallies
revie@@
snee@@
state-run
ushe@@
whom@@
zers
7,800
andre
aus
brazzaville
dedly
endocrine
forbid
infec@@
ingo
life-cycle
mombasa
simpson
trainee
-specific
545
blur@@
clerosis
dcp
dismay
fia
gloom
itely
maim@@
middle@@
noun
oro@@
polymerization
prom
qian
rc-@@
rogue
smells
tending
trans
tsing
unam@@
unmas
allotments
ballast
betting
ceilings
commutation
congratulates
constructions
delu@@
doth
ducks
echo@@
eide
evils
fingerprint
gov.@@
julie
junta
mommy
rit
shameful
sharpen
world-wide
μ@@
anew
cash@@
cpa
crackdown
criticised
cry@@
detaining
fading
kara
mushroom
narrower
nunat@@
shoppers
spencer
spies
stocktaking
subsystem
ventricular
wii
wren@@
6,300
alek@@
arma@@
barb@@
bol
culmination
discounted
frogs
gore
jia@@
kly
kop@@
libreville
plumbing
praying
random@@
secretar@@
shades
slang
torto@@
vigor
1840
57th
90,000
bao@@
brad
cn.5
debit
demographics
devil@@
dignitaries
dispel
emaker
enligh@@
flip
inclu@@
myth@@
nascent
nex
ohchr@@
prog
rehear@@
risk-based
solves
spid@@
yne
ğ@@
ş@@
1747
529
asylum-seeking
bauer
destitute
disposing
dov
eden
gastro@@
heirs
ingenu@@
nai
problem@@
rein
ribs
sic@@
smoked
sofia
swar@@
ugc
vertically
vist
6,800
arche@@
astonishing
beij@@
bosom
conspir@@
employability
entropy
expl@@
hernández
instructional
instrumentation
materially
negro
propellant
samar@@
separations
tirelessly
vor
add.8
advertise
al-sha@@
apolis
appellant
aroma
ceos
conforming
hort
miracles
oval
piers
rotations
semen
confucius
footwear
ika
install@@
kw
laudable
mira@@
nodded
non-legally
porch
rcd
sef
sume
wander
weld
wholeheartedly
'seems
492
504
coch@@
contempor@@
engul@@
irreversibility
programmable
puppy
refunds
ried
speak@@
uni
458
aerodynam@@
agi
alties
astronau@@
bibliography
dry@@
epilep@@
greedy
hies
lame
medvedev
mosquitoes
neph@@
observatories
pv
schmidt
shortening
siberia
u.s
1160
457
49,@@
catho@@
darcy
depicting
discour@@
hepat@@
middle-aged
normality
1455
451
abstr@@
appointe@@
bast@@
bathing
behaved
chw
conceive
convul@@
cynical
dragons
heterosexual
house-@@
inference
irritation
luminous
mend
messrs.
middle-class
orship
patricia
piloting
resembling
swf
symmetric
updf
upload
xxii
balcony
bell@@
blankets
boutro@@
crest
développement
eliminates
fishes
fruit@@
l.51
ocul@@
projecting
task@@
unanswered
villa@@
wildly
y-
breasts
dough
emigrants
mana
masi@@
precaution
proudly
selects
tensile
thom@@
wallace
westminster
world-class
.and
buy-@@
cheon
clicking
elli@@
exchan@@
expounded
facilitative
hubei
interfer@@
marches
messengers
ocar@@
prop
sector-wide
snapshot
spit@@
transactional
tsim
unta@@
uro
visionary
wee
denoun@@
fallout
glove
humorous
ing-related
intertwined
lep@@
outw@@
reinvigorate
trinity
victimized
498
5,700
580
belie@@
bishops
cabine@@
coni
counters
investor-state
metered-dose
ospheric
particul@@
ruthless
sain
socio-cultural
asteroids
calf
carpenter
clad
cuhk
disestablishments
fisherman
forget@@
ias@@
impedance
insulting
intransi@@
itaries
knesset
morales
nebraska
nuclei
packets
photome@@
plentiful
report@@
salinity
samawah
sentin@@
virg@@
accessions
admirable
ambush
amorph@@
aning
arouse
carers
ende@@
entit@@
feng@@
field@@
globalisation
kidding
loopholes
meridian
plasm
states-@@
turbines
xl@@
al-
backlash
cadmium
col.
focus@@
footballers
length@@
mayi
moonlight
necess@@
otic
p5
plainly
post-secondary
unavailability
undercover
asian-african
cereals
disd@@
erbil
ethno@@
flexi@@
ister
midpoint
mirac@@
naive
noises
overlaps
overlooking
scap@@
slab
splend@@
transcend
venting
1894
484
baff@@
cancún
dcs
e.g
insufficiency
leness
limit@@
severed
stuart
surfac@@
swings
throughput
tot@@
transl@@
、
20s
assi
emig@@
first-class
grossly
guise
hafi
imaginative
infusion
mae
mega-@@
panzer
plead
recess
renounced
sau
self-sufficient
stamping
unts
walled
y-wide
646
aristotle
co-sponsor
dolphin
enta
hing@@
kenneth
kis
overex@@
peptide
perry
preserves
ramadan
receptors
rent-@@
spilled
autonom@@
bable
iah
interrogations
ipsas-compliant
itarianism
modernity
prejudicial
slack
slum@@
stit@@
sway
turkmen
underfunded
vili
webpage
557
apps
asians
clari@@
controllable
corr@@
eit
jord@@
js3
mathematician
melancholy
outpost
respir@@
succeeds
they@@
thought@@
watercourse
yr
22,000
apost@@
appreciative
bulls
consented
crp.4
depict
imon@@
lattice
orate
preview
receptive
resettled
soared
sq@@
tcm
ubiquitous
éri@@
demonstra@@
distributive
enam@@
hints
leng@@
lett
nablus
ologies
staircase
streak
unfulfilled
vier
396
58th
ains
alkaline
antim@@
cater@@
champion@@
claim@@
colin
contrac@@
end-of-@@
fragrant
guang
mort@@
onion
repeats
scopy
trics
valuing
volcanoes
york@@
447
448
afghan@@
amoto
bestowed
breakthroughs
carri@@
cloak
corrosive
dollar@@
eddie
flowering
impatient
paused
rejo@@
ringing
rying
superseded
tino@@
turnaround
unra@@
vieira
wilhelm
1600
1898
again@@
ancies
anti-poverty
arte@@
aster@@
consonant
csw
dynamically
judaism
liaoning
madness
month-@@
sculptures
taxed
unprotected
what@@
woo@@
abovementioned
annulment
boulevard
coincides
cousins
dismal
distract
gen.
icked
landfills
lling
madonna
misdemean@@
ru
samo@@
smashed
ssa
stipen@@
žić
annoyed
cann@@
carving
enlist
entre@@
horizon@@
illuminated
impover@@
kal
malnourished
palmer
performer
protesting
readable
rip
tably
uru
weight@@
1999-2000
a2
aids-related
back-to-@@
coffin
cops
disgrace
dolphins
figu@@
groundless
pati@@
sea-level
simul@@
snail
taxis
acquiescence
aying
batman
bun
courier
cum-@@
extraordinarily
herding
listener
non-commercial
retreated
slow-@@
tort
brotherly
cautiously
conditioner
convicts
counsel@@
denis
diarrhea
fiu
fixtures
imitate
implementations
interplay
midfielder
olar
oles
overload
pessimistic
receptac@@
royalty
sary
securely
shorts
taboo
tainted
topography
transp@@
tung@@
wrongfulness
abject
apologized
atis@@
cabbage
dn@@
doom
ecy@@
exposes
heter@@
ican
intelli@@
lagos
letter@@
peril
platoon
plings
pref@@
schö@@
sette
strap@@
uli
youthful
495
511
alphabetical
cougar
countenance
disqualified
drs
ghosts
kitty
oes
oney
recuperation
signify
solic@@
stochastic
synony@@
therefor
uncts
4,6@@
anus
boris
composing
doe
doorway
effecting
emu
encroachment
girl@@
gymnasium
hides
islander
jailed
leonean
pd@@
peanut
pecuniary
plum
reviving
stra
wolfgang
benzene
brows
cafeteria
chlo@@
cordial
impressions
joyful
martha
mau@@
president-elect
redemption
renting
resear@@
terminus
typed
upheaval
watering
bernanke
brakes
bromodiphenyl
clement
contaminants
contro@@
day-@@
demarc@@
desolate
dhs
esd
hind@@
icia
imperialism
incess@@
inner@@
kisses
lul@@
monua
pac
protector
requ@@
surgeons
tah@@
446
bacterium
cling
cop.9
distracted
eans
embryos
glad@@
growers
iko
kong@@
ored
outposts
pei
poisoned
presup@@
reclaim
rober@@
sedimentary
sein
watt
yal
75,000
abi@@
actuary
andi@@
carav@@
compatriots
consumables
contrasts
crashes
drone
eccentric
impati@@
intricate
locomotives
mass-@@
ob
opin@@
plunge
roofs
waving
withdrawals
8,600
aggressors
capitalized
combatant
craf@@
dical
digestion
eluci@@
eye-@@
hamburger
happiest
implantation
iranians
rb
squarely
timothy
tsman
deferral
galleries
icular
journ@@
resur@@
tempo
theaters
unsom
yaw@@
555
annex@@
biographical
birthplace
brightly
discern
gard
inequity
licen@@
microphone
mouvement
notor@@
pter@@
raided
scc@@
spicy
zon@@
5a
by-catch
french@@
jes@@
mast
natives
nell
qua
rcd-@@
recti@@
self-governing
soft-@@
technologically
telephony
xxiv
570
abb
anonymity
bde-@@
caroline
compu@@
decency
dus@@
geon
ifr@@
inefficiency
ishly
jana
lesson@@
malagasy
nie@@
pali@@
pins
reconfirmed
start-@@
swords
two@@
verbales
wak
zheng@@
aram@@
barn@@
biblical
canned
cend@@
critical-use
cé@@
dormant
ers-@@
grained
heral@@
mea
meagre
multi-party
one-off
opportune
oxides
pls
purch@@
tice
trical
wing@@
aceh
ane@@
ationally
creators
eck
ferdinand
gne
guizhou
ilian
indignation
islamophobia
kivus
monsieur
oxfam
piping
procurator@@
radiant
rubbing
sparse
ull
-the
alexandria
amir
beware
carni@@
citizen@@
colom@@
escap@@
ez-@@
fes@@
frustrating
generational
ition
needles
page@@
plaque
pyth@@
raj
ruby
specifics
spectacle
zhuang
1844
9,800
abhor@@
accomplice
asset-@@
awe
compacts
contagion
disillu@@
dislocation
existent
half-life
harare
headmaster
icons
inequitable
iptf
irene
marginally
milton
mission-wide
relati@@
rey@@
shenyang
tenets
tility
trans-shipment
à@@
adaptations
commuting
drills
endang@@
favou@@
lieu@@
negli@@
neighborhoods
non-strategic
phone@@
pw@@
singaporean
slovenian
590
abdel
afri@@
capillary
co-located
cologne
earns
emit@@
expounds
foe@@
helm
kas
merrill
one-sided
searchlight
stool
transparently
tyranny
y-level
yeh
431
522
cies
considerate
isting
on-based
receivers
stein@@
syllabus
toad
unep-@@
unes
7,300
antibodies
arrogance
common-@@
composers
denomin@@
handwriting
jehovah
lantau
ledge
liest
modeled
paediatric
phillips
rots
serge@@
simpl@@
work-related
36-@@
736
antibiotic
basrah
bats
bhutto
bm
chased
dau@@
debugging
delightful
disclosing
dusk
fibres
gainful
grap@@
jung
local-level
pine@@
ral@@
sleepy
tha@@
thful
trench
én
'homme
128.@@
468
515
apcict
barbar@@
cheap@@
convection
ffin
insults
misused
nmost
postpon@@
rees
rehabil@@
rug@@
s1
schul@@
terrace
24,000
469
airbus
atta
cancun
curfew
dove
downside
er.@@
guild
hawaiian
hobbies
ician
in-chief
indoors
inspecting
invade
kj@@
litho@@
low-lying
macedonian
messi@@
molten
normalcy
persuasive
piti@@
sna@@
stipulation
sumes
swore
wiring
α
5,100
8,8@@
billi@@
canberra
casu@@
counterfeiting
demor@@
dmit@@
drop-@@
inversion
laptops
laun@@
uncover
amide
assed
believable
bristol
caffeine
correspondingly
diagrams
dji@@
f3
fee-@@
healed
humility
jec@@
kpa
majors
penis
pleadings
session@@
squeezed
sustain@@
tizing
unclean
volu@@
west-@@
Ž@@
11.5
ativity
autopsy
ches@@
cw
export-oriented
iniquity
iq
musharraf
nonprofit
omy@@
resolves
senior-level
stair@@
starters
swd
technic@@
625
affords
b2
bhu@@
biennially
bolts
browse
calend@@
class6
cob@@
disappearing
disqualification
fraught
harve@@
iuu
liners
mering
multi-sectoral
neal
parat@@
paternal
ples@@
prescriptive
quarrel@@
sque@@
stadt
tico
vandalism
workout
6,9@@
amor
bowling
climate-related
curricular
glan@@
halo
histo@@
improperly
isse
janet
jed@@
nhrc
plug-@@
promul@@
redd
statesman
trusting
waivers
459
9,600
archdiocese
biosecurity
bw@@
coer@@
defuse
delinqu@@
dragging
e2
honouring
host@@
reissued
uten@@
551
604
actuaries
alzheimer
bounce
clarifies
elicit
embo@@
loser
normal@@
ounding
overflow
peel
pretending
retribution
salon
spirit@@
stereo
tants
url
548
blind@@
boul@@
cartridges
chip@@
chronically
grati@@
irreplaceable
l.54
mong@@
mouths
muk@@
novelty
oai
perished
replen@@
spectr@@
staffs
subdistrict
underprivileged
33-@@
467
7,8@@
anesthesia
bikes
bodied
chechen
financiers
frequ@@
honorable
incompetent
investig@@
kerry
lowed
obeyed
promoter
reinforcements
suck
welded
witchcraft
astonished
bites
comprehensible
critique
dents
discus@@
dled
e-mails
eccle@@
fuel-@@
hubble
indiscriminately
obstructing
orientale
pathy
qal
rector
ss-@@
swell
556
abound
abstraction
bump
coup@@
huk
igos
itus
leaks
linear@@
obsessed
oscillation
registrations
sacked
sterone
takers
tor-@@
uttered
xp
able-@@
anx@@
budd@@
busiest
craig
goal@@
guissé
invading
mind@@
onin
raion
reallocation
repatriate
superman
transcend@@
trough
vod@@
waits
westward
1284
airfields
belligerent
demand-@@
denomination
discriminating
excision
flick@@
infect
iry
itted
liar
lumbar
minh
ocene
poo
preserv@@
renewa@@
rule-of-law
servo
shutdown
8,0@@
97.@@
antio@@
aqueous
beauti@@
defy
demol@@
devo@@
eh@@
electors
embroidery
eping
fraternity
gastrointestinal
gichd
handball
iest
indu@@
inert
inst@@
l.55
melamine
multi-country
siap
startup
tary
vious
zin
aure@@
cellulose
chord
classifying
crat@@
escu
hart@@
inations
is3.@@
killa
monteneg@@
nial
overemphasized
rainforest
relinquish
seea
seepage
surprises
affection@@
apes
arrondissement
arteries
auctions
cue
curry
customization
development-@@
exits
feedstock
foo@@
ishi@@
loom
myo@@
nico@@
particip@@
scripture
sprang
tires
adoptive
aph@@
chri@@
chry@@
cursed
erection
ether@@
garcia
irradiation
jewels
khi@@
lude
mare
nicole
overt
rural-@@
sabbath
smoo@@
spice
zag@@
1887
aut@@
cohen
gratifying
hastily
heil@@
iia
insan@@
instan@@
jali@@
lindane
lv@@
neptune
operationalizing
philis@@
private-@@
qualitatively
question@@
strong@@
tadi@@
tedly
trans-asian
usher
441
bloom@@
crucially
defe@@
dier
evacu@@
jonglei
leaned
nigel
oft
petr@@
pierce
pn
runner@@
wilful
608
administratively
ashley
chimney
civil-military
dence
denunciation
egal@@
epis@@
epoch
fdd
fik
haul@@
hemis@@
hybri@@
intellect
it.
journeys
lain
march-@@
nostal@@
successively
terra
wrapping
-a
70-@@
allan
cub@@
detract
easter@@
henderson
ired
ocr@@
oires
recharge
revenue-@@
rics
sexuals
vieques
zanzibar
2005-2015
8,800
aesthe@@
al-qa
authored
chris@@
dangerously
dictator
donor-@@
embryonic
fernández
kidnappings
marching
meditated
naqoura
nut@@
oilfield
passions
persuasion
refresh
ricardo
shave
spati@@
sukhumi
symmetrical
telemedicine
yea
2006-2009
514
alum@@
ascending
asy@@
classmate
clustered
dtie
dysfunctional
edged
finishes
hinges
hog
indexing
larvae
login
loosen@@
mccar@@
millionaire
muc@@
open-source
populace
ravaged
stalls
unlock
upu
warhead
1850
45,000
apoc@@
[...]
